
#ifdef __has_attribute
#define HAVE_ATTRIBUTE(x) __has_attribute(x)
#else
#define HAVE_ATTRIBUTE(x) 0
#endif
#if HAVE_ATTRIBUTE(aligned) || (defined(__GNUC__) && !defined(__clang__))
#define DATA_ALIGN_ATTRIBUTE __attribute__((aligned(4)))
#else
#define DATA_ALIGN_ATTRIBUTE
#endif

const unsigned char model_data[] DATA_ALIGN_ATTRIBUTE = {0x1c, 0x00, 0x00, 0x00, 0x54, 0x46, 0x4c, 0x33, 0x14, 0x00, 0x20, 0x00, 0x1c, 0x00, 0x18, 0x00, 0x14, 0x00, 0x10, 0x00, 0x0c, 0x00, 0x00, 0x00, 0x08, 0x00, 0x04, 0x00, 0x14, 0x00, 0x00, 0x00, 0x1c, 0x00, 0x00, 0x00, 0x94, 0x00, 0x00, 0x00, 0xec, 0x00, 0x00, 0x00, 0x48, 0x0b, 0x00, 0x00, 0x58, 0x0b, 0x00, 0x00, 0xf4, 0x0f, 0x00, 0x00, 0x03, 0x00, 0x00, 0x00, 0x01, 0x00, 0x00, 0x00, 0x10, 0x00, 0x00, 0x00, 0x00, 0x00, 0x0a, 0x00, 0x10, 0x00, 0x0c, 0x00, 0x08, 0x00, 0x04, 0x00, 0x0a, 0x00, 0x00, 0x00, 0x0c, 0x00, 0x00, 0x00, 0x1c, 0x00, 0x00, 0x00, 0x40, 0x00, 0x00, 0x00, 0x0f, 0x00, 0x00, 0x00, 0x73, 0x65, 0x72, 0x76, 0x69, 0x6e, 0x67, 0x5f, 0x64, 0x65, 0x66, 0x61, 0x75, 0x6c, 0x74, 0x00, 0x01, 0x00, 0x00, 0x00, 0x04, 0x00, 0x00, 0x00, 0x94, 0xff, 0xff, 0xff, 0x07, 0x00, 0x00, 0x00, 0x04, 0x00, 0x00, 0x00, 0x0c, 0x00, 0x00, 0x00, 0x64, 0x65, 0x6e, 0x73, 0x65, 0x5f, 0x44, 0x65, 0x6e, 0x73, 0x65, 0x32, 0x00, 0x00, 0x00, 0x00, 0x01, 0x00, 0x00, 0x00, 0x04, 0x00, 0x00, 0x00, 0xa6, 0xf4, 0xff, 0xff, 0x04, 0x00, 0x00, 0x00, 0x06, 0x00, 0x00, 0x00, 0x69, 0x6e, 0x70, 0x75, 0x74, 0x31, 0x00, 0x00, 0x02, 0x00, 0x00, 0x00, 0x34, 0x00, 0x00, 0x00, 0x04, 0x00, 0x00, 0x00, 0xdc, 0xff, 0xff, 0xff, 0x0a, 0x00, 0x00, 0x00, 0x04, 0x00, 0x00, 0x00, 0x13, 0x00, 0x00, 0x00, 0x43, 0x4f, 0x4e, 0x56, 0x45, 0x52, 0x53, 0x49, 0x4f, 0x4e, 0x5f, 0x4d, 0x45, 0x54, 0x41, 0x44, 0x41, 0x54, 0x41, 0x00, 0x08, 0x00, 0x0c, 0x00, 0x08, 0x00, 0x04, 0x00, 0x08, 0x00, 0x00, 0x00, 0x09, 0x00, 0x00, 0x00, 0x04, 0x00, 0x00, 0x00, 0x13, 0x00, 0x00, 0x00, 0x6d, 0x69, 0x6e, 0x5f, 0x72, 0x75, 0x6e, 0x74, 0x69, 0x6d, 0x65, 0x5f, 0x76, 0x65, 0x72, 0x73, 0x69, 0x6f, 0x6e, 0x00, 0x0b, 0x00, 0x00, 0x00, 0x58, 0x0a, 0x00, 0x00, 0x50, 0x0a, 0x00, 0x00, 0x30, 0x0a, 0x00, 0x00, 0xd0, 0x09, 0x00, 0x00, 0xf0, 0x01, 0x00, 0x00, 0xa0, 0x00, 0x00, 0x00, 0x98, 0x00, 0x00, 0x00, 0x90, 0x00, 0x00, 0x00, 0x88, 0x00, 0x00, 0x00, 0x68, 0x00, 0x00, 0x00, 0x04, 0x00, 0x00, 0x00, 0x46, 0xf5, 0xff, 0xff, 0x04, 0x00, 0x00, 0x00, 0x54, 0x00, 0x00, 0x00, 0x0c, 0x00, 0x00, 0x00, 0x08, 0x00, 0x0e, 0x00, 0x08, 0x00, 0x04, 0x00, 0x08, 0x00, 0x00, 0x00, 0x10, 0x00, 0x00, 0x00, 0x24, 0x00, 0x00, 0x00, 0x00, 0x00, 0x06, 0x00, 0x08, 0x00, 0x04, 0x00, 0x06, 0x00, 0x00, 0x00, 0x04, 0x00, 0x00, 0x00, 0x00, 0x00, 0x00, 0x00, 0x00, 0x00, 0x0a, 0x00, 0x10, 0x00, 0x0c, 0x00, 0x08, 0x00, 0x04, 0x00, 0x0a, 0x00, 0x00, 0x00, 0x02, 0x00, 0x00, 0x00, 0x02, 0x00, 0x00, 0x00, 0x04, 0x00, 0x00, 0x00, 0x06, 0x00, 0x00, 0x00, 0x32, 0x2e, 0x31, 0x35, 0x2e, 0x30, 0x00, 0x00, 0xa6, 0xf5, 0xff, 0xff, 0x04, 0x00, 0x00, 0x00, 0x10, 0x00, 0x00, 0x00, 0x31, 0x2e, 0x35, 0x2e, 0x30, 0x00, 0x00, 0x00, 0x00, 0x00, 0x00, 0x00, 0x00, 0x00, 0x00, 0x00, 0xcc, 0xf1, 0xff, 0xff, 0xd0, 0xf1, 0xff, 0xff, 0xd4, 0xf1, 0xff, 0xff, 0xce, 0xf5, 0xff, 0xff, 0x04, 0x00, 0x00, 0x00, 0x40, 0x01, 0x00, 0x00, 0x72, 0xa6, 0xe2, 0xbd, 0x87, 0xe9, 0xb9, 0x3f, 0x91, 0xee, 0x1a, 0xc0, 0xb5, 0x29, 0x29, 0xbe, 0x7e, 0xfd, 0xe7, 0xbe, 0xab, 0xe8, 0x17, 0x40, 0xe4, 0xd5, 0xf3, 0xbe, 0xc5, 0xaf, 0x42, 0x40, 0x5b, 0x0e, 0xe5, 0xbe, 0x91, 0x6e, 0xf8, 0xbe, 0xe6, 0x5e, 0x15, 0x40, 0xb0, 0x43, 0x42, 0x3e, 0x2c, 0xb1, 0x28, 0xc1, 0x89, 0xc4, 0xf6, 0x3e, 0xfe, 0x5b, 0xaa, 0x40, 0xbd, 0x01, 0xa1, 0x3e, 0x93, 0xc7, 0x63, 0x40, 0xe2, 0x80, 0x92, 0xbe, 0x08, 0x02, 0x75, 0x40, 0xc2, 0x3b, 0xa1, 0xc0, 0x5d, 0x03, 0xbb, 0x3e, 0xeb, 0xb3, 0x79, 0x3e, 0x76, 0x1c, 0xf4, 0xc0, 0x97, 0x04, 0xfa, 0x3d, 0xfe, 0xba, 0xf8, 0xbe, 0x37, 0x92, 0x5e, 0x3f, 0x39, 0x63, 0x1e, 0x3f, 0x66, 0xd3, 0x41, 0x3d, 0xab, 0x60, 0xbf, 0x3e, 0x7e, 0x3d, 0x41, 0x3e, 0x28, 0xaa, 0xf3, 0xbf, 0xb3, 0x21, 0xf2, 0xbe, 0x2c, 0x1d, 0xa5, 0x40, 0xd8, 0x36, 0x8a, 0xbe, 0xf7, 0xba, 0x5f, 0xc0, 0xca, 0x09, 0xe1, 0x3c, 0x81, 0xe0, 0xfb, 0xc0, 0xc7, 0x36, 0xeb, 0xbe, 0x72, 0x50, 0x90, 0xc0, 0x12, 0x2e, 0x20, 0x41, 0x1d, 0x19, 0x95, 0x3e, 0x51, 0x68, 0x01, 0xc0, 0x9d, 0x8d, 0xc1, 0x40, 0xb0, 0x8b, 0xb3, 0x3e, 0xb9, 0x32, 0xdc, 0x3e, 0xf3, 0x52, 0x54, 0xc0, 0x63, 0x9d, 0x27, 0xc0, 0x7b, 0x90, 0x26, 0xc0, 0x70, 0xcd, 0xd3, 0x3e, 0xfd, 0x27, 0xac, 0x3e, 0x0d, 0xd3, 0xc7, 0xbf, 0x79, 0x4f, 0x8d, 0x3e, 0x9c, 0x4a, 0xdc, 0x3f, 0xb3, 0x52, 0x51, 0x3d, 0x0b, 0x84, 0x08, 0xc0, 0xb8, 0x89, 0x3b, 0x3e, 0xa1, 0x38, 0xdf, 0xbf, 0x15, 0x32, 0x0f, 0xbe, 0x74, 0xfc, 0x80, 0xbf, 0x50, 0x2e, 0x42, 0xc1, 0xc5, 0x10, 0xf7, 0xbd, 0x15, 0x6f, 0xc1, 0xbe, 0x5b, 0x6b, 0x0a, 0x3d, 0x47, 0x9f, 0xdf, 0x3e, 0xa6, 0x9b, 0x4c, 0x3d, 0x00, 0xd5, 0x34, 0xc0, 0x03, 0xe7, 0x69, 0xbf, 0x1a, 0x3a, 0x1e, 0xbf, 0x30, 0x4f, 0xd2, 0xbb, 0x19, 0x9c, 0x2b, 0x3e, 0xf0, 0x45, 0x86, 0x3d, 0x77, 0xe9, 0x6a, 0x3e, 0xb1, 0xba, 0x84, 0xbf, 0xac, 0x19, 0x02, 0x3e, 0x44, 0x8f, 0x60, 0xbf, 0x64, 0xb8, 0x05, 0x3e, 0xb6, 0x83, 0x1d, 0x40, 0x46, 0x2a, 0x47, 0x3e, 0x52, 0x65, 0x6b, 0xbf, 0xb5, 0xfd, 0x57, 0x3f, 0x1a, 0xf7, 0xff, 0xff, 0x04, 0x00, 0x00, 0x00, 0xd0, 0x07, 0x00, 0x00, 0x01, 0x20, 0xa0, 0xbe, 0x43, 0xf1, 0x50, 0xbe, 0x8a, 0xa0, 0xa8, 0x3d, 0x7b, 0x8e, 0x1d, 0x3e, 0x2d, 0x74, 0x1b, 0xbe, 0x50, 0x7a, 0xf3, 0x3d, 0x90, 0x54, 0xa8, 0xbe, 0x9e, 0xc2, 0x87, 0xbd, 0x1d, 0xce, 0x8a, 0xbe, 0x40, 0xcc, 0x38, 0x3e, 0xcb, 0xc2, 0xb1, 0xbe, 0x5b, 0x23, 0x14, 0xbd, 0x86, 0x75, 0xae, 0x3d, 0x20, 0xc4, 0x92, 0x3c, 0x13, 0x16, 0xf6, 0xbd, 0x50, 0xa5, 0x58, 0xbe, 0x9d, 0x81, 0x7c, 0xbe, 0xab, 0x44, 0x82, 0xbd, 0x8b, 0xbb, 0x95, 0xbe, 0x55, 0x85, 0xa5, 0xbe, 0x79, 0xc0, 0x80, 0xbe, 0x09, 0xfe, 0x18, 0x3e, 0x5a, 0xfa, 0x8a, 0xbe, 0xbf, 0x49, 0x57, 0xbe, 0x6f, 0x8b, 0x97, 0x3e, 0x54, 0x65, 0xc4, 0x3d, 0x42, 0x48, 0x5a, 0x3f, 0x0b, 0xa3, 0xa2, 0xbf, 0xba, 0x23, 0xe8, 0xbe, 0xbe, 0x69, 0x2d, 0x3d, 0x26, 0x78, 0xbf, 0xbe, 0xa6, 0xa9, 0x00, 0x3f, 0x52, 0x31, 0x95, 0x3d, 0xdb, 0xcf, 0xdd, 0xbe, 0xb1, 0xc9, 0x22, 0xbf, 0xf2, 0x1f, 0xe4, 0xbe, 0x14, 0x33, 0x20, 0x3f, 0x2b, 0xf6, 0xae, 0xbe, 0xaf, 0xd6, 0xfe, 0x3e, 0xfd, 0xcc, 0x5e, 0xbf, 0x89, 0x25, 0x29, 0xbf, 0x63, 0xf4, 0x58, 0xbe, 0x4b, 0x44, 0xa5, 0x3d, 0xce, 0x93, 0xde, 0x3e, 0x19, 0x22, 0x4a, 0xbf, 0x63, 0x15, 0x2d, 0xbf, 0x85, 0x9f, 0xba, 0xbf, 0x73, 0xe7, 0x3f, 0xbe, 0x65, 0x6a, 0x4e, 0xbe, 0x8b, 0xe8, 0x61, 0xbf, 0xa4, 0x05, 0x46, 0x3f, 0x46, 0xba, 0xe5, 0x3f, 0xe3, 0xf5, 0x05, 0x40, 0x2a, 0xa9, 0xa4, 0x3f, 0x90, 0x18, 0xb3, 0x3e, 0x30, 0xfe, 0x92, 0x3e, 0xf1, 0x8e, 0xc4, 0x3e, 0x49, 0xb8, 0xb8, 0x3f, 0x98, 0xe1, 0xd8, 0x3d, 0x38, 0x4a, 0xa6, 0xbc, 0xd0, 0x0e, 0x0f, 0x3f, 0xc4, 0xd7, 0xa0, 0xbe, 0x13, 0xf1, 0xe6, 0xbf, 0x73, 0xe5, 0x06, 0x3f, 0x09, 0xe4, 0x69, 0xbf, 0xae, 0x26, 0x0d, 0x3e, 0x21, 0x2f, 0xdd, 0x3e, 0xa3, 0x01, 0xb0, 0xc0, 0x20, 0x9d, 0x88, 0x3e, 0x04, 0xaa, 0xa3, 0xbe, 0x12, 0xc9, 0x0f, 0xbe, 0xd5, 0x9e, 0x98, 0x40, 0xa8, 0xa1, 0xaf, 0x3f, 0xd5, 0x2c, 0xe1, 0xbf, 0x01, 0xb4, 0x45, 0x3f, 0x50, 0x0d, 0x83, 0xbe, 0x51, 0x39, 0xc1, 0xbe, 0x5a, 0x99, 0x02, 0xbe, 0x20, 0x23, 0x8b, 0xbe, 0x44, 0x9b, 0xd3, 0xbe, 0x12, 0x6c, 0x21, 0xbe, 0xa9, 0x92, 0x33, 0xbd, 0x3a, 0x1a, 0xdf, 0xbe, 0x0d, 0x28, 0x76, 0xbd, 0x76, 0x40, 0x83, 0xbe, 0x71, 0xb5, 0x03, 0x3e, 0x3d, 0xd7, 0xcd, 0x3d, 0x03, 0x17, 0x86, 0xbe, 0xa5, 0x7b, 0xc9, 0xbd, 0x1d, 0x85, 0x8a, 0x3d, 0x5f, 0x46, 0xff, 0x3d, 0x07, 0xdb, 0x7e, 0x3e, 0xf0, 0xfe, 0xaf, 0xbd, 0xf0, 0xe9, 0xa8, 0xbe, 0x93, 0x46, 0xb5, 0x3a, 0x5a, 0xfd, 0xe8, 0xbd, 0xe7, 0xb2, 0x72, 0x3d, 0xe8, 0x51, 0x54, 0xbe, 0x4b, 0xa0, 0xf3, 0x3d, 0x6b, 0x96, 0xaf, 0xbe, 0xbd, 0x7b, 0x38, 0x3e, 0x62, 0x98, 0x39, 0xbd, 0x00, 0xd0, 0x43, 0xbe, 0x4b, 0xa1, 0xce, 0xbd, 0x55, 0x04, 0xc6, 0xbe, 0x3e, 0x0e, 0xa4, 0x3d, 0xa4, 0x7f, 0xc0, 0x3c, 0x66, 0xac, 0xd4, 0xbe, 0x57, 0x28, 0x9e, 0x3d, 0xe2, 0x1b, 0x35, 0x3b, 0xdc, 0x11, 0x8e, 0xbe, 0x95, 0xac, 0xe9, 0xbe, 0x89, 0xa7, 0x0b, 0x3b, 0x37, 0x1e, 0x4e, 0xbe, 0x34, 0x60, 0xd2, 0xbe, 0xf7, 0xfa, 0xc6, 0xbe, 0x01, 0x11, 0x08, 0x3c, 0x1e, 0xf8, 0x54, 0xbe, 0x10, 0x04, 0x3c, 0x3d, 0x1a, 0x8e, 0x04, 0xbe, 0x53, 0x15, 0x13, 0x3e, 0x04, 0xfd, 0x6c, 0xbe, 0xa5, 0x68, 0xe7, 0x3d, 0x32, 0x69, 0xc5, 0xbd, 0x9a, 0xd2, 0x17, 0x3e, 0x4a, 0xd6, 0x83, 0xbd, 0x71, 0xb5, 0x23, 0xbf, 0xd5, 0xaa, 0x15, 0xbf, 0x0c, 0x8d, 0x19, 0xbf, 0xdb, 0x79, 0x40, 0xbd, 0x46, 0xae, 0xbc, 0xbd, 0x29, 0x43, 0x00, 0xbf, 0x2c, 0x0d, 0xc8, 0xbe, 0x21, 0xb8, 0x69, 0xbf, 0xa4, 0x20, 0xc8, 0xbb, 0xff, 0x4e, 0x58, 0xbe, 0x31, 0x14, 0x78, 0xbf, 0xf3, 0xea, 0x2b, 0x3e, 0x1e, 0xc5, 0xae, 0xbf, 0xa1, 0xa0, 0x0b, 0x3e, 0x07, 0xfa, 0x97, 0x3c, 0xe5, 0x0f, 0x8e, 0xbf, 0x38, 0xe8, 0xb5, 0x3f, 0xe2, 0xd0, 0xe6, 0xbc, 0xd7, 0x41, 0xfd, 0x3e, 0x7b, 0x6b, 0xa3, 0xbf, 0x2e, 0x69, 0x44, 0x40, 0xff, 0x95, 0x0f, 0x41, 0xb8, 0x9d, 0xf9, 0x40, 0xd9, 0xfe, 0x95, 0xbe, 0xad, 0x48, 0x7e, 0xbe, 0x1c, 0x2a, 0x22, 0xbe, 0xa9, 0xaa, 0xf7, 0x3d, 0x54, 0x32, 0x35, 0x3e, 0x72, 0xb0, 0xca, 0xbe, 0x8e, 0x97, 0x5a, 0xbe, 0x69, 0x28, 0x44, 0xbf, 0x69, 0x55, 0x11, 0xbf, 0x64, 0x38, 0x0c, 0x3f, 0xc0, 0x4d, 0x78, 0xbe, 0x55, 0x1b, 0x5d, 0x3e, 0xd1, 0x92, 0x7c, 0xbf, 0xb7, 0x22, 0xbd, 0xbe, 0x2a, 0x8a, 0x8e, 0x3e, 0xe2, 0x2b, 0xe2, 0xbe, 0xd2, 0xfa, 0x24, 0xbe, 0x9b, 0xa7, 0xbe, 0xbf, 0x16, 0xa3, 0x8d, 0x3e, 0x49, 0x6e, 0x29, 0x3f, 0xb3, 0x5c, 0xd3, 0xbe, 0x48, 0x37, 0xbd, 0xbe, 0x0f, 0x4d, 0x17, 0xc0, 0x2c, 0x1f, 0xf4, 0xbd, 0x43, 0x22, 0xbe, 0x3e, 0x82, 0x10, 0x8b, 0xbf, 0xa4, 0x7f, 0xaf, 0x3f, 0x1f, 0x0c, 0x65, 0xbf, 0xde, 0xee, 0x8f, 0xbf, 0xd7, 0xdb, 0xbb, 0x3e, 0xed, 0x5e, 0x38, 0xbf, 0x15, 0x0f, 0x95, 0x3f, 0x87, 0x38, 0xa6, 0x3e, 0xa3, 0x43, 0xa8, 0xbf, 0xdd, 0x8b, 0x52, 0x3f, 0xa0, 0x66, 0x93, 0xbf, 0x47, 0x30, 0x4d, 0x3f, 0x91, 0xcd, 0x26, 0x3f, 0xa6, 0xe0, 0xe4, 0xbf, 0x81, 0xcc, 0x0f, 0x3d, 0xaa, 0xde, 0x1c, 0xbf, 0x39, 0x93, 0xa5, 0xbf, 0xc3, 0x34, 0xc5, 0xbe, 0x21, 0x62, 0xa0, 0xbf, 0x6b, 0xdc, 0x75, 0xbf, 0x28, 0x83, 0x2b, 0xc0, 0xf9, 0x97, 0xfb, 0xbf, 0xbc, 0xd4, 0xa5, 0x3f, 0x1d, 0x8c, 0x33, 0x40, 0xe5, 0xb1, 0x6b, 0x3f, 0xc4, 0x70, 0x97, 0xc0, 0x55, 0xa9, 0x55, 0xbe, 0x8b, 0xff, 0x71, 0x3c, 0x83, 0xf7, 0x2e, 0x3d, 0xd2, 0x6e, 0x95, 0xbe, 0x8a, 0xb6, 0x4f, 0xbe, 0x06, 0x2b, 0xc4, 0xbd, 0x3c, 0x77, 0x38, 0xbe, 0xaf, 0x2f, 0xde, 0xbe, 0x62, 0x99, 0x4f, 0x3e, 0xa2, 0xd9, 0xad, 0xbe, 0xfb, 0x51, 0x4c, 0x3d, 0x3c, 0x50, 0xef, 0xbe, 0x17, 0xd0, 0xd7, 0xbc, 0x2d, 0x56, 0x45, 0xbd, 0x33, 0xa1, 0x73, 0xbe, 0xc4, 0x0c, 0x0f, 0x3e, 0x7d, 0x96, 0x29, 0xbe, 0x3b, 0x8f, 0x16, 0xbe, 0xdd, 0xa2, 0xce, 0x3d, 0xf8, 0xd8, 0x54, 0x3e, 0xe5, 0x99, 0xc6, 0xbe, 0x06, 0xa6, 0xaf, 0xbe, 0x8b, 0x17, 0x3d, 0xbe, 0xf7, 0x45, 0xe5, 0xbd, 0x8a, 0x5a, 0x39, 0x3e, 0x56, 0xa6, 0xd0, 0xbc, 0xc8, 0x52, 0x11, 0x3e, 0xeb, 0xc7, 0x88, 0xbe, 0xb1, 0xe6, 0x89, 0x3c, 0xa9, 0x32, 0x4e, 0xbe, 0xb7, 0x4f, 0x6d, 0xbd, 0x68, 0xab, 0x23, 0x3e, 0xe8, 0xa2, 0xd4, 0xbe, 0xee, 0x98, 0xd7, 0xbe, 0x45, 0x08, 0xf2, 0x3d, 0xe7, 0x83, 0xff, 0x3d, 0xf1, 0x80, 0xb0, 0xbd, 0x48, 0xc1, 0xc2, 0xbe, 0x47, 0x20, 0xd8, 0xbe, 0x0d, 0x8b, 0xa8, 0xbe, 0x39, 0x44, 0x6b, 0xbe, 0x1b, 0x98, 0x81, 0xbe, 0x7c, 0x0e, 0x34, 0xbe, 0x53, 0x72, 0x5a, 0x3e, 0x79, 0x1e, 0x0d, 0xbe, 0x53, 0x1e, 0xcf, 0xbe, 0x85, 0x0f, 0x07, 0xbf, 0xfa, 0xbd, 0x3a, 0xbd, 0x05, 0xc0, 0x6e, 0xbd, 0x8b, 0x0d, 0x8a, 0xbc, 0xc9, 0xd1, 0x6c, 0xbf, 0x36, 0xcd, 0x2a, 0xc0, 0x3d, 0x43, 0x12, 0x40, 0x22, 0xf9, 0x31, 0xbf, 0x1f, 0x30, 0xa3, 0xbf, 0x8f, 0x0e, 0xfb, 0xbe, 0x49, 0x0f, 0xd2, 0xbf, 0x18, 0x99, 0xcd, 0x3f, 0x3a, 0x5d, 0x9e, 0xbf, 0x29, 0x47, 0xb0, 0xbe, 0xe1, 0xd7, 0xf7, 0x3e, 0x39, 0x0d, 0x36, 0xc0, 0x56, 0xa6, 0xb8, 0x3f, 0x20, 0xfa, 0x09, 0xbf, 0x6f, 0xc9, 0xab, 0x3e, 0xce, 0x19, 0x8a, 0x3f, 0x1b, 0x1c, 0x24, 0xc0, 0x00, 0x04, 0x40, 0xbf, 0xd0, 0x4e, 0xa0, 0xbf, 0xd8, 0x10, 0x06, 0xbf, 0x48, 0x4a, 0x66, 0xbf, 0x8a, 0xc1, 0xae, 0xbe, 0xd5, 0x38, 0x71, 0xbf, 0x77, 0x4a, 0x14, 0xc0, 0x88, 0xa5, 0x84, 0xc0, 0xb3, 0x0d, 0x68, 0x3e, 0xcf, 0x70, 0xf8, 0xbd, 0x2c, 0x60, 0x35, 0xbe, 0x71, 0xaa, 0xe5, 0xbc, 0x8e, 0x3f, 0x8a, 0xbe, 0xff, 0xc0, 0x94, 0x3d, 0x28, 0xc3, 0xc6, 0xbe, 0xdd, 0xa0, 0x30, 0x3e, 0x28, 0xd3, 0x86, 0xbd, 0x2f, 0xe0, 0x72, 0xbd, 0x9f, 0x04, 0xbb, 0xbe, 0x40, 0xa9, 0xe0, 0xbe, 0x61, 0x0b, 0xfa, 0xbe, 0x70, 0x80, 0x9b, 0xbe, 0xa2, 0xa3, 0xb1, 0xbe, 0x72, 0x14, 0x6a, 0xbd, 0x06, 0x77, 0xa5, 0xbe, 0xc8, 0x09, 0xaa, 0xbe, 0x78, 0x7f, 0x3f, 0x3e, 0xf8, 0x02, 0x9c, 0x3d, 0xb2, 0x34, 0xa6, 0xbe, 0xe7, 0xdd, 0x26, 0x3d, 0x07, 0xb9, 0x6c, 0xbd, 0xa1, 0x43, 0x98, 0xb8, 0xfc, 0x5e, 0xe7, 0xbe, 0x97, 0xa0, 0xfd, 0xbe, 0x5d, 0xde, 0x14, 0xbf, 0x22, 0x98, 0x29, 0xbe, 0x91, 0x39, 0x1f, 0xbf, 0x94, 0x0f, 0x1e, 0xbf, 0x30, 0x27, 0xc6, 0xbf, 0xae, 0x76, 0x17, 0xbd, 0xd3, 0x7b, 0xdf, 0xbe, 0x2a, 0x8b, 0x02, 0xbf, 0x4c, 0xce, 0x4f, 0xbf, 0xa3, 0x4a, 0x7e, 0xbf, 0x89, 0x92, 0x09, 0x40, 0x7d, 0xec, 0x9e, 0xbd, 0x8d, 0x42, 0xe1, 0x3f, 0xf3, 0x0c, 0xed, 0xbe, 0xc7, 0xd9, 0x96, 0xbf, 0x30, 0xce, 0x01, 0x40, 0xe5, 0x84, 0x84, 0x3e, 0xea, 0xa8, 0x3f, 0x40, 0x6d, 0x50, 0x83, 0xbf, 0xe0, 0xc5, 0xa8, 0x3f, 0x77, 0x46, 0xdd, 0xc0, 0xdb, 0x9a, 0x11, 0xc1, 0xc0, 0x61, 0x0f, 0xc0, 0xf3, 0xe4, 0x04, 0xbf, 0xc4, 0x3b, 0xce, 0xbd, 0x07, 0xdd, 0x91, 0xbd, 0xad, 0x66, 0x9c, 0xbd, 0xab, 0x3d, 0x97, 0xbe, 0x9b, 0x12, 0xd4, 0xbc, 0x0f, 0x7f, 0x8f, 0xbe, 0x97, 0xc4, 0xfb, 0xbd, 0xe5, 0xd6, 0xa5, 0xbd, 0x67, 0x24, 0xdf, 0xbc, 0x6a, 0x5e, 0x97, 0x3d, 0x1f, 0x8f, 0xe1, 0xbe, 0x22, 0xb7, 0x32, 0xbe, 0xb7, 0xc6, 0xb8, 0xbe, 0xf2, 0x44, 0x16, 0x3e, 0xe4, 0xce, 0x5c, 0x3d, 0xb2, 0x81, 0x0b, 0x3e, 0x17, 0xa5, 0xbc, 0xbd, 0xf1, 0x34, 0xa3, 0xbe, 0xc9, 0x90, 0x57, 0xbe, 0xc6, 0xa3, 0xda, 0xbc, 0xa3, 0xdf, 0xe7, 0xbe, 0x0a, 0x78, 0x01, 0xbe, 0xf3, 0xa4, 0x76, 0xbe, 0x36, 0xae, 0xaa, 0xbe, 0x59, 0x37, 0x6b, 0xbe, 0xec, 0x93, 0x6b, 0xbf, 0xec, 0x80, 0x12, 0xbf, 0xf9, 0x65, 0xb2, 0xbf, 0xfa, 0x59, 0x26, 0xc0, 0xa3, 0x70, 0xa8, 0x3e, 0x1a, 0xf9, 0x11, 0xbf, 0x20, 0x84, 0xe4, 0xbf, 0x63, 0xcf, 0xb3, 0xbf, 0xa7, 0x80, 0x1f, 0xc0, 0x65, 0xbe, 0xd0, 0xbe, 0x95, 0xdb, 0x00, 0x3e, 0x7a, 0x35, 0xba, 0xbd, 0x02, 0x08, 0xa9, 0xbf, 0xea, 0xf8, 0xc4, 0xbf, 0xec, 0xe3, 0x29, 0x3f, 0xa6, 0x1d, 0x5d, 0x3f, 0xea, 0x32, 0x58, 0xbe, 0xc2, 0x0f, 0x4f, 0x3e, 0xa1, 0xca, 0xd5, 0x3e, 0x25, 0xef, 0x53, 0x3e, 0xcc, 0x69, 0x4c, 0xc0, 0xda, 0x28, 0xc4, 0xbf, 0x19, 0x1d, 0x07, 0x40, 0x2c, 0x13, 0xb5, 0x3f, 0x5e, 0x1b, 0x3a, 0xc0, 0xa7, 0x42, 0xa1, 0xbd, 0x69, 0x5c, 0xa5, 0xbe, 0x97, 0x8a, 0x66, 0xbd, 0x98, 0x4f, 0x96, 0x3e, 0xee, 0xf1, 0x37, 0xbe, 0x49, 0xaf, 0x70, 0x3c, 0x2c, 0x84, 0xa2, 0xbd, 0x93, 0xd4, 0x57, 0x3e, 0xa2, 0xe8, 0xba, 0xbe, 0x82, 0x6b, 0xb1, 0xbd, 0xea, 0x94, 0x98, 0xbd, 0x41, 0x62, 0x2c, 0x3e, 0x46, 0x43, 0xb1, 0xbe, 0x26, 0x09, 0x2d, 0x3e, 0x19, 0xa8, 0x9b, 0xbe, 0xbc, 0x2c, 0x00, 0x3d, 0xc0, 0x03, 0xb1, 0xbe, 0x1a, 0x0b, 0x6c, 0x3e, 0x96, 0xad, 0x53, 0xbe, 0x8d, 0x11, 0xcc, 0xbd, 0x26, 0xa3, 0xa5, 0xbe, 0x07, 0x20, 0x00, 0xbe, 0x6e, 0xf0, 0xbc, 0xbe, 0x1a, 0x40, 0x17, 0xbe, 0xa4, 0xe9, 0xf1, 0x3c, 0x9b, 0x34, 0x82, 0x3d, 0x21, 0x5e, 0x87, 0x3e, 0xf9, 0x54, 0xa5, 0x3e, 0x11, 0x92, 0xb6, 0x3e, 0x0c, 0x7d, 0x41, 0x3d, 0x42, 0x67, 0x44, 0x3d, 0x35, 0x19, 0x62, 0x3e, 0xc0, 0xfe, 0x3a, 0x3e, 0x7a, 0xd9, 0x2a, 0x3e, 0x1a, 0xea, 0x40, 0xbd, 0x96, 0x03, 0x26, 0x3e, 0xc4, 0x9d, 0x01, 0x3e, 0x70, 0x5b, 0x96, 0xbd, 0x01, 0xe5, 0x9d, 0x3e, 0xd9, 0x10, 0x3e, 0x3e, 0xbb, 0x80, 0x8f, 0x3e, 0xb5, 0xec, 0xc4, 0xbc, 0xc1, 0xd4, 0xc3, 0xbe, 0x79, 0x24, 0x92, 0x3d, 0x32, 0x62, 0x28, 0xbd, 0xb4, 0x64, 0x17, 0x3f, 0x71, 0xb7, 0x32, 0x41, 0x78, 0x27, 0x83, 0xbf, 0xcf, 0xb2, 0x80, 0xc0, 0x73, 0xbe, 0xdb, 0xbe, 0xbe, 0x2b, 0x65, 0xbd, 0x54, 0x98, 0xbf, 0x39, 0x85, 0x40, 0x4d, 0xbe, 0x59, 0x8e, 0x6f, 0x3e, 0xaa, 0x68, 0x2d, 0xbe, 0x54, 0x29, 0x0c, 0xbd, 0x6c, 0x0d, 0x61, 0x3e, 0xe4, 0xa5, 0xd1, 0xbe, 0xc8, 0x3b, 0x77, 0xbe, 0x94, 0x11, 0x52, 0xbe, 0x07, 0x10, 0x38, 0xbe, 0x57, 0x92, 0xb2, 0xbd, 0x01, 0x30, 0x44, 0x3e, 0x58, 0x6f, 0xbe, 0xbe, 0xe9, 0x39, 0xd9, 0xbe, 0x6b, 0xfd, 0x6d, 0x3e, 0xbe, 0xce, 0xd2, 0x3d, 0xda, 0x7e, 0x93, 0xbe, 0x88, 0x3e, 0x87, 0x3d, 0x90, 0xf7, 0x11, 0xbd, 0x8d, 0x3d, 0x91, 0xbe, 0xa2, 0x63, 0x60, 0xbe, 0x86, 0x0d, 0x0d, 0x3e, 0x12, 0xec, 0x3c, 0x3d, 0x5f, 0x6d, 0x0b, 0xbe, 0x79, 0x56, 0x27, 0x3e, 0x57, 0xab, 0x14, 0xbf, 0x5d, 0xa8, 0x60, 0x3e, 0x75, 0x48, 0x81, 0x3f, 0xf0, 0x43, 0xc7, 0x3e, 0x42, 0x26, 0xa3, 0x3e, 0xd0, 0xbd, 0x14, 0xbf, 0xc2, 0x4c, 0xf9, 0x3e, 0x53, 0x80, 0xc8, 0xbf, 0x00, 0xf6, 0x25, 0x3f, 0x10, 0xa1, 0x9f, 0x3e, 0x45, 0xc2, 0x47, 0xbf, 0xa2, 0xed, 0xb8, 0xbe, 0xea, 0xd5, 0xfb, 0xbf, 0x5c, 0xff, 0xa0, 0x3c, 0xad, 0xeb, 0x67, 0x3f, 0xc7, 0xd4, 0xc4, 0x3f, 0xa3, 0xc2, 0x66, 0x3f, 0xd7, 0x9e, 0xe0, 0x3f, 0xa9, 0x4e, 0x6a, 0x3f, 0xc2, 0xc6, 0x4a, 0x40, 0xb5, 0x50, 0xeb, 0xc0, 0x05, 0xf6, 0xd4, 0xc0, 0xd1, 0x44, 0x2a, 0xc1, 0xf1, 0x88, 0x07, 0x40, 0x37, 0xb2, 0xac, 0xbe, 0x9e, 0x67, 0xb4, 0x3e, 0xcc, 0x10, 0x89, 0xbe, 0x7e, 0xdd, 0x58, 0x3d, 0x6e, 0x3a, 0x71, 0xbe, 0xa4, 0x53, 0x58, 0xbe, 0x06, 0x4d, 0xdf, 0x3d, 0x9f, 0x5d, 0x51, 0xbe, 0xdf, 0x92, 0xab, 0x3e, 0xf4, 0x47, 0xab, 0x3e, 0x46, 0x64, 0xcd, 0xbd, 0x09, 0x78, 0xff, 0x3e, 0x0e, 0x1a, 0x97, 0x3e, 0x72, 0xa4, 0x44, 0x3f, 0xab, 0xd3, 0xfa, 0x3e, 0xaa, 0x52, 0x0c, 0x3f, 0x28, 0x2d, 0x2e, 0x3f, 0x47, 0x4f, 0xb5, 0xbe, 0xb9, 0x6c, 0x05, 0xbf, 0x1b, 0xe0, 0xa3, 0xbc, 0xa5, 0x85, 0x08, 0xc0, 0xe4, 0xa9, 0x63, 0xc0, 0x4b, 0x33, 0x1e, 0xc1, 0xde, 0xaa, 0x09, 0xbe, 0x1d, 0x9a, 0x99, 0x3f, 0xf6, 0xfe, 0xff, 0xff, 0x04, 0x00, 0x00, 0x00, 0x50, 0x00, 0x00, 0x00, 0x12, 0x34, 0x26, 0xbe, 0x69, 0x77, 0x13, 0xbf, 0xb4, 0x0c, 0x33, 0x40, 0xe5, 0x63, 0x10, 0xbe, 0x68, 0x8a, 0x46, 0xbe, 0xcf, 0x2b, 0x4a, 0x40, 0x19, 0x85, 0x43, 0xbf, 0xca, 0x59, 0x41, 0xc0, 0x75, 0xcd, 0xd3, 0xbd, 0xf8, 0x00, 0x18, 0xbe, 0x62, 0xe1, 0xd7, 0xbe, 0x6b, 0x48, 0xf0, 0xbd, 0x57, 0xa6, 0xeb, 0xbf, 0xb5, 0xcc, 0x02, 0xbe, 0x66, 0x78, 0x2e, 0xbf, 0x30, 0x45, 0x8d, 0xbd, 0xf4, 0xa3, 0xef, 0xc0, 0x05, 0xf5, 0x18, 0xbe, 0x31, 0x17, 0xf3, 0x40, 0x13, 0xa8, 0x32, 0x41, 0x52, 0xff, 0xff, 0xff, 0x04, 0x00, 0x00, 0x00, 0x10, 0x00, 0x00, 0x00, 0x7a, 0x7f, 0xc0, 0xc0, 0x26, 0x6f, 0x2f, 0x40, 0x13, 0xb3, 0xae, 0x40, 0x89, 0x3e, 0x44, 0xbf, 0x78, 0xfb, 0xff, 0xff, 0x7c, 0xfb, 0xff, 0xff, 0x0f, 0x00, 0x00, 0x00, 0x4d, 0x4c, 0x49, 0x52, 0x20, 0x43, 0x6f, 0x6e, 0x76, 0x65, 0x72, 0x74, 0x65, 0x64, 0x2e, 0x00, 0x01, 0x00, 0x00, 0x00, 0x14, 0x00, 0x00, 0x00, 0x00, 0x00, 0x0e, 0x00, 0x18, 0x00, 0x14, 0x00, 0x10, 0x00, 0x0c, 0x00, 0x08, 0x00, 0x04, 0x00, 0x0e, 0x00, 0x00, 0x00, 0x14, 0x00, 0x00, 0x00, 0x1c, 0x00, 0x00, 0x00, 0xec, 0x00, 0x00, 0x00, 0xf0, 0x00, 0x00, 0x00, 0xf4, 0x00, 0x00, 0x00, 0x04, 0x00, 0x00, 0x00, 0x6d, 0x61, 0x69, 0x6e, 0x00, 0x00, 0x00, 0x00, 0x03, 0x00, 0x00, 0x00, 0x94, 0x00, 0x00, 0x00, 0x50, 0x00, 0x00, 0x00, 0x14, 0x00, 0x00, 0x00, 0x00, 0x00, 0x0e, 0x00, 0x1a, 0x00, 0x14, 0x00, 0x10, 0x00, 0x0c, 0x00, 0x0b, 0x00, 0x04, 0x00, 0x0e, 0x00, 0x00, 0x00, 0x1c, 0x00, 0x00, 0x00, 0x00, 0x00, 0x00, 0x09, 0x1c, 0x00, 0x00, 0x00, 0x20, 0x00, 0x00, 0x00, 0x01, 0x00, 0x00, 0x00, 0x00, 0x00, 0x06, 0x00, 0x08, 0x00, 0x04, 0x00, 0x06, 0x00, 0x00, 0x00, 0x00, 0x00, 0x80, 0x3f, 0x01, 0x00, 0x00, 0x00, 0x07, 0x00, 0x00, 0x00, 0x01, 0x00, 0x00, 0x00, 0x06, 0x00, 0x00, 0x00, 0xce, 0xff, 0xff, 0xff, 0x10, 0x00, 0x00, 0x00, 0x00, 0x00, 0x00, 0x08, 0x0c, 0x00, 0x00, 0x00, 0x10, 0x00, 0x00, 0x00, 0x3c, 0xfc, 0xff, 0xff, 0x01, 0x00, 0x00, 0x00, 0x06, 0x00, 0x00, 0x00, 0x03, 0x00, 0x00, 0x00, 0x05, 0x00, 0x00, 0x00, 0x04, 0x00, 0x00, 0x00, 0x01, 0x00, 0x00, 0x00, 0x00, 0x00, 0x0e, 0x00, 0x16, 0x00, 0x00, 0x00, 0x10, 0x00, 0x0c, 0x00, 0x0b, 0x00, 0x04, 0x00, 0x0e, 0x00, 0x00, 0x00, 0x18, 0x00, 0x00, 0x00, 0x00, 0x00, 0x00, 0x08, 0x18, 0x00, 0x00, 0x00, 0x1c, 0x00, 0x00, 0x00, 0x00, 0x00, 0x06, 0x00, 0x08, 0x00, 0x07, 0x00, 0x06, 0x00, 0x00, 0x00, 0x00, 0x00, 0x00, 0x01, 0x01, 0x00, 0x00, 0x00, 0x05, 0x00, 0x00, 0x00, 0x03, 0x00, 0x00, 0x00, 0x00, 0x00, 0x00, 0x00, 0x03, 0x00, 0x00, 0x00, 0x02, 0x00, 0x00, 0x00, 0x01, 0x00, 0x00, 0x00, 0x07, 0x00, 0x00, 0x00, 0x01, 0x00, 0x00, 0x00, 0x00, 0x00, 0x00, 0x00, 0x08, 0x00, 0x00, 0x00, 0x20, 0x03, 0x00, 0x00, 0xa8, 0x02, 0x00, 0x00, 0x30, 0x02, 0x00, 0x00, 0xdc, 0x01, 0x00, 0x00, 0x88, 0x01, 0x00, 0x00, 0xe4, 0x00, 0x00, 0x00, 0x60, 0x00, 0x00, 0x00, 0x04, 0x00, 0x00, 0x00, 0x16, 0xfd, 0xff, 0xff, 0x00, 0x00, 0x00, 0x01, 0x14, 0x00, 0x00, 0x00, 0x1c, 0x00, 0x00, 0x00, 0x1c, 0x00, 0x00, 0x00, 0x08, 0x00, 0x00, 0x00, 0x34, 0x00, 0x00, 0x00, 0x02, 0x00, 0x00, 0x00, 0xff, 0xff, 0xff, 0xff, 0x04, 0x00, 0x00, 0x00, 0x00, 0xfd, 0xff, 0xff, 0x19, 0x00, 0x00, 0x00, 0x53, 0x74, 0x61, 0x74, 0x65, 0x66, 0x75, 0x6c, 0x50, 0x61, 0x72, 0x74, 0x69, 0x74, 0x69, 0x6f, 0x6e, 0x65, 0x64, 0x43, 0x61, 0x6c, 0x6c, 0x3a, 0x30, 0x00, 0x00, 0x00, 0x02, 0x00, 0x00, 0x00, 0x01, 0x00, 0x00, 0x00, 0x04, 0x00, 0x00, 0x00, 0x6e, 0xfd, 0xff, 0xff, 0x00, 0x00, 0x00, 0x01, 0x14, 0x00, 0x00, 0x00, 0x1c, 0x00, 0x00, 0x00, 0x1c, 0x00, 0x00, 0x00, 0x07, 0x00, 0x00, 0x00, 0x5c, 0x00, 0x00, 0x00, 0x02, 0x00, 0x00, 0x00, 0xff, 0xff, 0xff, 0xff, 0x04, 0x00, 0x00, 0x00, 0x58, 0xfd, 0xff, 0xff, 0x42, 0x00, 0x00, 0x00, 0x73, 0x65, 0x71, 0x75, 0x65, 0x6e, 0x74, 0x69, 0x61, 0x6c, 0x5f, 0x31, 0x2f, 0x64, 0x65, 0x6e, 0x73, 0x65, 0x5f, 0x44, 0x65, 0x6e, 0x73, 0x65, 0x32, 0x2f, 0x4d, 0x61, 0x74, 0x4d, 0x75, 0x6c, 0x3b, 0x73, 0x65, 0x71, 0x75, 0x65, 0x6e, 0x74, 0x69, 0x61, 0x6c, 0x5f, 0x31, 0x2f, 0x64, 0x65, 0x6e, 0x73, 0x65, 0x5f, 0x44, 0x65, 0x6e, 0x73, 0x65, 0x32, 0x2f, 0x42, 0x69, 0x61, 0x73, 0x41, 0x64, 0x64, 0x00, 0x00, 0x02, 0x00, 0x00, 0x00, 0x01, 0x00, 0x00, 0x00, 0x04, 0x00, 0x00, 0x00, 0xee, 0xfd, 0xff, 0xff, 0x00, 0x00, 0x00, 0x01, 0x14, 0x00, 0x00, 0x00, 0x1c, 0x00, 0x00, 0x00, 0x1c, 0x00, 0x00, 0x00, 0x06, 0x00, 0x00, 0x00, 0x7c, 0x00, 0x00, 0x00, 0x02, 0x00, 0x00, 0x00, 0xff, 0xff, 0xff, 0xff, 0x14, 0x00, 0x00, 0x00, 0xd8, 0xfd, 0xff, 0xff, 0x61, 0x00, 0x00, 0x00, 0x73, 0x65, 0x71, 0x75, 0x65, 0x6e, 0x74, 0x69, 0x61, 0x6c, 0x5f, 0x31, 0x2f, 0x64, 0x65, 0x6e, 0x73, 0x65, 0x5f, 0x44, 0x65, 0x6e, 0x73, 0x65, 0x31, 0x2f, 0x4d, 0x61, 0x74, 0x4d, 0x75, 0x6c, 0x3b, 0x73, 0x65, 0x71, 0x75, 0x65, 0x6e, 0x74, 0x69, 0x61, 0x6c, 0x5f, 0x31, 0x2f, 0x64, 0x65, 0x6e, 0x73, 0x65, 0x5f, 0x44, 0x65, 0x6e, 0x73, 0x65, 0x31, 0x2f, 0x52, 0x65, 0x6c, 0x75, 0x3b, 0x73, 0x65, 0x71, 0x75, 0x65, 0x6e, 0x74, 0x69, 0x61, 0x6c, 0x5f, 0x31, 0x2f, 0x64, 0x65, 0x6e, 0x73, 0x65, 0x5f, 0x44, 0x65, 0x6e, 0x73, 0x65, 0x31, 0x2f, 0x42, 0x69, 0x61, 0x73, 0x41, 0x64, 0x64, 0x00, 0x00, 0x00, 0x02, 0x00, 0x00, 0x00, 0x01, 0x00, 0x00, 0x00, 0x14, 0x00, 0x00, 0x00, 0x02, 0xff, 0xff, 0xff, 0x00, 0x00, 0x00, 0x01, 0x10, 0x00, 0x00, 0x00, 0x10, 0x00, 0x00, 0x00, 0x05, 0x00, 0x00, 0x00, 0x30, 0x00, 0x00, 0x00, 0x68, 0xfe, 0xff, 0xff, 0x20, 0x00, 0x00, 0x00, 0x73, 0x65, 0x71, 0x75, 0x65, 0x6e, 0x74, 0x69, 0x61, 0x6c, 0x5f, 0x31, 0x2f, 0x64, 0x65, 0x6e, 0x73, 0x65, 0x5f, 0x44, 0x65, 0x6e, 0x73, 0x65, 0x32, 0x2f, 0x4d, 0x61, 0x74, 0x4d, 0x75, 0x6c, 0x00, 0x00, 0x00, 0x00, 0x02, 0x00, 0x00, 0x00, 0x04, 0x00, 0x00, 0x00, 0x14, 0x00, 0x00, 0x00, 0x52, 0xff, 0xff, 0xff, 0x00, 0x00, 0x00, 0x01, 0x10, 0x00, 0x00, 0x00, 0x10, 0x00, 0x00, 0x00, 0x04, 0x00, 0x00, 0x00, 0x30, 0x00, 0x00, 0x00, 0xb8, 0xfe, 0xff, 0xff, 0x20, 0x00, 0x00, 0x00, 0x73, 0x65, 0x71, 0x75, 0x65, 0x6e, 0x74, 0x69, 0x61, 0x6c, 0x5f, 0x31, 0x2f, 0x64, 0x65, 0x6e, 0x73, 0x65, 0x5f, 0x44, 0x65, 0x6e, 0x73, 0x65, 0x31, 0x2f, 0x4d, 0x61, 0x74, 0x4d, 0x75, 0x6c, 0x00, 0x00, 0x00, 0x00, 0x02, 0x00, 0x00, 0x00, 0x14, 0x00, 0x00, 0x00, 0x19, 0x00, 0x00, 0x00, 0xa2, 0xff, 0xff, 0xff, 0x00, 0x00, 0x00, 0x01, 0x10, 0x00, 0x00, 0x00, 0x10, 0x00, 0x00, 0x00, 0x03, 0x00, 0x00, 0x00, 0x40, 0x00, 0x00, 0x00, 0x08, 0xff, 0xff, 0xff, 0x30, 0x00, 0x00, 0x00, 0x73, 0x65, 0x71, 0x75, 0x65, 0x6e, 0x74, 0x69, 0x61, 0x6c, 0x5f, 0x31, 0x2f, 0x64, 0x65, 0x6e, 0x73, 0x65, 0x5f, 0x44, 0x65, 0x6e, 0x73, 0x65, 0x31, 0x2f, 0x42, 0x69, 0x61, 0x73, 0x41, 0x64, 0x64, 0x2f, 0x52, 0x65, 0x61, 0x64, 0x56, 0x61, 0x72, 0x69, 0x61, 0x62, 0x6c, 0x65, 0x4f, 0x70, 0x00, 0x00, 0x00, 0x00, 0x01, 0x00, 0x00, 0x00, 0x14, 0x00, 0x00, 0x00, 0x00, 0x00, 0x16, 0x00, 0x18, 0x00, 0x14, 0x00, 0x00, 0x00, 0x10, 0x00, 0x0c, 0x00, 0x08, 0x00, 0x00, 0x00, 0x00, 0x00, 0x00, 0x00, 0x07, 0x00, 0x16, 0x00, 0x00, 0x00, 0x00, 0x00, 0x00, 0x01, 0x10, 0x00, 0x00, 0x00, 0x10, 0x00, 0x00, 0x00, 0x02, 0x00, 0x00, 0x00, 0x40, 0x00, 0x00, 0x00, 0x7c, 0xff, 0xff, 0xff, 0x30, 0x00, 0x00, 0x00, 0x73, 0x65, 0x71, 0x75, 0x65, 0x6e, 0x74, 0x69, 0x61, 0x6c, 0x5f, 0x31, 0x2f, 0x64, 0x65, 0x6e, 0x73, 0x65, 0x5f, 0x44, 0x65, 0x6e, 0x73, 0x65, 0x32, 0x2f, 0x42, 0x69, 0x61, 0x73, 0x41, 0x64, 0x64, 0x2f, 0x52, 0x65, 0x61, 0x64, 0x56, 0x61, 0x72, 0x69, 0x61, 0x62, 0x6c, 0x65, 0x4f, 0x70, 0x00, 0x00, 0x00, 0x00, 0x01, 0x00, 0x00, 0x00, 0x04, 0x00, 0x00, 0x00, 0x00, 0x00, 0x16, 0x00, 0x1c, 0x00, 0x18, 0x00, 0x00, 0x00, 0x14, 0x00, 0x10, 0x00, 0x0c, 0x00, 0x00, 0x00, 0x00, 0x00, 0x08, 0x00, 0x07, 0x00, 0x16, 0x00, 0x00, 0x00, 0x00, 0x00, 0x00, 0x01, 0x14, 0x00, 0x00, 0x00, 0x20, 0x00, 0x00, 0x00, 0x20, 0x00, 0x00, 0x00, 0x01, 0x00, 0x00, 0x00, 0x38, 0x00, 0x00, 0x00, 0x02, 0x00, 0x00, 0x00, 0xff, 0xff, 0xff, 0xff, 0x19, 0x00, 0x00, 0x00, 0x04, 0x00, 0x04, 0x00, 0x04, 0x00, 0x00, 0x00, 0x18, 0x00, 0x00, 0x00, 0x73, 0x65, 0x72, 0x76, 0x69, 0x6e, 0x67, 0x5f, 0x64, 0x65, 0x66, 0x61, 0x75, 0x6c, 0x74, 0x5f, 0x69, 0x6e, 0x70, 0x75, 0x74, 0x31, 0x3a, 0x30, 0x00, 0x00, 0x00, 0x00, 0x02, 0x00, 0x00, 0x00, 0x01, 0x00, 0x00, 0x00, 0x19, 0x00, 0x00, 0x00, 0x02, 0x00, 0x00, 0x00, 0x20, 0x00, 0x00, 0x00, 0x04, 0x00, 0x00, 0x00, 0xf4, 0xff, 0xff, 0xff, 0x19, 0x00, 0x00, 0x00, 0x00, 0x00, 0x00, 0x19, 0x0c, 0x00, 0x0c, 0x00, 0x0b, 0x00, 0x00, 0x00, 0x00, 0x00, 0x04, 0x00, 0x0c, 0x00, 0x00, 0x00, 0x09, 0x00, 0x00, 0x00, 0x00, 0x00, 0x00, 0x09};
const int model_data_len = 4184;