
#ifdef __has_attribute
#define HAVE_ATTRIBUTE(x) __has_attribute(x)
#else
#define HAVE_ATTRIBUTE(x) 0
#endif
#if HAVE_ATTRIBUTE(aligned) || (defined(__GNUC__) && !defined(__clang__))
#define DATA_ALIGN_ATTRIBUTE __attribute__((aligned(4)))
#else
#define DATA_ALIGN_ATTRIBUTE
#endif

const unsigned char model_data[] DATA_ALIGN_ATTRIBUTE = {0x1c, 0x00, 0x00, 0x00, 0x54, 0x46, 0x4c, 0x33, 0x14, 0x00, 0x20, 0x00, 0x1c, 0x00, 0x18, 0x00, 0x14, 0x00, 0x10, 0x00, 0x0c, 0x00, 0x00, 0x00, 0x08, 0x00, 0x04, 0x00, 0x14, 0x00, 0x00, 0x00, 0x1c, 0x00, 0x00, 0x00, 0x94, 0x00, 0x00, 0x00, 0xec, 0x00, 0x00, 0x00, 0xe4, 0x12, 0x00, 0x00, 0xf4, 0x12, 0x00, 0x00, 0x90, 0x17, 0x00, 0x00, 0x03, 0x00, 0x00, 0x00, 0x01, 0x00, 0x00, 0x00, 0x10, 0x00, 0x00, 0x00, 0x00, 0x00, 0x0a, 0x00, 0x10, 0x00, 0x0c, 0x00, 0x08, 0x00, 0x04, 0x00, 0x0a, 0x00, 0x00, 0x00, 0x0c, 0x00, 0x00, 0x00, 0x1c, 0x00, 0x00, 0x00, 0x40, 0x00, 0x00, 0x00, 0x0f, 0x00, 0x00, 0x00, 0x73, 0x65, 0x72, 0x76, 0x69, 0x6e, 0x67, 0x5f, 0x64, 0x65, 0x66, 0x61, 0x75, 0x6c, 0x74, 0x00, 0x01, 0x00, 0x00, 0x00, 0x04, 0x00, 0x00, 0x00, 0x94, 0xff, 0xff, 0xff, 0x07, 0x00, 0x00, 0x00, 0x04, 0x00, 0x00, 0x00, 0x0c, 0x00, 0x00, 0x00, 0x64, 0x65, 0x6e, 0x73, 0x65, 0x5f, 0x44, 0x65, 0x6e, 0x73, 0x65, 0x32, 0x00, 0x00, 0x00, 0x00, 0x01, 0x00, 0x00, 0x00, 0x04, 0x00, 0x00, 0x00, 0x0a, 0xed, 0xff, 0xff, 0x04, 0x00, 0x00, 0x00, 0x06, 0x00, 0x00, 0x00, 0x69, 0x6e, 0x70, 0x75, 0x74, 0x31, 0x00, 0x00, 0x02, 0x00, 0x00, 0x00, 0x34, 0x00, 0x00, 0x00, 0x04, 0x00, 0x00, 0x00, 0xdc, 0xff, 0xff, 0xff, 0x0a, 0x00, 0x00, 0x00, 0x04, 0x00, 0x00, 0x00, 0x13, 0x00, 0x00, 0x00, 0x43, 0x4f, 0x4e, 0x56, 0x45, 0x52, 0x53, 0x49, 0x4f, 0x4e, 0x5f, 0x4d, 0x45, 0x54, 0x41, 0x44, 0x41, 0x54, 0x41, 0x00, 0x08, 0x00, 0x0c, 0x00, 0x08, 0x00, 0x04, 0x00, 0x08, 0x00, 0x00, 0x00, 0x09, 0x00, 0x00, 0x00, 0x04, 0x00, 0x00, 0x00, 0x13, 0x00, 0x00, 0x00, 0x6d, 0x69, 0x6e, 0x5f, 0x72, 0x75, 0x6e, 0x74, 0x69, 0x6d, 0x65, 0x5f, 0x76, 0x65, 0x72, 0x73, 0x69, 0x6f, 0x6e, 0x00, 0x0b, 0x00, 0x00, 0x00, 0xf4, 0x11, 0x00, 0x00, 0xec, 0x11, 0x00, 0x00, 0xd0, 0x11, 0x00, 0x00, 0x40, 0x11, 0x00, 0x00, 0x30, 0x02, 0x00, 0x00, 0xa0, 0x00, 0x00, 0x00, 0x98, 0x00, 0x00, 0x00, 0x90, 0x00, 0x00, 0x00, 0x88, 0x00, 0x00, 0x00, 0x68, 0x00, 0x00, 0x00, 0x04, 0x00, 0x00, 0x00, 0xaa, 0xed, 0xff, 0xff, 0x04, 0x00, 0x00, 0x00, 0x54, 0x00, 0x00, 0x00, 0x0c, 0x00, 0x00, 0x00, 0x08, 0x00, 0x0e, 0x00, 0x08, 0x00, 0x04, 0x00, 0x08, 0x00, 0x00, 0x00, 0x10, 0x00, 0x00, 0x00, 0x24, 0x00, 0x00, 0x00, 0x00, 0x00, 0x06, 0x00, 0x08, 0x00, 0x04, 0x00, 0x06, 0x00, 0x00, 0x00, 0x04, 0x00, 0x00, 0x00, 0x00, 0x00, 0x00, 0x00, 0x00, 0x00, 0x0a, 0x00, 0x10, 0x00, 0x0c, 0x00, 0x08, 0x00, 0x04, 0x00, 0x0a, 0x00, 0x00, 0x00, 0x02, 0x00, 0x00, 0x00, 0x02, 0x00, 0x00, 0x00, 0x04, 0x00, 0x00, 0x00, 0x06, 0x00, 0x00, 0x00, 0x32, 0x2e, 0x31, 0x34, 0x2e, 0x30, 0x00, 0x00, 0x0a, 0xee, 0xff, 0xff, 0x04, 0x00, 0x00, 0x00, 0x10, 0x00, 0x00, 0x00, 0x31, 0x2e, 0x35, 0x2e, 0x30, 0x00, 0x00, 0x00, 0x00, 0x00, 0x00, 0x00, 0x00, 0x00, 0x00, 0x00, 0x30, 0xea, 0xff, 0xff, 0x34, 0xea, 0xff, 0xff, 0x38, 0xea, 0xff, 0xff, 0x32, 0xee, 0xff, 0xff, 0x04, 0x00, 0x00, 0x00, 0x80, 0x01, 0x00, 0x00, 0xd6, 0x4a, 0xba, 0xbf, 0x80, 0x49, 0xa1, 0x3e, 0x57, 0x30, 0x7c, 0x3e, 0x5c, 0x6f, 0x9e, 0xc0, 0x84, 0xdc, 0x81, 0x3f, 0x97, 0x53, 0x8c, 0xbe, 0xb6, 0xad, 0x22, 0x3d, 0x7e, 0x8e, 0x04, 0xc0, 0xfc, 0x9c, 0x85, 0x40, 0x26, 0x4a, 0x94, 0x3f, 0xa8, 0xac, 0x8c, 0xbe, 0x11, 0xe9, 0xea, 0x3e, 0x81, 0x0a, 0xa8, 0x3f, 0xc2, 0x57, 0xe8, 0xc0, 0x3e, 0xd3, 0x6f, 0xc0, 0xe8, 0xd2, 0x3e, 0xc0, 0xf5, 0x56, 0x46, 0xbe, 0x0c, 0x03, 0xa5, 0x3c, 0x21, 0xf9, 0xcf, 0x3f, 0xb3, 0xfa, 0xd4, 0x3e, 0x6b, 0x6f, 0x9a, 0x3e, 0x7d, 0xaf, 0xf9, 0xc0, 0x18, 0xf1, 0xdd, 0xc0, 0x81, 0xa6, 0x8b, 0xbd, 0x97, 0x4d, 0xff, 0xbf, 0xac, 0xce, 0x93, 0x3f, 0x29, 0x5e, 0x7b, 0xbe, 0xf7, 0x05, 0x58, 0xc0, 0x01, 0xf7, 0x07, 0x3f, 0xd7, 0xeb, 0xf1, 0x3e, 0x7e, 0x94, 0xc9, 0xbc, 0xab, 0xaf, 0xe7, 0xbe, 0xd4, 0x06, 0x81, 0xbe, 0xde, 0x6f, 0xec, 0xbd, 0x06, 0x6e, 0x3b, 0xbd, 0x44, 0xbc, 0x35, 0xc1, 0xed, 0x42, 0xca, 0x3e, 0x96, 0x37, 0x9e, 0x3d, 0x80, 0xa0, 0xd4, 0x3e, 0x7a, 0x19, 0x48, 0x40, 0xcf, 0x9a, 0x97, 0xc0, 0x5c, 0x35, 0x22, 0xc0, 0xdd, 0xd5, 0xe8, 0x3d, 0xd6, 0xbb, 0x91, 0xc0, 0x28, 0x56, 0xff, 0xbf, 0xe6, 0xc7, 0xc6, 0x3f, 0xec, 0x2e, 0x16, 0xc0, 0x78, 0x17, 0x6b, 0x40, 0xab, 0x92, 0xe7, 0x3e, 0xbc, 0xc8, 0x9e, 0xbe, 0xda, 0xaf, 0x9a, 0xc0, 0x35, 0x97, 0x08, 0xc0, 0x0f, 0x6b, 0x2e, 0x3e, 0xfe, 0x88, 0x04, 0x3f, 0xc7, 0xdf, 0x27, 0xc1, 0x85, 0x12, 0xe3, 0x3e, 0x6d, 0x35, 0xe3, 0xc0, 0x67, 0xa5, 0xbd, 0xbf, 0x96, 0x4e, 0xfe, 0x3e, 0x7d, 0xed, 0x93, 0x3f, 0x02, 0x44, 0xd8, 0xbd, 0xdc, 0xb3, 0x05, 0xbf, 0x45, 0x17, 0x60, 0xc0, 0x88, 0x36, 0x63, 0xbd, 0x5e, 0x4d, 0xb4, 0x3f, 0x80, 0xcb, 0xe7, 0xbe, 0xe7, 0x22, 0xec, 0x3e, 0x28, 0xff, 0xee, 0x40, 0xdf, 0xa5, 0xe1, 0xbe, 0x38, 0xc7, 0xb7, 0x3c, 0xe8, 0x45, 0x43, 0x3e, 0x50, 0x3d, 0xba, 0xbe, 0x86, 0xa9, 0xc6, 0xbf, 0x45, 0x63, 0x5d, 0xbf, 0x08, 0x9f, 0x89, 0x3e, 0x6a, 0x1a, 0x03, 0xbf, 0xa7, 0x22, 0xf6, 0xbe, 0x22, 0x76, 0xb6, 0x40, 0x6e, 0x53, 0x46, 0x40, 0x60, 0xe0, 0x0d, 0xbf, 0x1c, 0xb8, 0xaf, 0x3e, 0xb5, 0x99, 0x3e, 0x3c, 0x7c, 0x64, 0x19, 0xbf, 0x4d, 0xf6, 0xe1, 0x3d, 0xe5, 0x27, 0xc1, 0x3d, 0xf2, 0x14, 0xdc, 0x40, 0x61, 0x37, 0x07, 0x41, 0x71, 0xf6, 0x4f, 0xbe, 0xcc, 0xb6, 0x17, 0x40, 0xbf, 0x7d, 0xab, 0x3f, 0xcd, 0xbe, 0x35, 0xbe, 0x22, 0x47, 0xf7, 0x3f, 0x7f, 0x34, 0xeb, 0xbe, 0x65, 0xc5, 0xdb, 0x3e, 0x54, 0x0c, 0x24, 0x3f, 0x9f, 0x9c, 0xb9, 0xbe, 0xbe, 0xef, 0xff, 0xff, 0x04, 0x00, 0x00, 0x00, 0x00, 0x0f, 0x00, 0x00, 0x5e, 0xe7, 0x13, 0xbe, 0x52, 0xcc, 0x81, 0x3e, 0xf3, 0xe8, 0xca, 0xbe, 0xcb, 0x0c, 0x87, 0x3e, 0xda, 0x97, 0x5b, 0xbe, 0x5f, 0x7a, 0x2b, 0xbf, 0xc3, 0x12, 0xbb, 0x3e, 0x3d, 0x55, 0x92, 0xbe, 0x3e, 0xe8, 0x23, 0xbe, 0xbe, 0xc3, 0x4a, 0x3e, 0x71, 0xad, 0x06, 0xbe, 0x12, 0x46, 0xc9, 0xbe, 0x19, 0x15, 0x73, 0x3c, 0x98, 0xd9, 0x53, 0x3e, 0x8a, 0xea, 0x41, 0xbe, 0xa5, 0x70, 0x38, 0xbe, 0xa3, 0xc9, 0xe1, 0x3e, 0x0d, 0xd8, 0x41, 0xbf, 0x1c, 0xb8, 0x93, 0xbe, 0x41, 0xb0, 0xff, 0x3e, 0x8d, 0x28, 0x08, 0xbf, 0x34, 0xc5, 0xe9, 0xbd, 0x06, 0x93, 0x0d, 0x3f, 0x9b, 0x9d, 0x84, 0xbe, 0xf7, 0xa5, 0x7d, 0x3c, 0xa0, 0xf7, 0x9e, 0xbd, 0xc7, 0x06, 0x8a, 0xbd, 0x99, 0xe2, 0xbb, 0x3b, 0xfa, 0xd9, 0x72, 0xbe, 0x82, 0x14, 0x89, 0xbe, 0xd8, 0xca, 0x0f, 0x3e, 0x5f, 0x00, 0x49, 0xbe, 0x05, 0x2b, 0xa7, 0xbe, 0x6e, 0xa8, 0x63, 0xbe, 0xdd, 0x4d, 0x84, 0xbe, 0x1a, 0x42, 0xec, 0xbd, 0x93, 0xb3, 0x88, 0x3e, 0xd7, 0x86, 0xb4, 0xbe, 0x03, 0x29, 0xa1, 0xbd, 0x52, 0xcc, 0x08, 0x3e, 0x47, 0x9d, 0xa7, 0x3c, 0x1c, 0xeb, 0x86, 0xbe, 0xcb, 0xfc, 0x77, 0x3e, 0xb5, 0x8c, 0x98, 0xbe, 0x3a, 0x40, 0x2d, 0xbe, 0x8f, 0xcb, 0x35, 0x3e, 0x07, 0x89, 0xbe, 0xbe, 0xa2, 0x37, 0xbf, 0xbe, 0xce, 0x8f, 0xb3, 0xbe, 0x86, 0x8d, 0xb7, 0xbe, 0x53, 0x29, 0xd0, 0x3d, 0x55, 0x59, 0x78, 0x3e, 0xa1, 0xd4, 0xda, 0xbe, 0xfd, 0x9f, 0x35, 0x3e, 0xaa, 0xa6, 0x95, 0xbe, 0x5f, 0xbd, 0x38, 0xbe, 0x8c, 0xa1, 0x94, 0xbe, 0x31, 0xd5, 0x08, 0x3e, 0x88, 0xac, 0xc4, 0xbe, 0xcf, 0x7e, 0x5c, 0x3e, 0x5c, 0x39, 0x7f, 0xbe, 0xe0, 0x71, 0x88, 0x3d, 0x1d, 0x75, 0xa2, 0x3d, 0xd8, 0x49, 0xb7, 0xbe, 0xd3, 0x2a, 0x56, 0x3e, 0xc0, 0xd5, 0x60, 0xbe, 0x95, 0x2b, 0x9f, 0xbd, 0x4f, 0x80, 0x46, 0xbe, 0x52, 0x3f, 0xe9, 0x3d, 0x5c, 0x1f, 0x93, 0xbd, 0xc7, 0x9b, 0x9b, 0xbe, 0x82, 0x8c, 0x53, 0x3e, 0x20, 0xdc, 0x1a, 0xbe, 0xbe, 0x5b, 0x12, 0xbe, 0x99, 0x82, 0x04, 0xbe, 0x95, 0x28, 0x48, 0xbe, 0xc1, 0xa3, 0x72, 0x3e, 0x00, 0xb6, 0x18, 0xbd, 0x67, 0xa6, 0x48, 0x3e, 0x2c, 0x39, 0xa2, 0xbe, 0xd9, 0xe0, 0x2d, 0x3d, 0x0a, 0x73, 0xb9, 0xbe, 0x7b, 0x8e, 0x3b, 0x3e, 0xec, 0x22, 0xca, 0xbe, 0xf4, 0xf5, 0xbf, 0xbe, 0xd7, 0xc6, 0x78, 0xbe, 0xf3, 0xf9, 0x9f, 0xbd, 0x0c, 0xc8, 0x83, 0xbe, 0x33, 0xe3, 0x87, 0xbd, 0x36, 0x66, 0x03, 0x3d, 0x5d, 0xf6, 0xd8, 0x3f, 0x6d, 0x99, 0x39, 0xbf, 0x6b, 0x64, 0x8e, 0xbe, 0x37, 0x1f, 0xb0, 0x3f, 0x5d, 0x70, 0x3e, 0xbf, 0xd8, 0x32, 0x21, 0x3f, 0x1b, 0x31, 0xfe, 0x3f, 0x46, 0xf2, 0x6c, 0xbe, 0x18, 0xc4, 0x68, 0x3f, 0xfa, 0xba, 0xf3, 0x3f, 0x30, 0x63, 0xaa, 0xbf, 0xff, 0x75, 0x7a, 0xbc, 0x50, 0xfe, 0x0a, 0x3f, 0x7e, 0x67, 0xfc, 0xbf, 0x39, 0x46, 0x17, 0x3e, 0x15, 0xd4, 0x85, 0x3e, 0xfd, 0xfb, 0x69, 0xbf, 0x6d, 0x8d, 0xcd, 0x3c, 0xce, 0x1e, 0x8e, 0xbe, 0xde, 0x5f, 0x9a, 0xbf, 0x10, 0xe5, 0xb1, 0xbe, 0x8b, 0xf1, 0xc6, 0xbe, 0xac, 0xab, 0xe7, 0xbf, 0x20, 0x1e, 0x9e, 0xbf, 0x10, 0xd7, 0x3e, 0xbd, 0x1e, 0x52, 0x0e, 0xc0, 0xd5, 0x1f, 0x8a, 0xbf, 0x3a, 0xab, 0x18, 0xbf, 0x02, 0xa2, 0x03, 0xc0, 0x4e, 0x36, 0x44, 0xbf, 0x07, 0x8a, 0x93, 0x3f, 0x6d, 0x7b, 0x41, 0x3f, 0x76, 0xec, 0x41, 0x3e, 0xb7, 0xca, 0xe4, 0x3f, 0x36, 0x53, 0xd4, 0x3d, 0x8d, 0x3a, 0x3a, 0xbe, 0x8c, 0xa3, 0xb2, 0x3f, 0x14, 0x1b, 0x18, 0x3d, 0x4b, 0x79, 0xe2, 0xbe, 0xf4, 0xe4, 0xeb, 0x3f, 0x89, 0x6b, 0x71, 0xbe, 0x08, 0xaf, 0x46, 0xbe, 0x3c, 0x0b, 0xdd, 0x3f, 0x30, 0xe9, 0x36, 0x3d, 0x55, 0xad, 0x91, 0xbd, 0xea, 0x8f, 0xf1, 0x3f, 0x86, 0xc9, 0x51, 0xbf, 0xdf, 0x1e, 0x71, 0xbd, 0xcb, 0x31, 0xe2, 0x3f, 0xe9, 0x00, 0xc8, 0xbe, 0xe1, 0x9f, 0xbd, 0xbe, 0x24, 0x87, 0xd3, 0x3f, 0x05, 0x77, 0x3a, 0x3f, 0x3d, 0x96, 0xa2, 0xbe, 0x1b, 0xb7, 0xdd, 0x3f, 0x61, 0x9b, 0xbb, 0x3e, 0x83, 0xcd, 0x66, 0x3e, 0x59, 0x14, 0x3c, 0x40, 0x3c, 0x21, 0x66, 0xbe, 0xf4, 0xb2, 0x81, 0x3f, 0x11, 0xd6, 0x02, 0x3e, 0x63, 0x0e, 0x71, 0xbe, 0x21, 0x8d, 0x9c, 0x3d, 0x59, 0x9e, 0x82, 0xbe, 0x9c, 0x67, 0x94, 0xbe, 0x13, 0xee, 0xf5, 0x3c, 0xd5, 0xf7, 0xcd, 0xbd, 0xec, 0xf9, 0xb5, 0xbd, 0xfd, 0x5a, 0x38, 0xbe, 0x16, 0x56, 0xc2, 0x3d, 0x8e, 0x73, 0xa3, 0xbd, 0xcc, 0xca, 0x4a, 0x3e, 0xb1, 0x58, 0x98, 0xbe, 0xd8, 0xb1, 0x4c, 0x3d, 0xe4, 0x89, 0x3a, 0xbd, 0x3c, 0x24, 0x37, 0x3e, 0x0e, 0xb9, 0x32, 0xbe, 0x4d, 0x12, 0x49, 0xbc, 0xfc, 0xbe, 0xe6, 0xbd, 0xaa, 0xf6, 0x94, 0x3e, 0x00, 0xc2, 0x99, 0xbe, 0x7f, 0xeb, 0xdc, 0x3d, 0x02, 0x4f, 0x14, 0xbe, 0x35, 0x6a, 0xfa, 0x3c, 0x81, 0xe0, 0x48, 0xbe, 0x83, 0x48, 0x8b, 0xbe, 0xe2, 0xcc, 0x1d, 0xbe, 0xaf, 0xf5, 0x06, 0x3e, 0x68, 0x59, 0x64, 0xbe, 0x46, 0x88, 0x8d, 0xbe, 0x5a, 0x0b, 0xfb, 0x3d, 0x48, 0x4a, 0xd9, 0x3d, 0xc3, 0x4e, 0x2e, 0x3d, 0x3e, 0x17, 0x1d, 0xbd, 0x85, 0x10, 0x02, 0xbc, 0x39, 0x64, 0x58, 0x3d, 0x27, 0xf0, 0xc0, 0x3d, 0x32, 0xcc, 0xaa, 0xbe, 0x89, 0xaf, 0xbf, 0xbe, 0x04, 0x43, 0x36, 0xbd, 0xad, 0x1f, 0xb3, 0xbe, 0x80, 0xf5, 0xa4, 0xbe, 0x53, 0xd5, 0x1f, 0xbd, 0x19, 0x1d, 0x75, 0xbe, 0xe4, 0xc8, 0x0f, 0xbd, 0xe6, 0x71, 0x17, 0x3e, 0x04, 0x32, 0x03, 0x3e, 0x2f, 0xca, 0x8f, 0xbd, 0x84, 0xda, 0x91, 0x3d, 0xac, 0xd3, 0xda, 0xbd, 0x51, 0x17, 0xda, 0xbe, 0x79, 0xef, 0x06, 0x3e, 0x3d, 0x71, 0x8c, 0xbe, 0x56, 0xbe, 0xcd, 0xbe, 0xb5, 0xb8, 0x54, 0xbe, 0x39, 0x12, 0x1b, 0x3d, 0xa3, 0x53, 0x8d, 0xbd, 0xb6, 0x85, 0x32, 0xbe, 0x07, 0x70, 0x91, 0xbe, 0xdb, 0x75, 0x8b, 0xbe, 0x4d, 0xd6, 0x37, 0x3f, 0x8b, 0xee, 0x0c, 0xbe, 0xf7, 0x6c, 0x75, 0x3f, 0xcb, 0x7c, 0x3c, 0x3f, 0x3c, 0xc6, 0xb4, 0xbe, 0xf9, 0xdf, 0xa5, 0x3f, 0x81, 0x81, 0xe1, 0x3e, 0xff, 0xad, 0xd1, 0x3c, 0xc6, 0xa5, 0x2e, 0x3f, 0x57, 0xfe, 0x27, 0x3f, 0x2f, 0xb1, 0x40, 0x3e, 0x79, 0x5e, 0xf5, 0x3e, 0x4d, 0xf5, 0x43, 0x3f, 0xbc, 0x07, 0x03, 0xbf, 0x7d, 0xb4, 0xd0, 0x3e, 0x7c, 0x82, 0x2e, 0x3f, 0xd1, 0xe5, 0x48, 0x3e, 0xc5, 0x9f, 0xc6, 0x3e, 0x6c, 0xe7, 0xd3, 0x3e, 0x80, 0x62, 0xd1, 0xbf, 0x22, 0x35, 0x71, 0xbe, 0x94, 0x36, 0x8a, 0x3f, 0xb7, 0x04, 0x17, 0xc0, 0x94, 0x86, 0x0b, 0xbf, 0x24, 0xc0, 0xbd, 0x3e, 0xd3, 0x36, 0x3e, 0xc0, 0x63, 0x8c, 0x98, 0xbf, 0x87, 0x99, 0x6b, 0xbe, 0xc4, 0xbf, 0x17, 0xc0, 0x8e, 0xa7, 0xdb, 0xbf, 0xc2, 0x66, 0x2e, 0x3f, 0x7a, 0xca, 0xb6, 0x3e, 0x4c, 0x51, 0x3c, 0xbf, 0x84, 0xa3, 0x56, 0x3f, 0x48, 0x72, 0xff, 0xbe, 0x51, 0xeb, 0x04, 0xbf, 0x05, 0x41, 0xfb, 0x3e, 0x95, 0x93, 0x19, 0xbf, 0x6e, 0x64, 0xe9, 0xbe, 0x1d, 0xa8, 0x0d, 0x3f, 0xfc, 0x7a, 0xf0, 0xbe, 0x33, 0x6f, 0x13, 0xbe, 0x5c, 0xb8, 0x4a, 0x3f, 0xf7, 0x92, 0xfd, 0xbe, 0xa7, 0x71, 0x52, 0xbe, 0x66, 0x7f, 0x1a, 0x3f, 0xbb, 0xdb, 0x13, 0xbf, 0x55, 0x53, 0xdd, 0xbd, 0x9e, 0x93, 0x24, 0x3f, 0xc0, 0x38, 0x61, 0x3f, 0x00, 0x5b, 0x04, 0xbf, 0x12, 0x62, 0x38, 0x3f, 0x2b, 0x8d, 0xa3, 0x3f, 0x43, 0x4a, 0x03, 0xbf, 0xce, 0x82, 0x5d, 0x3f, 0x93, 0x20, 0xf1, 0x3f, 0xe3, 0x34, 0xdc, 0xbd, 0x7e, 0x28, 0x38, 0x40, 0xa3, 0xe0, 0x6d, 0x3f, 0x6f, 0x8d, 0x92, 0x3e, 0x0e, 0x31, 0xb1, 0x3f, 0x12, 0x98, 0xe9, 0xbe, 0xfc, 0xc6, 0x4b, 0xbf, 0x91, 0x40, 0xcd, 0x3f, 0xd9, 0x9b, 0x28, 0xbf, 0xda, 0xd2, 0x8c, 0xbf, 0xd8, 0x0a, 0x90, 0x3f, 0x58, 0xac, 0xd8, 0xbe, 0x7d, 0x42, 0xca, 0xbf, 0x17, 0xa3, 0xa5, 0x3f, 0xa3, 0x67, 0xe6, 0xbe, 0x92, 0x07, 0x48, 0xbf, 0x79, 0x4c, 0xcc, 0x3f, 0xa7, 0x92, 0x95, 0xbe, 0x29, 0xbd, 0x7c, 0xbf, 0x69, 0x43, 0xaa, 0x3f, 0xe3, 0x54, 0x30, 0xbf, 0xe9, 0xe4, 0x6f, 0xbf, 0x3d, 0x40, 0xd1, 0x3f, 0x5d, 0x46, 0x5e, 0xbe, 0xfd, 0x0f, 0xad, 0xbe, 0x94, 0x02, 0x00, 0x40, 0x65, 0xbf, 0xc2, 0x3d, 0xd8, 0xdb, 0x8c, 0xbf, 0x5a, 0x66, 0x02, 0x40, 0x78, 0x12, 0xea, 0xbe, 0x09, 0xa3, 0x6c, 0xbf, 0x59, 0xc9, 0xef, 0x3f, 0xd2, 0xae, 0xa4, 0xbf, 0x0c, 0xc1, 0xbc, 0xbe, 0x08, 0x12, 0x1a, 0x3d, 0xd8, 0x2c, 0xbf, 0x3c, 0xa2, 0xb0, 0x8d, 0xbd, 0x70, 0x2f, 0x86, 0x3e, 0x16, 0xe6, 0x67, 0xbc, 0x7b, 0x9e, 0x89, 0xbc, 0xf5, 0x1a, 0x6f, 0xbe, 0x21, 0xe7, 0xda, 0xbd, 0x7a, 0x9e, 0x6c, 0x3e, 0x80, 0x98, 0x7c, 0xbe, 0xc6, 0x71, 0x80, 0xbe, 0x40, 0x04, 0x2d, 0x3d, 0x88, 0xd1, 0x2a, 0xbe, 0xc8, 0xfe, 0x8e, 0xbe, 0xd3, 0xf9, 0x6f, 0xbe, 0x7c, 0x14, 0x2c, 0x3e, 0xbd, 0xcb, 0x5b, 0xbe, 0xea, 0x6b, 0xa9, 0x3d, 0xdf, 0x36, 0x94, 0x3c, 0xf0, 0xa1, 0x67, 0xbe, 0xab, 0x99, 0xa4, 0xbe, 0x89, 0xdb, 0x3e, 0xbe, 0x17, 0x61, 0xfb, 0xbd, 0x60, 0xf7, 0x62, 0x3e, 0x92, 0x92, 0x98, 0xbc, 0x01, 0x0e, 0x20, 0xbe, 0x3a, 0x63, 0xdb, 0xbd, 0xc7, 0x3b, 0xd8, 0xbd, 0x4b, 0x82, 0x65, 0x3e, 0x39, 0x63, 0x4f, 0xbe, 0xf9, 0xbc, 0xce, 0x3f, 0xc1, 0x85, 0xb6, 0xbe, 0xfc, 0x86, 0x03, 0xbf, 0xce, 0x01, 0xa8, 0x3f, 0xae, 0x18, 0xe6, 0xbe, 0x19, 0x5a, 0x4f, 0xbf, 0x7c, 0x65, 0x92, 0x3f, 0x8c, 0x69, 0x1c, 0xbf, 0x28, 0xde, 0x99, 0xbf, 0x17, 0x41, 0x64, 0x3f, 0x0d, 0xe1, 0x19, 0xbf, 0xc4, 0x3b, 0x39, 0xbf, 0x49, 0x86, 0x4d, 0x3f, 0x29, 0x65, 0x36, 0xbf, 0xd9, 0x25, 0x68, 0xbf, 0x49, 0x95, 0xa9, 0x3f, 0x07, 0x9f, 0xa0, 0xbf, 0xef, 0xef, 0x3e, 0xbf, 0x85, 0xed, 0x41, 0x3f, 0x92, 0x51, 0x35, 0xbe, 0x92, 0x35, 0x03, 0xbf, 0xc3, 0xed, 0x68, 0x3f, 0xb9, 0x0e, 0xef, 0xbe, 0x19, 0xf5, 0x60, 0xbf, 0x30, 0x12, 0x9d, 0x3f, 0xd4, 0xcf, 0x36, 0xbf, 0x60, 0x43, 0x65, 0xbf, 0x4a, 0x94, 0xcb, 0x3f, 0x16, 0x90, 0x3c, 0xbf, 0x54, 0x0d, 0x3f, 0xbf, 0xb5, 0x12, 0xb9, 0x3f, 0xee, 0x86, 0x64, 0xbf, 0x0d, 0x6e, 0x6d, 0xbf, 0x90, 0xe9, 0xde, 0x3f, 0x23, 0x67, 0x47, 0xbf, 0xf2, 0xf6, 0x8a, 0xbf, 0xa1, 0xfa, 0xe0, 0x3f, 0xa7, 0x9c, 0x66, 0xbf, 0x37, 0x35, 0x81, 0xbf, 0x15, 0x64, 0x0d, 0x40, 0xf4, 0xc2, 0x7a, 0xbf, 0x0d, 0xe7, 0xb9, 0xbe, 0x8a, 0xcc, 0x01, 0x40, 0xca, 0x88, 0x67, 0xbf, 0x9a, 0x30, 0x89, 0xbf, 0x66, 0xe6, 0xd9, 0x3f, 0xde, 0x8b, 0x53, 0xbf, 0x98, 0x92, 0x9a, 0xbe, 0xf8, 0xa2, 0xcc, 0x3f, 0x4b, 0x00, 0x3c, 0xbe, 0x29, 0x5f, 0x01, 0xbf, 0x7e, 0x36, 0xe6, 0x3f, 0xb8, 0x3e, 0x27, 0x3f, 0xe5, 0x2f, 0x28, 0xbf, 0xc4, 0xf1, 0xb4, 0x3f, 0x97, 0x59, 0x6d, 0x3f, 0x67, 0x11, 0x15, 0xbf, 0x59, 0x1a, 0x2e, 0x40, 0xec, 0xae, 0x8f, 0x3e, 0x15, 0x05, 0x89, 0xbe, 0x27, 0x97, 0x16, 0xbe, 0x55, 0x34, 0xe5, 0xbf, 0x39, 0x04, 0x12, 0xbf, 0x76, 0xa0, 0x6d, 0xbd, 0xb1, 0x57, 0x1f, 0xbf, 0x05, 0x43, 0x6d, 0xbf, 0x4d, 0x1b, 0xa9, 0xbe, 0xe4, 0xda, 0xf8, 0xbd, 0xd9, 0x09, 0x64, 0xbf, 0xd6, 0x3f, 0xff, 0xbe, 0xac, 0x05, 0xda, 0xbe, 0x46, 0x43, 0xb4, 0xbe, 0x93, 0x24, 0xb9, 0xbe, 0xc7, 0xfd, 0xe8, 0xbe, 0x19, 0x43, 0xe1, 0x3e, 0x86, 0x2a, 0xe0, 0x3e, 0x74, 0x36, 0xe7, 0x3e, 0xbc, 0x84, 0x5b, 0x3f, 0xb2, 0xaa, 0x2b, 0x3f, 0xc3, 0xdb, 0x22, 0x3f, 0xc7, 0x70, 0x4b, 0x3f, 0x29, 0xc2, 0x89, 0x3f, 0xbf, 0xdf, 0x43, 0xbf, 0x33, 0xd3, 0x09, 0x3e, 0xa0, 0x32, 0xd4, 0x3f, 0x31, 0xab, 0x2a, 0xbe, 0xec, 0xf5, 0xac, 0xbf, 0x63, 0xb8, 0x0f, 0x40, 0x79, 0x93, 0x11, 0x3e, 0x4e, 0x35, 0x72, 0xc0, 0x98, 0xbb, 0x7d, 0x3f, 0x30, 0xc1, 0x3b, 0xbf, 0xc4, 0x69, 0xc3, 0xbf, 0xf6, 0x93, 0x14, 0x3f, 0xca, 0x33, 0xd8, 0xbe, 0x63, 0x9a, 0x09, 0xc0, 0x26, 0x05, 0x47, 0x3f, 0x0e, 0x29, 0x61, 0x3d, 0xe4, 0xeb, 0x0a, 0xc0, 0x2a, 0x22, 0x40, 0xbe, 0x22, 0x29, 0x3f, 0xbe, 0x35, 0xcf, 0xa6, 0xbf, 0x3a, 0xc7, 0x13, 0x3c, 0x70, 0x17, 0x43, 0xbf, 0x29, 0x48, 0x4c, 0xbf, 0x18, 0x4b, 0x1c, 0x3f, 0x7b, 0x27, 0x6c, 0x3e, 0x0c, 0x0f, 0x30, 0x3d, 0x41, 0xed, 0x2f, 0x3f, 0x48, 0xc0, 0x12, 0x3f, 0x4b, 0xaf, 0xac, 0xbd, 0x17, 0x0b, 0x89, 0x3f, 0x0f, 0x0a, 0x19, 0xbf, 0x65, 0x40, 0x43, 0xbf, 0x7b, 0xba, 0xc9, 0x3f, 0xe0, 0x35, 0x94, 0xbe, 0xbe, 0x64, 0xbb, 0xbf, 0x4d, 0xd6, 0xea, 0x3f, 0x5a, 0x34, 0x98, 0x3e, 0xe6, 0xa7, 0x36, 0xc0, 0x06, 0x75, 0x93, 0x3f, 0x97, 0xfb, 0xdd, 0xbb, 0x28, 0x02, 0xaf, 0x3d, 0xb1, 0x5e, 0xaf, 0x3e, 0xf6, 0x48, 0xbf, 0xbe, 0xa5, 0x4e, 0x58, 0x3e, 0x7c, 0xc0, 0x73, 0xbd, 0x72, 0x40, 0x03, 0xbe, 0x88, 0x90, 0x6b, 0x3e, 0x39, 0x3f, 0xc7, 0x3d, 0x5e, 0xb6, 0x8d, 0xbd, 0xe6, 0x68, 0x70, 0x3f, 0xf2, 0x46, 0x14, 0x3f, 0xd9, 0x2f, 0xae, 0x3e, 0x70, 0x21, 0xd9, 0x3e, 0xa7, 0x43, 0x97, 0x3e, 0x0a, 0xfe, 0x5e, 0x3e, 0x15, 0x9b, 0x9b, 0x3e, 0xf1, 0x1d, 0x3d, 0x3f, 0x4c, 0xba, 0x90, 0xbf, 0x61, 0xe7, 0x99, 0x3f, 0x35, 0xc4, 0x23, 0x3f, 0xa8, 0x25, 0xde, 0xbf, 0x5f, 0x17, 0x8e, 0x3f, 0x05, 0x61, 0xc2, 0xbe, 0x98, 0xc0, 0x03, 0xc0, 0x72, 0xf4, 0x24, 0x3f, 0x55, 0xa6, 0x38, 0xc0, 0x68, 0x64, 0xd2, 0xbf, 0x00, 0x89, 0xcc, 0x3d, 0x8c, 0x3f, 0xb9, 0x3d, 0xa6, 0xff, 0x56, 0xbe, 0xc4, 0x3f, 0xac, 0xbe, 0x56, 0xce, 0x9a, 0x3d, 0xe3, 0x03, 0x98, 0xbe, 0xc2, 0x7d, 0x17, 0xbe, 0xd5, 0x18, 0xb4, 0xbe, 0xa2, 0x35, 0x04, 0x3e, 0x40, 0xef, 0xef, 0xbd, 0x9f, 0x8d, 0x9d, 0xbe, 0x87, 0x95, 0x0a, 0x3c, 0xcf, 0x1f, 0x6d, 0xbe, 0xbf, 0x27, 0x8e, 0xbe, 0x56, 0xd1, 0xc0, 0x3c, 0xc1, 0x56, 0x5a, 0xbe, 0x3f, 0x8b, 0xea, 0x3b, 0xa1, 0xac, 0xf6, 0xbc, 0xe2, 0x4f, 0xb4, 0x3d, 0x0c, 0x14, 0xe5, 0xbe, 0xa7, 0xd5, 0xb1, 0xbe, 0xda, 0x63, 0x18, 0x3e, 0xfe, 0xc9, 0xbe, 0xbe, 0xc7, 0x6c, 0x6b, 0xbe, 0x8d, 0x09, 0x82, 0xbe, 0x35, 0x57, 0x60, 0xbe, 0x56, 0x2c, 0x8c, 0xbe, 0xb2, 0x44, 0xfb, 0x3d, 0x0e, 0x6a, 0xc3, 0xbd, 0x18, 0xab, 0x12, 0xbe, 0x62, 0x79, 0x27, 0x3e, 0x32, 0x97, 0x81, 0xbe, 0x8a, 0x3f, 0x94, 0xbd, 0x35, 0xe6, 0x69, 0xbd, 0x3c, 0xaf, 0x4b, 0xbe, 0x0f, 0x49, 0x03, 0x3e, 0x45, 0xdd, 0x7f, 0xbc, 0xad, 0xe6, 0x0a, 0x3e, 0xf7, 0x1a, 0x51, 0xbe, 0x9a, 0x9f, 0x85, 0x3e, 0xe1, 0xde, 0x02, 0x3e, 0x32, 0xb7, 0x00, 0xbe, 0x9e, 0xb3, 0x10, 0xbe, 0xa2, 0xbf, 0x02, 0x3e, 0x26, 0x18, 0x58, 0xbe, 0xe1, 0x41, 0x39, 0x3e, 0x04, 0x1a, 0x2e, 0x3d, 0xd3, 0x1d, 0xe1, 0x3d, 0x0f, 0x4e, 0xfe, 0x3c, 0xb0, 0x66, 0x9a, 0xbd, 0x79, 0xa3, 0x2e, 0xbd, 0xb8, 0xf2, 0xb4, 0x3d, 0xce, 0x7b, 0xc5, 0xbe, 0xf8, 0xe0, 0x94, 0x3e, 0x78, 0x78, 0x94, 0xbe, 0xba, 0x4f, 0x5a, 0xbc, 0xcc, 0x97, 0x8e, 0x3e, 0x20, 0xcc, 0xaf, 0xbe, 0xae, 0x70, 0xa3, 0xbe, 0x11, 0x73, 0x20, 0xbe, 0x98, 0x94, 0xfa, 0xbc, 0xac, 0xa4, 0xb4, 0x3f, 0xf6, 0xc2, 0xf4, 0xbe, 0x0e, 0xfd, 0xb1, 0xbf, 0x1a, 0xcc, 0xcd, 0x3f, 0xb4, 0x90, 0x09, 0xbf, 0x04, 0xf9, 0xa6, 0xbf, 0xa7, 0x03, 0xe7, 0x3f, 0x05, 0xce, 0x69, 0xbf, 0x5c, 0x45, 0x3e, 0xbf, 0x0a, 0x23, 0xd0, 0x3f, 0x37, 0xe3, 0x7a, 0xbf, 0x36, 0xdd, 0x5c, 0xbf, 0x51, 0x2b, 0x98, 0x3f, 0xce, 0xbe, 0x9e, 0xbf, 0x46, 0x1b, 0xb6, 0xbf, 0x12, 0x1c, 0x9a, 0x3f, 0xa7, 0x86, 0xd8, 0xbf, 0xf4, 0x8e, 0xaa, 0xbf, 0xd1, 0xf4, 0xe0, 0x3f, 0x03, 0x46, 0xa9, 0xbf, 0x13, 0xb1, 0xbf, 0xbf, 0x81, 0x4e, 0xf8, 0x3f, 0x7c, 0x29, 0x12, 0xbf, 0x2e, 0x63, 0x44, 0xbf, 0x69, 0xb5, 0x11, 0x40, 0x61, 0xbf, 0x8d, 0xbe, 0x11, 0x9f, 0x11, 0x3e, 0x77, 0x16, 0x2d, 0x40, 0x52, 0x22, 0x87, 0xbe, 0x7f, 0x2b, 0x3a, 0x3e, 0xe4, 0x6d, 0x19, 0xbd, 0x40, 0x17, 0xe9, 0x3d, 0xad, 0x25, 0xab, 0x3e, 0xcf, 0x80, 0x96, 0xbd, 0xd2, 0xcb, 0xb3, 0xbd, 0x8e, 0x17, 0xaf, 0x3e, 0xc3, 0x3f, 0xdf, 0x3e, 0x7b, 0x8b, 0x0e, 0xbf, 0xcb, 0xd2, 0x11, 0x3e, 0xf9, 0x31, 0xd6, 0xbd, 0xd4, 0x72, 0xe2, 0xbe, 0x6e, 0x31, 0x4b, 0x3e, 0x01, 0x6b, 0x01, 0xbd, 0x2f, 0x91, 0xb2, 0xbd, 0x54, 0x54, 0x69, 0x3e, 0xa0, 0xe2, 0xf3, 0xbd, 0x65, 0x99, 0x29, 0x3c, 0xdb, 0xf1, 0x41, 0x3e, 0x2e, 0x84, 0x9d, 0xbe, 0x5f, 0x33, 0x8f, 0x3e, 0xac, 0x87, 0x10, 0x3e, 0x1a, 0x28, 0xe0, 0xbe, 0x53, 0x09, 0x06, 0x3f, 0xbc, 0x6e, 0xbc, 0xbe, 0x4e, 0x49, 0x00, 0xbf, 0x57, 0x43, 0x42, 0x3f, 0x38, 0xc6, 0x13, 0xbf, 0x23, 0x7a, 0xc3, 0xbe, 0x34, 0x25, 0x08, 0x3f, 0x0e, 0x77, 0x32, 0xbf, 0x95, 0xa5, 0x11, 0xbd, 0x80, 0xe5, 0x04, 0xbe, 0x3d, 0x71, 0x4d, 0xbd, 0xb9, 0x0c, 0x93, 0xbd, 0xd7, 0x1b, 0xb3, 0xbc, 0x2c, 0x34, 0x3e, 0x3b, 0xc3, 0xc4, 0xb3, 0x3c, 0x31, 0x4a, 0x9a, 0xbe, 0x18, 0x3e, 0xc5, 0xbd, 0xce, 0xce, 0x41, 0xbc, 0x76, 0x98, 0x91, 0x3d, 0xe0, 0xd1, 0x0a, 0xbe, 0x4a, 0x88, 0x05, 0xbe, 0xe6, 0x25, 0x29, 0x3d, 0x9e, 0x76, 0xd1, 0xbc, 0x36, 0xe9, 0x32, 0xbe, 0xae, 0xc0, 0x53, 0x3e, 0xbe, 0x8d, 0xe7, 0xbd, 0x4c, 0x2f, 0x2d, 0x3e, 0xda, 0x17, 0x35, 0x3e, 0x37, 0x3f, 0x43, 0xbe, 0x15, 0xc0, 0x4a, 0xbe, 0x0f, 0x53, 0x21, 0xbe, 0x72, 0xd0, 0x52, 0xbe, 0x02, 0x7f, 0x8a, 0xbe, 0x57, 0x9d, 0x48, 0xbd, 0x91, 0x74, 0xa0, 0xbd, 0xc0, 0xfe, 0x8d, 0xbe, 0x5b, 0x92, 0x5b, 0x3e, 0xc2, 0x3e, 0x9e, 0xbe, 0x93, 0xc5, 0x09, 0x3f, 0xc7, 0xed, 0xe8, 0xbf, 0x50, 0xbb, 0xac, 0xbf, 0xfd, 0x10, 0x27, 0xbe, 0x70, 0x20, 0x03, 0xbf, 0x56, 0x39, 0xa7, 0xbf, 0xd9, 0xc1, 0x96, 0x3e, 0x90, 0x28, 0x59, 0x3c, 0x85, 0x32, 0x9d, 0xbf, 0xd8, 0xad, 0x5c, 0x3d, 0xdd, 0x41, 0xc4, 0x3d, 0x89, 0x26, 0x69, 0xbf, 0x6b, 0x73, 0xfa, 0x3e, 0x99, 0x86, 0x97, 0xbe, 0x58, 0xf6, 0x1d, 0x3e, 0x77, 0x9f, 0x82, 0x3f, 0x42, 0x1e, 0x5a, 0x3f, 0x79, 0x34, 0x0c, 0x3e, 0x61, 0x18, 0x9c, 0x3f, 0x98, 0x10, 0x5f, 0x3d, 0x05, 0x6b, 0xeb, 0x3e, 0xff, 0x83, 0x9b, 0x3f, 0x2a, 0xd7, 0xb2, 0xbf, 0xbd, 0xab, 0x81, 0xbe, 0x69, 0xeb, 0xb7, 0x3f, 0xc5, 0x29, 0x93, 0xbf, 0xc7, 0xdf, 0xd4, 0xbf, 0x99, 0x5c, 0x88, 0x3f, 0x98, 0x4f, 0x07, 0xbf, 0x68, 0xfe, 0x71, 0xc0, 0x75, 0xd7, 0xb5, 0x3f, 0x26, 0x10, 0x34, 0xbf, 0x3c, 0xc6, 0x15, 0x3f, 0x79, 0x24, 0x90, 0x3f, 0x9c, 0x96, 0xb3, 0xbe, 0x81, 0xc0, 0x3f, 0x3e, 0xfa, 0x04, 0xf6, 0x3f, 0xba, 0x11, 0x6d, 0xbe, 0x0c, 0x70, 0xd8, 0x3c, 0xde, 0x4f, 0xdd, 0x3f, 0xcb, 0x73, 0x54, 0xbf, 0x24, 0x1e, 0xe4, 0xbe, 0xba, 0x9d, 0x7c, 0x3f, 0xfe, 0xe4, 0xe1, 0xbf, 0x6d, 0x93, 0x23, 0xbf, 0x43, 0x68, 0x2f, 0x3f, 0x0f, 0xd1, 0x47, 0xbf, 0x43, 0xa7, 0xa7, 0xbe, 0xf8, 0x5e, 0x92, 0xbb, 0x5d, 0x5e, 0xcd, 0xbf, 0x2d, 0x6a, 0x87, 0xbf, 0x8e, 0x5e, 0x73, 0xbd, 0x0c, 0xc5, 0x09, 0xc0, 0x47, 0xd2, 0xa1, 0xbf, 0x87, 0xe9, 0x33, 0xbe, 0xcf, 0x8a, 0xb1, 0xbf, 0x95, 0x20, 0xd6, 0xbf, 0x1e, 0x86, 0xe9, 0xbd, 0xbc, 0xa8, 0xe8, 0xbf, 0x07, 0x8d, 0x94, 0xbf, 0x0f, 0x20, 0x95, 0xbe, 0x1a, 0x65, 0x8e, 0xbe, 0x79, 0xd8, 0x5d, 0xbe, 0xd2, 0x30, 0xe7, 0xbe, 0xae, 0x2e, 0x29, 0xbd, 0xd1, 0x50, 0x2a, 0xbe, 0x37, 0x21, 0xcc, 0xbe, 0x84, 0x04, 0x4a, 0xbe, 0xe5, 0x8e, 0x92, 0xbe, 0x44, 0x85, 0x06, 0x3e, 0x36, 0xb6, 0x3e, 0x3e, 0xd0, 0xdc, 0x0f, 0xbd, 0x71, 0x95, 0x98, 0xbd, 0xb9, 0xc2, 0xf5, 0x3c, 0xfc, 0x3e, 0x48, 0x3d, 0x51, 0x61, 0xf6, 0xbd, 0x5e, 0x0f, 0x87, 0xbe, 0xae, 0x04, 0xc1, 0x3d, 0x6e, 0x85, 0xad, 0xbe, 0x72, 0x83, 0xde, 0x3d, 0x4f, 0x5e, 0x33, 0x3e, 0xbe, 0x8f, 0x80, 0x3e, 0x33, 0xe8, 0x3f, 0x3e, 0xc2, 0x71, 0x3b, 0x3c, 0x23, 0xe4, 0x25, 0xbe, 0x37, 0xd0, 0xff, 0x3d, 0x2d, 0x6b, 0x04, 0xbe, 0xee, 0x68, 0xee, 0xbd, 0x3c, 0x90, 0x73, 0x3c, 0x55, 0x52, 0x5a, 0xbe, 0x41, 0x4a, 0xb9, 0x3f, 0x44, 0x46, 0x22, 0xbf, 0x38, 0x91, 0xfd, 0xbe, 0x0e, 0x33, 0x7d, 0x3f, 0x00, 0xa0, 0x0c, 0xbf, 0x71, 0x55, 0x88, 0xbe, 0x22, 0x46, 0x50, 0x3f, 0xa6, 0x74, 0xda, 0xbe, 0x0c, 0x1b, 0x89, 0xbe, 0x7f, 0xa9, 0x70, 0x3f, 0x70, 0x1d, 0x0a, 0xbf, 0x15, 0x50, 0x9c, 0xbe, 0xbc, 0xdf, 0xac, 0x3e, 0xa4, 0x75, 0x1a, 0xbf, 0x70, 0x56, 0x12, 0xbf, 0xc6, 0x0a, 0x7f, 0x3f, 0x1f, 0xcd, 0xd1, 0xbe, 0x4e, 0x21, 0x0c, 0xbf, 0xd0, 0x5a, 0x7c, 0x3f, 0xfa, 0xfb, 0xd8, 0xbd, 0x8b, 0xaa, 0x89, 0xbe, 0x87, 0xaf, 0x61, 0x3f, 0xc9, 0x03, 0x9e, 0xbf, 0x02, 0x55, 0xd4, 0xbf, 0x3c, 0xe4, 0x99, 0x3f, 0x69, 0xd6, 0x11, 0x3d, 0xce, 0x5b, 0x06, 0xc0, 0x84, 0xb8, 0xb4, 0x3f, 0xdb, 0x9c, 0xaf, 0x3e, 0x0f, 0xc9, 0x25, 0xc0, 0x1f, 0xb6, 0x44, 0xbf, 0x5b, 0x8f, 0x0a, 0x3f, 0xa2, 0x71, 0xc8, 0x3e, 0xc1, 0x24, 0x26, 0xbf, 0x50, 0xd2, 0xc2, 0x3c, 0x12, 0xb9, 0x59, 0x3e, 0xd9, 0x1a, 0x1c, 0x3d, 0x4e, 0xe3, 0x94, 0x3d, 0x2f, 0x75, 0xc0, 0x3e, 0xe2, 0xa6, 0x02, 0xbf, 0x5b, 0x5c, 0x1a, 0xbe, 0x80, 0x4a, 0x0e, 0xbe, 0x15, 0xe9, 0x05, 0xbf, 0x5b, 0x5c, 0x8a, 0x3e, 0xa3, 0x08, 0xb3, 0x3c, 0x4d, 0xd5, 0x3a, 0xbf, 0x74, 0xe9, 0xdc, 0x3d, 0x9d, 0x5b, 0xf8, 0x3d, 0x6f, 0xde, 0x81, 0xbf, 0x10, 0x82, 0x4a, 0x3e, 0xae, 0xe8, 0x96, 0x3e, 0x65, 0x3e, 0xb3, 0xbf, 0x2d, 0xf6, 0x25, 0x3f, 0x0d, 0x89, 0x95, 0xbc, 0x6e, 0xa8, 0xa8, 0xbf, 0xfd, 0x9d, 0xd2, 0x3e, 0x5b, 0xa0, 0x8e, 0xbe, 0x03, 0xa7, 0x3e, 0xbf, 0x23, 0xe1, 0x33, 0x3f, 0xce, 0x15, 0x4a, 0x3d, 0x5a, 0x89, 0x2a, 0x3e, 0xdc, 0xda, 0xb8, 0xbe, 0xfd, 0x6c, 0x8d, 0xbe, 0x2d, 0x12, 0xc4, 0x3d, 0xc8, 0x56, 0x85, 0x3e, 0xb2, 0x37, 0x36, 0xbe, 0x7c, 0x0a, 0x83, 0xbe, 0x00, 0xbe, 0x25, 0xbe, 0xc2, 0x46, 0x07, 0xbe, 0x54, 0x5f, 0xc8, 0x3c, 0x41, 0x50, 0xf5, 0x3d, 0xe6, 0xcf, 0xee, 0xbb, 0xb3, 0x2f, 0x14, 0x3e, 0xf6, 0xdf, 0x0a, 0x3d, 0xfd, 0x2f, 0x07, 0xbe, 0x22, 0x72, 0x63, 0x3e, 0x0e, 0xae, 0x4b, 0x3e, 0x31, 0x28, 0xa3, 0xbd, 0x87, 0x51, 0x5c, 0xbe, 0x84, 0xab, 0xc9, 0xbe, 0xf8, 0x86, 0xcc, 0xbe, 0x93, 0xe2, 0xbf, 0xbe, 0x12, 0x31, 0xe9, 0xbe, 0x8a, 0xf2, 0x8d, 0xbe, 0x59, 0x55, 0x29, 0x3e, 0xd2, 0x7b, 0xbe, 0xbe, 0xa4, 0x3d, 0x32, 0xbd, 0x83, 0x3d, 0xbc, 0xbd, 0xe4, 0xed, 0x9d, 0x3b, 0x22, 0xd4, 0x27, 0x3e, 0xc5, 0xcf, 0xad, 0x3f, 0x61, 0x78, 0xf7, 0xbe, 0x0d, 0xff, 0x15, 0xbf, 0xa8, 0x13, 0x5d, 0x3f, 0x74, 0x71, 0xac, 0xbe, 0xe6, 0x44, 0xc8, 0xbd, 0x18, 0x72, 0x3f, 0x3f, 0x43, 0x53, 0xb4, 0xbe, 0x19, 0xa0, 0xbe, 0x3d, 0x40, 0xdf, 0x90, 0x3f, 0x60, 0x96, 0x22, 0xbf, 0x11, 0x53, 0xbe, 0xbe, 0x0e, 0x6b, 0x4a, 0x3f, 0xfc, 0xb9, 0xc5, 0xbe, 0x76, 0x9a, 0x2b, 0xbf, 0x64, 0x7f, 0x62, 0x3f, 0xf6, 0xe4, 0x08, 0x3e, 0x89, 0x28, 0x04, 0xbf, 0x8e, 0x30, 0x08, 0x3f, 0x3e, 0x0d, 0x4d, 0xbd, 0x4e, 0x28, 0xf9, 0xbe, 0xa2, 0x14, 0x22, 0x3f, 0x4e, 0x7b, 0x24, 0xbf, 0x6e, 0xdb, 0x98, 0xbf, 0x44, 0x95, 0x79, 0x3f, 0xcb, 0x34, 0x1a, 0xbf, 0xd4, 0xc1, 0x09, 0xc0, 0xb0, 0x73, 0x86, 0x3f, 0xc7, 0x3b, 0xb5, 0x3d, 0x10, 0x41, 0x20, 0xc0, 0xe3, 0x78, 0x52, 0xbe, 0x98, 0x7b, 0x32, 0x3e, 0x30, 0x4d, 0x77, 0xbe, 0xaa, 0xfe, 0xf4, 0x3d, 0x39, 0x4a, 0x4b, 0x3e, 0x30, 0x0d, 0x49, 0xbd, 0x4a, 0x99, 0xb7, 0x3d, 0x00, 0xbb, 0x26, 0x3e, 0x28, 0xd0, 0x9b, 0xbe, 0xa4, 0x10, 0x86, 0xbe, 0x66, 0xc6, 0xbc, 0xbe, 0xa8, 0x7f, 0x98, 0x3e, 0xf4, 0x97, 0x66, 0xbe, 0x6f, 0x4b, 0x72, 0xbe, 0x4b, 0xf8, 0xdf, 0xbd, 0x26, 0xcb, 0x96, 0xbe, 0x6a, 0x1d, 0x0b, 0xbe, 0x1d, 0x25, 0x69, 0xbe, 0x6b, 0x55, 0xc2, 0xbe, 0x0b, 0x24, 0xc1, 0xba, 0x4d, 0x86, 0x86, 0x3e, 0x12, 0x4c, 0x12, 0xbe, 0xd1, 0x39, 0xa6, 0xbe, 0x6c, 0x2c, 0x2d, 0xbc, 0x2d, 0x6a, 0x2d, 0x3e, 0xb0, 0x0d, 0x41, 0x3e, 0x72, 0x64, 0x60, 0xbe, 0x83, 0x46, 0x29, 0xbe, 0x15, 0x42, 0x08, 0xbd, 0x64, 0xef, 0xd8, 0xbc, 0xed, 0x06, 0xbc, 0xbe, 0x89, 0x93, 0xd6, 0x3d, 0xe7, 0x5e, 0x52, 0x3e, 0x02, 0xcf, 0x94, 0xbe, 0x4e, 0xc2, 0x4b, 0xbd, 0x3a, 0xfa, 0x67, 0xbe, 0x83, 0x5d, 0x0e, 0xbe, 0x70, 0x50, 0x0a, 0xbd, 0x12, 0x46, 0x77, 0xbe, 0xdb, 0x94, 0x3a, 0xbe, 0x6d, 0x14, 0x13, 0x3e, 0x33, 0x7b, 0x5d, 0xbd, 0xd6, 0x77, 0x9a, 0xbe, 0xd0, 0x40, 0x79, 0x3d, 0xfa, 0x06, 0xe8, 0xbd, 0x96, 0x88, 0x2d, 0x3d, 0x0f, 0x0a, 0x50, 0xbe, 0xb6, 0x73, 0x2f, 0x3e, 0x7a, 0x4b, 0x4e, 0xbe, 0x80, 0x3b, 0x3e, 0xbe, 0x2f, 0x93, 0xf5, 0xbe, 0x7d, 0xfe, 0x77, 0xbe, 0x21, 0x96, 0xc8, 0x3c, 0x0f, 0x96, 0xdb, 0xbd, 0x63, 0x59, 0x7b, 0x3e, 0x09, 0x60, 0xd9, 0xbc, 0xa2, 0x08, 0xe8, 0xbe, 0x8d, 0x56, 0x4c, 0x3e, 0xf9, 0xde, 0x4a, 0xbd, 0x51, 0xe4, 0x1d, 0xbe, 0xdc, 0x41, 0xa9, 0x3f, 0xeb, 0x3b, 0x33, 0xbf, 0xbd, 0x25, 0x7b, 0xbf, 0x86, 0x2f, 0x75, 0x3f, 0xce, 0xf9, 0xbe, 0xbe, 0xfd, 0x12, 0x85, 0xbe, 0xfb, 0x5f, 0x82, 0x3f, 0x4c, 0x92, 0x4e, 0xbe, 0x4f, 0x30, 0xd4, 0xbe, 0x1e, 0xcf, 0x91, 0x3f, 0xb3, 0xdf, 0x67, 0xbf, 0x76, 0x30, 0x89, 0xbd, 0xee, 0xfe, 0x60, 0x3e, 0x93, 0x1a, 0x9d, 0xbf, 0x74, 0x0b, 0x40, 0xbf, 0x95, 0xe1, 0x6e, 0x3f, 0x8a, 0xa2, 0x23, 0xbf, 0x52, 0xf1, 0x4f, 0xbf, 0xa9, 0x98, 0x69, 0x3f, 0x56, 0xb4, 0x34, 0xbf, 0xe6, 0xa6, 0x74, 0xbf, 0x34, 0xaf, 0x2d, 0x3f, 0x72, 0x9f, 0xb3, 0xbf, 0x8d, 0x09, 0x97, 0xbf, 0x89, 0x11, 0xb2, 0x3f, 0x77, 0xf0, 0xc5, 0xbf, 0x39, 0xd6, 0xfb, 0xbf, 0xb1, 0x6e, 0x76, 0x3f, 0x05, 0xe9, 0xdb, 0xbf, 0x4a, 0x55, 0xd3, 0xbf, 0x4c, 0xfa, 0x3d, 0xbe, 0xc9, 0xd3, 0xe9, 0xbd, 0xeb, 0x6a, 0x5e, 0x3d, 0xe3, 0x4f, 0x60, 0x3e, 0x06, 0x85, 0xd1, 0xbc, 0x01, 0x54, 0x54, 0xbd, 0xf5, 0x00, 0x91, 0xbb, 0xda, 0x0a, 0xcb, 0x3d, 0x02, 0xa4, 0xb9, 0x3d, 0x47, 0xe5, 0xad, 0xbd, 0x00, 0x27, 0x3d, 0xbe, 0x45, 0xc4, 0xa7, 0xbe, 0x2e, 0x2d, 0x7e, 0xbd, 0x3d, 0x7c, 0x3e, 0x3e, 0x03, 0x2c, 0x82, 0xbe, 0xab, 0x2b, 0x52, 0xbd, 0x53, 0x6a, 0xc5, 0x3d, 0xc4, 0xa4, 0x27, 0x3b, 0x36, 0xce, 0x92, 0x3d, 0xda, 0x19, 0xe0, 0xbd, 0x71, 0x87, 0x98, 0xbe, 0x39, 0xc7, 0x57, 0x3e, 0x5b, 0x03, 0x26, 0xbe, 0x41, 0x47, 0xcd, 0xbe, 0xe2, 0x79, 0x83, 0xbe, 0x86, 0xf2, 0x53, 0xbe, 0x03, 0x6e, 0x19, 0x3d, 0x7d, 0x09, 0x5c, 0x3d, 0x90, 0xc2, 0xf4, 0xbe, 0xb8, 0xa7, 0xda, 0xbe, 0xca, 0xfe, 0xff, 0xff, 0x04, 0x00, 0x00, 0x00, 0x80, 0x00, 0x00, 0x00, 0x50, 0x10, 0x0c, 0x3d, 0x14, 0xba, 0x8c, 0xbd, 0xb7, 0x58, 0x2b, 0xbd, 0xc3, 0xa2, 0x5c, 0x40, 0xd0, 0x72, 0x11, 0x3e, 0x0d, 0xc9, 0xa4, 0xbb, 0x3f, 0x25, 0x4e, 0xbd, 0xd8, 0x9d, 0x89, 0x40, 0xfd, 0x0e, 0x2e, 0xc0, 0xab, 0x07, 0x15, 0x3e, 0x62, 0x38, 0x4d, 0xbc, 0x4f, 0x56, 0xa8, 0x3f, 0x60, 0x32, 0x5e, 0x3e, 0xa8, 0xd1, 0x58, 0x40, 0xd9, 0xc8, 0x5b, 0x40, 0x77, 0x1f, 0xa9, 0x40, 0x18, 0x3f, 0x13, 0xbc, 0x7f, 0x06, 0xe7, 0xbd, 0x4e, 0x05, 0x9a, 0x3f, 0x64, 0xcb, 0xa3, 0x3d, 0x00, 0x00, 0x00, 0x00, 0x92, 0x01, 0x31, 0x40, 0xfa, 0xf3, 0x22, 0x40, 0x4c, 0x12, 0x6d, 0xbd, 0xf3, 0x88, 0x4c, 0x40, 0x13, 0xd5, 0xa3, 0x3d, 0x65, 0xe4, 0x0a, 0xbe, 0xee, 0x14, 0x6b, 0x40, 0x0a, 0x32, 0x10, 0xbd, 0xc8, 0x79, 0xc5, 0xbd, 0x44, 0x6b, 0x22, 0x40, 0x87, 0x49, 0xd2, 0xbd, 0x56, 0xff, 0xff, 0xff, 0x04, 0x00, 0x00, 0x00, 0x0c, 0x00, 0x00, 0x00, 0xc2, 0x5b, 0x21, 0xc0, 0x83, 0x1b, 0x4b, 0x40, 0x25, 0x29, 0x4f, 0x3f, 0x78, 0xfb, 0xff, 0xff, 0x7c, 0xfb, 0xff, 0xff, 0x0f, 0x00, 0x00, 0x00, 0x4d, 0x4c, 0x49, 0x52, 0x20, 0x43, 0x6f, 0x6e, 0x76, 0x65, 0x72, 0x74, 0x65, 0x64, 0x2e, 0x00, 0x01, 0x00, 0x00, 0x00, 0x14, 0x00, 0x00, 0x00, 0x00, 0x00, 0x0e, 0x00, 0x18, 0x00, 0x14, 0x00, 0x10, 0x00, 0x0c, 0x00, 0x08, 0x00, 0x04, 0x00, 0x0e, 0x00, 0x00, 0x00, 0x14, 0x00, 0x00, 0x00, 0x1c, 0x00, 0x00, 0x00, 0xec, 0x00, 0x00, 0x00, 0xf0, 0x00, 0x00, 0x00, 0xf4, 0x00, 0x00, 0x00, 0x04, 0x00, 0x00, 0x00, 0x6d, 0x61, 0x69, 0x6e, 0x00, 0x00, 0x00, 0x00, 0x03, 0x00, 0x00, 0x00, 0x94, 0x00, 0x00, 0x00, 0x50, 0x00, 0x00, 0x00, 0x14, 0x00, 0x00, 0x00, 0x00, 0x00, 0x0e, 0x00, 0x1a, 0x00, 0x14, 0x00, 0x10, 0x00, 0x0c, 0x00, 0x0b, 0x00, 0x04, 0x00, 0x0e, 0x00, 0x00, 0x00, 0x1c, 0x00, 0x00, 0x00, 0x00, 0x00, 0x00, 0x09, 0x1c, 0x00, 0x00, 0x00, 0x20, 0x00, 0x00, 0x00, 0x01, 0x00, 0x00, 0x00, 0x00, 0x00, 0x06, 0x00, 0x08, 0x00, 0x04, 0x00, 0x06, 0x00, 0x00, 0x00, 0x00, 0x00, 0x80, 0x3f, 0x01, 0x00, 0x00, 0x00, 0x07, 0x00, 0x00, 0x00, 0x01, 0x00, 0x00, 0x00, 0x06, 0x00, 0x00, 0x00, 0xce, 0xff, 0xff, 0xff, 0x10, 0x00, 0x00, 0x00, 0x00, 0x00, 0x00, 0x08, 0x0c, 0x00, 0x00, 0x00, 0x10, 0x00, 0x00, 0x00, 0x3c, 0xfc, 0xff, 0xff, 0x01, 0x00, 0x00, 0x00, 0x06, 0x00, 0x00, 0x00, 0x03, 0x00, 0x00, 0x00, 0x05, 0x00, 0x00, 0x00, 0x04, 0x00, 0x00, 0x00, 0x01, 0x00, 0x00, 0x00, 0x00, 0x00, 0x0e, 0x00, 0x16, 0x00, 0x00, 0x00, 0x10, 0x00, 0x0c, 0x00, 0x0b, 0x00, 0x04, 0x00, 0x0e, 0x00, 0x00, 0x00, 0x18, 0x00, 0x00, 0x00, 0x00, 0x00, 0x00, 0x08, 0x18, 0x00, 0x00, 0x00, 0x1c, 0x00, 0x00, 0x00, 0x00, 0x00, 0x06, 0x00, 0x08, 0x00, 0x07, 0x00, 0x06, 0x00, 0x00, 0x00, 0x00, 0x00, 0x00, 0x01, 0x01, 0x00, 0x00, 0x00, 0x05, 0x00, 0x00, 0x00, 0x03, 0x00, 0x00, 0x00, 0x00, 0x00, 0x00, 0x00, 0x03, 0x00, 0x00, 0x00, 0x02, 0x00, 0x00, 0x00, 0x01, 0x00, 0x00, 0x00, 0x07, 0x00, 0x00, 0x00, 0x01, 0x00, 0x00, 0x00, 0x00, 0x00, 0x00, 0x00, 0x08, 0x00, 0x00, 0x00, 0x20, 0x03, 0x00, 0x00, 0xa8, 0x02, 0x00, 0x00, 0x30, 0x02, 0x00, 0x00, 0xdc, 0x01, 0x00, 0x00, 0x88, 0x01, 0x00, 0x00, 0xe4, 0x00, 0x00, 0x00, 0x60, 0x00, 0x00, 0x00, 0x04, 0x00, 0x00, 0x00, 0x16, 0xfd, 0xff, 0xff, 0x00, 0x00, 0x00, 0x01, 0x14, 0x00, 0x00, 0x00, 0x1c, 0x00, 0x00, 0x00, 0x1c, 0x00, 0x00, 0x00, 0x08, 0x00, 0x00, 0x00, 0x34, 0x00, 0x00, 0x00, 0x02, 0x00, 0x00, 0x00, 0xff, 0xff, 0xff, 0xff, 0x03, 0x00, 0x00, 0x00, 0x00, 0xfd, 0xff, 0xff, 0x19, 0x00, 0x00, 0x00, 0x53, 0x74, 0x61, 0x74, 0x65, 0x66, 0x75, 0x6c, 0x50, 0x61, 0x72, 0x74, 0x69, 0x74, 0x69, 0x6f, 0x6e, 0x65, 0x64, 0x43, 0x61, 0x6c, 0x6c, 0x3a, 0x30, 0x00, 0x00, 0x00, 0x02, 0x00, 0x00, 0x00, 0x01, 0x00, 0x00, 0x00, 0x03, 0x00, 0x00, 0x00, 0x6e, 0xfd, 0xff, 0xff, 0x00, 0x00, 0x00, 0x01, 0x14, 0x00, 0x00, 0x00, 0x1c, 0x00, 0x00, 0x00, 0x1c, 0x00, 0x00, 0x00, 0x07, 0x00, 0x00, 0x00, 0x5c, 0x00, 0x00, 0x00, 0x02, 0x00, 0x00, 0x00, 0xff, 0xff, 0xff, 0xff, 0x03, 0x00, 0x00, 0x00, 0x58, 0xfd, 0xff, 0xff, 0x42, 0x00, 0x00, 0x00, 0x73, 0x65, 0x71, 0x75, 0x65, 0x6e, 0x74, 0x69, 0x61, 0x6c, 0x5f, 0x31, 0x2f, 0x64, 0x65, 0x6e, 0x73, 0x65, 0x5f, 0x44, 0x65, 0x6e, 0x73, 0x65, 0x32, 0x2f, 0x4d, 0x61, 0x74, 0x4d, 0x75, 0x6c, 0x3b, 0x73, 0x65, 0x71, 0x75, 0x65, 0x6e, 0x74, 0x69, 0x61, 0x6c, 0x5f, 0x31, 0x2f, 0x64, 0x65, 0x6e, 0x73, 0x65, 0x5f, 0x44, 0x65, 0x6e, 0x73, 0x65, 0x32, 0x2f, 0x42, 0x69, 0x61, 0x73, 0x41, 0x64, 0x64, 0x00, 0x00, 0x02, 0x00, 0x00, 0x00, 0x01, 0x00, 0x00, 0x00, 0x03, 0x00, 0x00, 0x00, 0xee, 0xfd, 0xff, 0xff, 0x00, 0x00, 0x00, 0x01, 0x14, 0x00, 0x00, 0x00, 0x1c, 0x00, 0x00, 0x00, 0x1c, 0x00, 0x00, 0x00, 0x06, 0x00, 0x00, 0x00, 0x7c, 0x00, 0x00, 0x00, 0x02, 0x00, 0x00, 0x00, 0xff, 0xff, 0xff, 0xff, 0x20, 0x00, 0x00, 0x00, 0xd8, 0xfd, 0xff, 0xff, 0x61, 0x00, 0x00, 0x00, 0x73, 0x65, 0x71, 0x75, 0x65, 0x6e, 0x74, 0x69, 0x61, 0x6c, 0x5f, 0x31, 0x2f, 0x64, 0x65, 0x6e, 0x73, 0x65, 0x5f, 0x44, 0x65, 0x6e, 0x73, 0x65, 0x31, 0x2f, 0x4d, 0x61, 0x74, 0x4d, 0x75, 0x6c, 0x3b, 0x73, 0x65, 0x71, 0x75, 0x65, 0x6e, 0x74, 0x69, 0x61, 0x6c, 0x5f, 0x31, 0x2f, 0x64, 0x65, 0x6e, 0x73, 0x65, 0x5f, 0x44, 0x65, 0x6e, 0x73, 0x65, 0x31, 0x2f, 0x52, 0x65, 0x6c, 0x75, 0x3b, 0x73, 0x65, 0x71, 0x75, 0x65, 0x6e, 0x74, 0x69, 0x61, 0x6c, 0x5f, 0x31, 0x2f, 0x64, 0x65, 0x6e, 0x73, 0x65, 0x5f, 0x44, 0x65, 0x6e, 0x73, 0x65, 0x31, 0x2f, 0x42, 0x69, 0x61, 0x73, 0x41, 0x64, 0x64, 0x00, 0x00, 0x00, 0x02, 0x00, 0x00, 0x00, 0x01, 0x00, 0x00, 0x00, 0x20, 0x00, 0x00, 0x00, 0x02, 0xff, 0xff, 0xff, 0x00, 0x00, 0x00, 0x01, 0x10, 0x00, 0x00, 0x00, 0x10, 0x00, 0x00, 0x00, 0x05, 0x00, 0x00, 0x00, 0x30, 0x00, 0x00, 0x00, 0x68, 0xfe, 0xff, 0xff, 0x20, 0x00, 0x00, 0x00, 0x73, 0x65, 0x71, 0x75, 0x65, 0x6e, 0x74, 0x69, 0x61, 0x6c, 0x5f, 0x31, 0x2f, 0x64, 0x65, 0x6e, 0x73, 0x65, 0x5f, 0x44, 0x65, 0x6e, 0x73, 0x65, 0x32, 0x2f, 0x4d, 0x61, 0x74, 0x4d, 0x75, 0x6c, 0x00, 0x00, 0x00, 0x00, 0x02, 0x00, 0x00, 0x00, 0x03, 0x00, 0x00, 0x00, 0x20, 0x00, 0x00, 0x00, 0x52, 0xff, 0xff, 0xff, 0x00, 0x00, 0x00, 0x01, 0x10, 0x00, 0x00, 0x00, 0x10, 0x00, 0x00, 0x00, 0x04, 0x00, 0x00, 0x00, 0x30, 0x00, 0x00, 0x00, 0xb8, 0xfe, 0xff, 0xff, 0x20, 0x00, 0x00, 0x00, 0x73, 0x65, 0x71, 0x75, 0x65, 0x6e, 0x74, 0x69, 0x61, 0x6c, 0x5f, 0x31, 0x2f, 0x64, 0x65, 0x6e, 0x73, 0x65, 0x5f, 0x44, 0x65, 0x6e, 0x73, 0x65, 0x31, 0x2f, 0x4d, 0x61, 0x74, 0x4d, 0x75, 0x6c, 0x00, 0x00, 0x00, 0x00, 0x02, 0x00, 0x00, 0x00, 0x20, 0x00, 0x00, 0x00, 0x1e, 0x00, 0x00, 0x00, 0xa2, 0xff, 0xff, 0xff, 0x00, 0x00, 0x00, 0x01, 0x10, 0x00, 0x00, 0x00, 0x10, 0x00, 0x00, 0x00, 0x03, 0x00, 0x00, 0x00, 0x40, 0x00, 0x00, 0x00, 0x08, 0xff, 0xff, 0xff, 0x30, 0x00, 0x00, 0x00, 0x73, 0x65, 0x71, 0x75, 0x65, 0x6e, 0x74, 0x69, 0x61, 0x6c, 0x5f, 0x31, 0x2f, 0x64, 0x65, 0x6e, 0x73, 0x65, 0x5f, 0x44, 0x65, 0x6e, 0x73, 0x65, 0x31, 0x2f, 0x42, 0x69, 0x61, 0x73, 0x41, 0x64, 0x64, 0x2f, 0x52, 0x65, 0x61, 0x64, 0x56, 0x61, 0x72, 0x69, 0x61, 0x62, 0x6c, 0x65, 0x4f, 0x70, 0x00, 0x00, 0x00, 0x00, 0x01, 0x00, 0x00, 0x00, 0x20, 0x00, 0x00, 0x00, 0x00, 0x00, 0x16, 0x00, 0x18, 0x00, 0x14, 0x00, 0x00, 0x00, 0x10, 0x00, 0x0c, 0x00, 0x08, 0x00, 0x00, 0x00, 0x00, 0x00, 0x00, 0x00, 0x07, 0x00, 0x16, 0x00, 0x00, 0x00, 0x00, 0x00, 0x00, 0x01, 0x10, 0x00, 0x00, 0x00, 0x10, 0x00, 0x00, 0x00, 0x02, 0x00, 0x00, 0x00, 0x40, 0x00, 0x00, 0x00, 0x7c, 0xff, 0xff, 0xff, 0x30, 0x00, 0x00, 0x00, 0x73, 0x65, 0x71, 0x75, 0x65, 0x6e, 0x74, 0x69, 0x61, 0x6c, 0x5f, 0x31, 0x2f, 0x64, 0x65, 0x6e, 0x73, 0x65, 0x5f, 0x44, 0x65, 0x6e, 0x73, 0x65, 0x32, 0x2f, 0x42, 0x69, 0x61, 0x73, 0x41, 0x64, 0x64, 0x2f, 0x52, 0x65, 0x61, 0x64, 0x56, 0x61, 0x72, 0x69, 0x61, 0x62, 0x6c, 0x65, 0x4f, 0x70, 0x00, 0x00, 0x00, 0x00, 0x01, 0x00, 0x00, 0x00, 0x03, 0x00, 0x00, 0x00, 0x00, 0x00, 0x16, 0x00, 0x1c, 0x00, 0x18, 0x00, 0x00, 0x00, 0x14, 0x00, 0x10, 0x00, 0x0c, 0x00, 0x00, 0x00, 0x00, 0x00, 0x08, 0x00, 0x07, 0x00, 0x16, 0x00, 0x00, 0x00, 0x00, 0x00, 0x00, 0x01, 0x14, 0x00, 0x00, 0x00, 0x20, 0x00, 0x00, 0x00, 0x20, 0x00, 0x00, 0x00, 0x01, 0x00, 0x00, 0x00, 0x38, 0x00, 0x00, 0x00, 0x02, 0x00, 0x00, 0x00, 0xff, 0xff, 0xff, 0xff, 0x1e, 0x00, 0x00, 0x00, 0x04, 0x00, 0x04, 0x00, 0x04, 0x00, 0x00, 0x00, 0x18, 0x00, 0x00, 0x00, 0x73, 0x65, 0x72, 0x76, 0x69, 0x6e, 0x67, 0x5f, 0x64, 0x65, 0x66, 0x61, 0x75, 0x6c, 0x74, 0x5f, 0x69, 0x6e, 0x70, 0x75, 0x74, 0x31, 0x3a, 0x30, 0x00, 0x00, 0x00, 0x00, 0x02, 0x00, 0x00, 0x00, 0x01, 0x00, 0x00, 0x00, 0x1e, 0x00, 0x00, 0x00, 0x02, 0x00, 0x00, 0x00, 0x20, 0x00, 0x00, 0x00, 0x04, 0x00, 0x00, 0x00, 0xf4, 0xff, 0xff, 0xff, 0x19, 0x00, 0x00, 0x00, 0x00, 0x00, 0x00, 0x19, 0x0c, 0x00, 0x0c, 0x00, 0x0b, 0x00, 0x00, 0x00, 0x00, 0x00, 0x04, 0x00, 0x0c, 0x00, 0x00, 0x00, 0x09, 0x00, 0x00, 0x00, 0x00, 0x00, 0x00, 0x09};
const int model_data_len = 6132;