
#ifdef __has_attribute
#define HAVE_ATTRIBUTE(x) __has_attribute(x)
#else
#define HAVE_ATTRIBUTE(x) 0
#endif
#if HAVE_ATTRIBUTE(aligned) || (defined(__GNUC__) && !defined(__clang__))
#define DATA_ALIGN_ATTRIBUTE __attribute__((aligned(4)))
#else
#define DATA_ALIGN_ATTRIBUTE
#endif

const unsigned char model_data[] DATA_ALIGN_ATTRIBUTE = {0x1c, 0x00, 0x00, 0x00, 0x54, 0x46, 0x4c, 0x33, 0x14, 0x00, 0x20, 0x00, 0x1c, 0x00, 0x18, 0x00, 0x14, 0x00, 0x10, 0x00, 0x0c, 0x00, 0x00, 0x00, 0x08, 0x00, 0x04, 0x00, 0x14, 0x00, 0x00, 0x00, 0x1c, 0x00, 0x00, 0x00, 0x94, 0x00, 0x00, 0x00, 0xec, 0x00, 0x00, 0x00, 0xa4, 0x04, 0x00, 0x00, 0xb4, 0x04, 0x00, 0x00, 0x50, 0x09, 0x00, 0x00, 0x03, 0x00, 0x00, 0x00, 0x01, 0x00, 0x00, 0x00, 0x10, 0x00, 0x00, 0x00, 0x00, 0x00, 0x0a, 0x00, 0x10, 0x00, 0x0c, 0x00, 0x08, 0x00, 0x04, 0x00, 0x0a, 0x00, 0x00, 0x00, 0x0c, 0x00, 0x00, 0x00, 0x1c, 0x00, 0x00, 0x00, 0x40, 0x00, 0x00, 0x00, 0x0f, 0x00, 0x00, 0x00, 0x73, 0x65, 0x72, 0x76, 0x69, 0x6e, 0x67, 0x5f, 0x64, 0x65, 0x66, 0x61, 0x75, 0x6c, 0x74, 0x00, 0x01, 0x00, 0x00, 0x00, 0x04, 0x00, 0x00, 0x00, 0x94, 0xff, 0xff, 0xff, 0x07, 0x00, 0x00, 0x00, 0x04, 0x00, 0x00, 0x00, 0x0c, 0x00, 0x00, 0x00, 0x64, 0x65, 0x6e, 0x73, 0x65, 0x5f, 0x44, 0x65, 0x6e, 0x73, 0x65, 0x32, 0x00, 0x00, 0x00, 0x00, 0x01, 0x00, 0x00, 0x00, 0x04, 0x00, 0x00, 0x00, 0x4a, 0xfb, 0xff, 0xff, 0x04, 0x00, 0x00, 0x00, 0x06, 0x00, 0x00, 0x00, 0x69, 0x6e, 0x70, 0x75, 0x74, 0x31, 0x00, 0x00, 0x02, 0x00, 0x00, 0x00, 0x34, 0x00, 0x00, 0x00, 0x04, 0x00, 0x00, 0x00, 0xdc, 0xff, 0xff, 0xff, 0x0a, 0x00, 0x00, 0x00, 0x04, 0x00, 0x00, 0x00, 0x13, 0x00, 0x00, 0x00, 0x43, 0x4f, 0x4e, 0x56, 0x45, 0x52, 0x53, 0x49, 0x4f, 0x4e, 0x5f, 0x4d, 0x45, 0x54, 0x41, 0x44, 0x41, 0x54, 0x41, 0x00, 0x08, 0x00, 0x0c, 0x00, 0x08, 0x00, 0x04, 0x00, 0x08, 0x00, 0x00, 0x00, 0x09, 0x00, 0x00, 0x00, 0x04, 0x00, 0x00, 0x00, 0x13, 0x00, 0x00, 0x00, 0x6d, 0x69, 0x6e, 0x5f, 0x72, 0x75, 0x6e, 0x74, 0x69, 0x6d, 0x65, 0x5f, 0x76, 0x65, 0x72, 0x73, 0x69, 0x6f, 0x6e, 0x00, 0x0b, 0x00, 0x00, 0x00, 0xb4, 0x03, 0x00, 0x00, 0xac, 0x03, 0x00, 0x00, 0x8c, 0x03, 0x00, 0x00, 0x68, 0x03, 0x00, 0x00, 0x00, 0x01, 0x00, 0x00, 0xa0, 0x00, 0x00, 0x00, 0x98, 0x00, 0x00, 0x00, 0x90, 0x00, 0x00, 0x00, 0x88, 0x00, 0x00, 0x00, 0x68, 0x00, 0x00, 0x00, 0x04, 0x00, 0x00, 0x00, 0xea, 0xfb, 0xff, 0xff, 0x04, 0x00, 0x00, 0x00, 0x54, 0x00, 0x00, 0x00, 0x0c, 0x00, 0x00, 0x00, 0x08, 0x00, 0x0e, 0x00, 0x08, 0x00, 0x04, 0x00, 0x08, 0x00, 0x00, 0x00, 0x10, 0x00, 0x00, 0x00, 0x24, 0x00, 0x00, 0x00, 0x00, 0x00, 0x06, 0x00, 0x08, 0x00, 0x04, 0x00, 0x06, 0x00, 0x00, 0x00, 0x04, 0x00, 0x00, 0x00, 0x00, 0x00, 0x00, 0x00, 0x00, 0x00, 0x0a, 0x00, 0x10, 0x00, 0x0c, 0x00, 0x08, 0x00, 0x04, 0x00, 0x0a, 0x00, 0x00, 0x00, 0x02, 0x00, 0x00, 0x00, 0x02, 0x00, 0x00, 0x00, 0x04, 0x00, 0x00, 0x00, 0x06, 0x00, 0x00, 0x00, 0x32, 0x2e, 0x31, 0x34, 0x2e, 0x30, 0x00, 0x00, 0x4a, 0xfc, 0xff, 0xff, 0x04, 0x00, 0x00, 0x00, 0x10, 0x00, 0x00, 0x00, 0x31, 0x2e, 0x35, 0x2e, 0x30, 0x00, 0x00, 0x00, 0x00, 0x00, 0x00, 0x00, 0x00, 0x00, 0x00, 0x00, 0x70, 0xf8, 0xff, 0xff, 0x74, 0xf8, 0xff, 0xff, 0x78, 0xf8, 0xff, 0xff, 0x72, 0xfc, 0xff, 0xff, 0x04, 0x00, 0x00, 0x00, 0x50, 0x00, 0x00, 0x00, 0x0f, 0x59, 0x12, 0xc2, 0xfa, 0x32, 0x06, 0x41, 0x07, 0x12, 0xd2, 0xc1, 0xca, 0x22, 0x0f, 0x41, 0x65, 0x32, 0x92, 0xc1, 0x67, 0x52, 0xb8, 0x41, 0x0f, 0x74, 0x09, 0xc0, 0xea, 0xeb, 0x90, 0x41, 0xdd, 0xdd, 0x37, 0xc0, 0x36, 0x60, 0x9c, 0x41, 0xf2, 0xcd, 0x09, 0xc0, 0x2d, 0x01, 0x66, 0xc2, 0x5a, 0x13, 0x29, 0xc1, 0x67, 0x5b, 0xa3, 0xc0, 0xa1, 0x0b, 0x10, 0xc1, 0xab, 0x41, 0x00, 0x3f, 0x60, 0xfe, 0xd3, 0xc0, 0x94, 0x0f, 0xce, 0x3d, 0xc7, 0x3a, 0xaa, 0xbe, 0x64, 0xd9, 0x3e, 0xc1, 0xce, 0xfc, 0xff, 0xff, 0x04, 0x00, 0x00, 0x00, 0x58, 0x02, 0x00, 0x00, 0x72, 0xd2, 0xe1, 0xbf, 0x2e, 0x4f, 0x9b, 0x3f, 0xa0, 0xe7, 0x8d, 0x3d, 0x9d, 0x2c, 0x24, 0xc0, 0x6a, 0xe8, 0x08, 0x40, 0x5f, 0x31, 0xde, 0xbf, 0x9f, 0x16, 0x0c, 0xbf, 0x60, 0x2c, 0xdd, 0x3f, 0x49, 0x85, 0x14, 0xc0, 0x5d, 0xc2, 0x91, 0x3f, 0x79, 0x28, 0x18, 0x40, 0x1c, 0xaa, 0xbc, 0xc0, 0x38, 0x9d, 0x5e, 0x3f, 0x01, 0xb2, 0xfd, 0x3f, 0x41, 0x76, 0x8c, 0xc0, 0x29, 0x17, 0xbb, 0x3f, 0x25, 0x13, 0x8d, 0x3f, 0x57, 0xea, 0x79, 0xc0, 0x24, 0x37, 0x0f, 0x40, 0x63, 0xf4, 0xdc, 0xbe, 0x1f, 0xc7, 0x8c, 0xc0, 0xc0, 0x10, 0xf0, 0x3f, 0x89, 0xa1, 0xe1, 0x3f, 0x2a, 0x24, 0x5c, 0xc0, 0xe4, 0xba, 0x34, 0x3e, 0x26, 0xbf, 0x06, 0x3f, 0xde, 0x02, 0xd7, 0xbf, 0x72, 0x42, 0xb9, 0xbf, 0x88, 0x9a, 0x8c, 0x3f, 0xec, 0xb1, 0xd8, 0xbf, 0x69, 0x5c, 0x50, 0xc0, 0x61, 0x97, 0xf4, 0xbf, 0x7a, 0xd5, 0x1b, 0x40, 0x43, 0x7c, 0x4a, 0xc0, 0x9e, 0x65, 0x97, 0xbf, 0x29, 0xf5, 0xde, 0x3f, 0xa3, 0xa1, 0x4b, 0xc0, 0x2a, 0x71, 0x84, 0x3f, 0x12, 0x78, 0x3d, 0x40, 0x94, 0xb5, 0x97, 0xc0, 0xb2, 0xb7, 0x82, 0x3f, 0xe3, 0x8d, 0xd9, 0x3e, 0x22, 0x65, 0x7d, 0xc0, 0x57, 0x6d, 0x0b, 0x40, 0x14, 0x7b, 0xdd, 0x3f, 0xb8, 0x8e, 0xfc, 0xbf, 0x56, 0x3b, 0x40, 0x40, 0xc0, 0x1c, 0xa4, 0x3f, 0x45, 0x98, 0x02, 0xc0, 0x89, 0x68, 0x3e, 0x40, 0x48, 0x1b, 0xce, 0x3f, 0x73, 0x82, 0x88, 0xbf, 0xa9, 0xdf, 0x44, 0x40, 0xa8, 0xb5, 0x62, 0x40, 0x5d, 0x97, 0xda, 0x3d, 0x79, 0xc0, 0x68, 0x40, 0xd5, 0xa1, 0x5b, 0x40, 0xa5, 0x3e, 0xbc, 0xbe, 0x79, 0x7c, 0x67, 0x40, 0x58, 0x14, 0xc3, 0x40, 0x26, 0x02, 0x3c, 0xbf, 0x54, 0x46, 0xde, 0x3e, 0xd4, 0x5b, 0xb1, 0xbf, 0xa2, 0x91, 0x89, 0xbd, 0x03, 0x09, 0x6d, 0x3f, 0x3f, 0x0d, 0xaa, 0xbf, 0x42, 0xf6, 0xae, 0xbe, 0xbe, 0x6c, 0x8b, 0xbf, 0x4c, 0x2f, 0x82, 0xbf, 0x61, 0xd9, 0xb2, 0xbf, 0x62, 0xeb, 0xee, 0xbe, 0x6e, 0x4d, 0x93, 0xbf, 0xf1, 0xef, 0x1d, 0xbe, 0x3c, 0x36, 0xad, 0xbf, 0x4d, 0x9b, 0x3d, 0xc0, 0x7d, 0xd3, 0x20, 0xc0, 0xac, 0x3f, 0x97, 0x3e, 0x3f, 0x27, 0x0f, 0xc0, 0xa0, 0xb7, 0x10, 0xbf, 0xe3, 0x56, 0xcc, 0xbe, 0x7e, 0x24, 0x44, 0xc0, 0xfd, 0x27, 0x21, 0xc0, 0x72, 0xf8, 0x00, 0x40, 0xed, 0xe4, 0x22, 0xc0, 0x9f, 0xb8, 0x8a, 0xc0, 0x8b, 0x1c, 0xa4, 0xbf, 0x0f, 0x13, 0xec, 0x3e, 0x8b, 0xfc, 0x93, 0xc0, 0xa1, 0xcd, 0x83, 0xc0, 0x17, 0xe9, 0x6c, 0xbf, 0xca, 0x4c, 0x06, 0xbc, 0x83, 0x12, 0x97, 0x3f, 0x6b, 0x51, 0xb9, 0xbe, 0x70, 0xed, 0x9a, 0x3f, 0x39, 0xe4, 0xaf, 0xbe, 0x20, 0x60, 0x76, 0x3f, 0x57, 0xca, 0x0a, 0x3f, 0xdd, 0x15, 0x22, 0xbd, 0x8b, 0x30, 0x2d, 0x3f, 0x04, 0x3b, 0x68, 0x3f, 0xba, 0xbc, 0x2e, 0xbf, 0xd8, 0x63, 0x46, 0xbe, 0xff, 0xe1, 0xa0, 0xbd, 0x78, 0xfc, 0xf4, 0xbf, 0x39, 0xd0, 0xbd, 0x3e, 0x4f, 0xc1, 0xce, 0xbf, 0x0a, 0xf1, 0x1b, 0xbf, 0x0b, 0x94, 0x56, 0xbf, 0x2c, 0xcf, 0x19, 0xbf, 0xfa, 0x3b, 0xe2, 0xbf, 0x58, 0x99, 0xcb, 0xbf, 0x14, 0x38, 0x3f, 0xbf, 0xf8, 0x60, 0x32, 0xc0, 0xbf, 0x02, 0x4c, 0xc0, 0x44, 0x6d, 0xbc, 0xbf, 0x05, 0x9b, 0x12, 0xc0, 0x9a, 0xa1, 0x81, 0xc0, 0x68, 0xae, 0xc2, 0xbf, 0x94, 0x68, 0x87, 0xbf, 0xfb, 0x12, 0x6f, 0xc0, 0xe9, 0xba, 0x88, 0xc0, 0x37, 0x70, 0x42, 0x40, 0xb7, 0xdb, 0x09, 0x40, 0x03, 0xfb, 0x86, 0xc0, 0xa2, 0x70, 0xfc, 0x3f, 0x6b, 0xc0, 0xf6, 0x3f, 0x95, 0xf3, 0x21, 0xc0, 0x33, 0xe4, 0xe0, 0x3f, 0x0e, 0x66, 0x22, 0x40, 0xbd, 0x00, 0xf0, 0x3e, 0x0f, 0x64, 0x93, 0x3f, 0xdf, 0x0e, 0x23, 0x40, 0x81, 0xa1, 0xfd, 0xbd, 0x46, 0xa2, 0x05, 0x3e, 0xcf, 0xfc, 0xe8, 0x3f, 0xa0, 0xe6, 0xd8, 0xbe, 0xf0, 0x0e, 0xa2, 0xbe, 0x89, 0x7d, 0x09, 0x40, 0x56, 0x15, 0xa7, 0xbf, 0x67, 0xf3, 0xc6, 0xbf, 0x36, 0xeb, 0x20, 0x3f, 0xd0, 0x6e, 0xe1, 0xbf, 0xdd, 0x12, 0x8d, 0xbf, 0xd6, 0x81, 0x31, 0x3f, 0xb0, 0xea, 0xa1, 0xc0, 0xb5, 0xec, 0x51, 0x3e, 0x13, 0xe7, 0xe5, 0x3f, 0x98, 0xf7, 0x00, 0xc0, 0x8d, 0x00, 0xc0, 0x3e, 0x1d, 0xec, 0x79, 0x3f, 0x32, 0xff, 0xff, 0xff, 0x04, 0x00, 0x00, 0x00, 0x14, 0x00, 0x00, 0x00, 0x9a, 0x74, 0xac, 0xbd, 0x97, 0xd0, 0x3b, 0xc0, 0x06, 0x63, 0x90, 0x3f, 0x57, 0xc4, 0xba, 0xbe, 0x80, 0xda, 0x0c, 0xbf, 0x52, 0xff, 0xff, 0xff, 0x04, 0x00, 0x00, 0x00, 0x10, 0x00, 0x00, 0x00, 0x43, 0x28, 0xc4, 0x3f, 0xf5, 0x1f, 0x20, 0xc1, 0x95, 0xdc, 0x28, 0x41, 0x10, 0xa0, 0x7b, 0xc1, 0x78, 0xfb, 0xff, 0xff, 0x7c, 0xfb, 0xff, 0xff, 0x0f, 0x00, 0x00, 0x00, 0x4d, 0x4c, 0x49, 0x52, 0x20, 0x43, 0x6f, 0x6e, 0x76, 0x65, 0x72, 0x74, 0x65, 0x64, 0x2e, 0x00, 0x01, 0x00, 0x00, 0x00, 0x14, 0x00, 0x00, 0x00, 0x00, 0x00, 0x0e, 0x00, 0x18, 0x00, 0x14, 0x00, 0x10, 0x00, 0x0c, 0x00, 0x08, 0x00, 0x04, 0x00, 0x0e, 0x00, 0x00, 0x00, 0x14, 0x00, 0x00, 0x00, 0x1c, 0x00, 0x00, 0x00, 0xec, 0x00, 0x00, 0x00, 0xf0, 0x00, 0x00, 0x00, 0xf4, 0x00, 0x00, 0x00, 0x04, 0x00, 0x00, 0x00, 0x6d, 0x61, 0x69, 0x6e, 0x00, 0x00, 0x00, 0x00, 0x03, 0x00, 0x00, 0x00, 0x94, 0x00, 0x00, 0x00, 0x50, 0x00, 0x00, 0x00, 0x14, 0x00, 0x00, 0x00, 0x00, 0x00, 0x0e, 0x00, 0x1a, 0x00, 0x14, 0x00, 0x10, 0x00, 0x0c, 0x00, 0x0b, 0x00, 0x04, 0x00, 0x0e, 0x00, 0x00, 0x00, 0x1c, 0x00, 0x00, 0x00, 0x00, 0x00, 0x00, 0x09, 0x1c, 0x00, 0x00, 0x00, 0x20, 0x00, 0x00, 0x00, 0x01, 0x00, 0x00, 0x00, 0x00, 0x00, 0x06, 0x00, 0x08, 0x00, 0x04, 0x00, 0x06, 0x00, 0x00, 0x00, 0x00, 0x00, 0x80, 0x3f, 0x01, 0x00, 0x00, 0x00, 0x07, 0x00, 0x00, 0x00, 0x01, 0x00, 0x00, 0x00, 0x06, 0x00, 0x00, 0x00, 0xce, 0xff, 0xff, 0xff, 0x10, 0x00, 0x00, 0x00, 0x00, 0x00, 0x00, 0x08, 0x0c, 0x00, 0x00, 0x00, 0x10, 0x00, 0x00, 0x00, 0x3c, 0xfc, 0xff, 0xff, 0x01, 0x00, 0x00, 0x00, 0x06, 0x00, 0x00, 0x00, 0x03, 0x00, 0x00, 0x00, 0x05, 0x00, 0x00, 0x00, 0x04, 0x00, 0x00, 0x00, 0x01, 0x00, 0x00, 0x00, 0x00, 0x00, 0x0e, 0x00, 0x16, 0x00, 0x00, 0x00, 0x10, 0x00, 0x0c, 0x00, 0x0b, 0x00, 0x04, 0x00, 0x0e, 0x00, 0x00, 0x00, 0x18, 0x00, 0x00, 0x00, 0x00, 0x00, 0x00, 0x08, 0x18, 0x00, 0x00, 0x00, 0x1c, 0x00, 0x00, 0x00, 0x00, 0x00, 0x06, 0x00, 0x08, 0x00, 0x07, 0x00, 0x06, 0x00, 0x00, 0x00, 0x00, 0x00, 0x00, 0x01, 0x01, 0x00, 0x00, 0x00, 0x05, 0x00, 0x00, 0x00, 0x03, 0x00, 0x00, 0x00, 0x00, 0x00, 0x00, 0x00, 0x03, 0x00, 0x00, 0x00, 0x02, 0x00, 0x00, 0x00, 0x01, 0x00, 0x00, 0x00, 0x07, 0x00, 0x00, 0x00, 0x01, 0x00, 0x00, 0x00, 0x00, 0x00, 0x00, 0x00, 0x08, 0x00, 0x00, 0x00, 0x20, 0x03, 0x00, 0x00, 0xa8, 0x02, 0x00, 0x00, 0x30, 0x02, 0x00, 0x00, 0xdc, 0x01, 0x00, 0x00, 0x88, 0x01, 0x00, 0x00, 0xe4, 0x00, 0x00, 0x00, 0x60, 0x00, 0x00, 0x00, 0x04, 0x00, 0x00, 0x00, 0x16, 0xfd, 0xff, 0xff, 0x00, 0x00, 0x00, 0x01, 0x14, 0x00, 0x00, 0x00, 0x1c, 0x00, 0x00, 0x00, 0x1c, 0x00, 0x00, 0x00, 0x08, 0x00, 0x00, 0x00, 0x34, 0x00, 0x00, 0x00, 0x02, 0x00, 0x00, 0x00, 0xff, 0xff, 0xff, 0xff, 0x04, 0x00, 0x00, 0x00, 0x00, 0xfd, 0xff, 0xff, 0x19, 0x00, 0x00, 0x00, 0x53, 0x74, 0x61, 0x74, 0x65, 0x66, 0x75, 0x6c, 0x50, 0x61, 0x72, 0x74, 0x69, 0x74, 0x69, 0x6f, 0x6e, 0x65, 0x64, 0x43, 0x61, 0x6c, 0x6c, 0x3a, 0x30, 0x00, 0x00, 0x00, 0x02, 0x00, 0x00, 0x00, 0x01, 0x00, 0x00, 0x00, 0x04, 0x00, 0x00, 0x00, 0x6e, 0xfd, 0xff, 0xff, 0x00, 0x00, 0x00, 0x01, 0x14, 0x00, 0x00, 0x00, 0x1c, 0x00, 0x00, 0x00, 0x1c, 0x00, 0x00, 0x00, 0x07, 0x00, 0x00, 0x00, 0x5c, 0x00, 0x00, 0x00, 0x02, 0x00, 0x00, 0x00, 0xff, 0xff, 0xff, 0xff, 0x04, 0x00, 0x00, 0x00, 0x58, 0xfd, 0xff, 0xff, 0x42, 0x00, 0x00, 0x00, 0x73, 0x65, 0x71, 0x75, 0x65, 0x6e, 0x74, 0x69, 0x61, 0x6c, 0x5f, 0x31, 0x2f, 0x64, 0x65, 0x6e, 0x73, 0x65, 0x5f, 0x44, 0x65, 0x6e, 0x73, 0x65, 0x32, 0x2f, 0x4d, 0x61, 0x74, 0x4d, 0x75, 0x6c, 0x3b, 0x73, 0x65, 0x71, 0x75, 0x65, 0x6e, 0x74, 0x69, 0x61, 0x6c, 0x5f, 0x31, 0x2f, 0x64, 0x65, 0x6e, 0x73, 0x65, 0x5f, 0x44, 0x65, 0x6e, 0x73, 0x65, 0x32, 0x2f, 0x42, 0x69, 0x61, 0x73, 0x41, 0x64, 0x64, 0x00, 0x00, 0x02, 0x00, 0x00, 0x00, 0x01, 0x00, 0x00, 0x00, 0x04, 0x00, 0x00, 0x00, 0xee, 0xfd, 0xff, 0xff, 0x00, 0x00, 0x00, 0x01, 0x14, 0x00, 0x00, 0x00, 0x1c, 0x00, 0x00, 0x00, 0x1c, 0x00, 0x00, 0x00, 0x06, 0x00, 0x00, 0x00, 0x7c, 0x00, 0x00, 0x00, 0x02, 0x00, 0x00, 0x00, 0xff, 0xff, 0xff, 0xff, 0x05, 0x00, 0x00, 0x00, 0xd8, 0xfd, 0xff, 0xff, 0x61, 0x00, 0x00, 0x00, 0x73, 0x65, 0x71, 0x75, 0x65, 0x6e, 0x74, 0x69, 0x61, 0x6c, 0x5f, 0x31, 0x2f, 0x64, 0x65, 0x6e, 0x73, 0x65, 0x5f, 0x44, 0x65, 0x6e, 0x73, 0x65, 0x31, 0x2f, 0x4d, 0x61, 0x74, 0x4d, 0x75, 0x6c, 0x3b, 0x73, 0x65, 0x71, 0x75, 0x65, 0x6e, 0x74, 0x69, 0x61, 0x6c, 0x5f, 0x31, 0x2f, 0x64, 0x65, 0x6e, 0x73, 0x65, 0x5f, 0x44, 0x65, 0x6e, 0x73, 0x65, 0x31, 0x2f, 0x52, 0x65, 0x6c, 0x75, 0x3b, 0x73, 0x65, 0x71, 0x75, 0x65, 0x6e, 0x74, 0x69, 0x61, 0x6c, 0x5f, 0x31, 0x2f, 0x64, 0x65, 0x6e, 0x73, 0x65, 0x5f, 0x44, 0x65, 0x6e, 0x73, 0x65, 0x31, 0x2f, 0x42, 0x69, 0x61, 0x73, 0x41, 0x64, 0x64, 0x00, 0x00, 0x00, 0x02, 0x00, 0x00, 0x00, 0x01, 0x00, 0x00, 0x00, 0x05, 0x00, 0x00, 0x00, 0x02, 0xff, 0xff, 0xff, 0x00, 0x00, 0x00, 0x01, 0x10, 0x00, 0x00, 0x00, 0x10, 0x00, 0x00, 0x00, 0x05, 0x00, 0x00, 0x00, 0x30, 0x00, 0x00, 0x00, 0x68, 0xfe, 0xff, 0xff, 0x20, 0x00, 0x00, 0x00, 0x73, 0x65, 0x71, 0x75, 0x65, 0x6e, 0x74, 0x69, 0x61, 0x6c, 0x5f, 0x31, 0x2f, 0x64, 0x65, 0x6e, 0x73, 0x65, 0x5f, 0x44, 0x65, 0x6e, 0x73, 0x65, 0x32, 0x2f, 0x4d, 0x61, 0x74, 0x4d, 0x75, 0x6c, 0x00, 0x00, 0x00, 0x00, 0x02, 0x00, 0x00, 0x00, 0x04, 0x00, 0x00, 0x00, 0x05, 0x00, 0x00, 0x00, 0x52, 0xff, 0xff, 0xff, 0x00, 0x00, 0x00, 0x01, 0x10, 0x00, 0x00, 0x00, 0x10, 0x00, 0x00, 0x00, 0x04, 0x00, 0x00, 0x00, 0x30, 0x00, 0x00, 0x00, 0xb8, 0xfe, 0xff, 0xff, 0x20, 0x00, 0x00, 0x00, 0x73, 0x65, 0x71, 0x75, 0x65, 0x6e, 0x74, 0x69, 0x61, 0x6c, 0x5f, 0x31, 0x2f, 0x64, 0x65, 0x6e, 0x73, 0x65, 0x5f, 0x44, 0x65, 0x6e, 0x73, 0x65, 0x31, 0x2f, 0x4d, 0x61, 0x74, 0x4d, 0x75, 0x6c, 0x00, 0x00, 0x00, 0x00, 0x02, 0x00, 0x00, 0x00, 0x05, 0x00, 0x00, 0x00, 0x1e, 0x00, 0x00, 0x00, 0xa2, 0xff, 0xff, 0xff, 0x00, 0x00, 0x00, 0x01, 0x10, 0x00, 0x00, 0x00, 0x10, 0x00, 0x00, 0x00, 0x03, 0x00, 0x00, 0x00, 0x40, 0x00, 0x00, 0x00, 0x08, 0xff, 0xff, 0xff, 0x30, 0x00, 0x00, 0x00, 0x73, 0x65, 0x71, 0x75, 0x65, 0x6e, 0x74, 0x69, 0x61, 0x6c, 0x5f, 0x31, 0x2f, 0x64, 0x65, 0x6e, 0x73, 0x65, 0x5f, 0x44, 0x65, 0x6e, 0x73, 0x65, 0x31, 0x2f, 0x42, 0x69, 0x61, 0x73, 0x41, 0x64, 0x64, 0x2f, 0x52, 0x65, 0x61, 0x64, 0x56, 0x61, 0x72, 0x69, 0x61, 0x62, 0x6c, 0x65, 0x4f, 0x70, 0x00, 0x00, 0x00, 0x00, 0x01, 0x00, 0x00, 0x00, 0x05, 0x00, 0x00, 0x00, 0x00, 0x00, 0x16, 0x00, 0x18, 0x00, 0x14, 0x00, 0x00, 0x00, 0x10, 0x00, 0x0c, 0x00, 0x08, 0x00, 0x00, 0x00, 0x00, 0x00, 0x00, 0x00, 0x07, 0x00, 0x16, 0x00, 0x00, 0x00, 0x00, 0x00, 0x00, 0x01, 0x10, 0x00, 0x00, 0x00, 0x10, 0x00, 0x00, 0x00, 0x02, 0x00, 0x00, 0x00, 0x40, 0x00, 0x00, 0x00, 0x7c, 0xff, 0xff, 0xff, 0x30, 0x00, 0x00, 0x00, 0x73, 0x65, 0x71, 0x75, 0x65, 0x6e, 0x74, 0x69, 0x61, 0x6c, 0x5f, 0x31, 0x2f, 0x64, 0x65, 0x6e, 0x73, 0x65, 0x5f, 0x44, 0x65, 0x6e, 0x73, 0x65, 0x32, 0x2f, 0x42, 0x69, 0x61, 0x73, 0x41, 0x64, 0x64, 0x2f, 0x52, 0x65, 0x61, 0x64, 0x56, 0x61, 0x72, 0x69, 0x61, 0x62, 0x6c, 0x65, 0x4f, 0x70, 0x00, 0x00, 0x00, 0x00, 0x01, 0x00, 0x00, 0x00, 0x04, 0x00, 0x00, 0x00, 0x00, 0x00, 0x16, 0x00, 0x1c, 0x00, 0x18, 0x00, 0x00, 0x00, 0x14, 0x00, 0x10, 0x00, 0x0c, 0x00, 0x00, 0x00, 0x00, 0x00, 0x08, 0x00, 0x07, 0x00, 0x16, 0x00, 0x00, 0x00, 0x00, 0x00, 0x00, 0x01, 0x14, 0x00, 0x00, 0x00, 0x20, 0x00, 0x00, 0x00, 0x20, 0x00, 0x00, 0x00, 0x01, 0x00, 0x00, 0x00, 0x38, 0x00, 0x00, 0x00, 0x02, 0x00, 0x00, 0x00, 0xff, 0xff, 0xff, 0xff, 0x1e, 0x00, 0x00, 0x00, 0x04, 0x00, 0x04, 0x00, 0x04, 0x00, 0x00, 0x00, 0x18, 0x00, 0x00, 0x00, 0x73, 0x65, 0x72, 0x76, 0x69, 0x6e, 0x67, 0x5f, 0x64, 0x65, 0x66, 0x61, 0x75, 0x6c, 0x74, 0x5f, 0x69, 0x6e, 0x70, 0x75, 0x74, 0x31, 0x3a, 0x30, 0x00, 0x00, 0x00, 0x00, 0x02, 0x00, 0x00, 0x00, 0x01, 0x00, 0x00, 0x00, 0x1e, 0x00, 0x00, 0x00, 0x02, 0x00, 0x00, 0x00, 0x20, 0x00, 0x00, 0x00, 0x04, 0x00, 0x00, 0x00, 0xf4, 0xff, 0xff, 0xff, 0x19, 0x00, 0x00, 0x00, 0x00, 0x00, 0x00, 0x19, 0x0c, 0x00, 0x0c, 0x00, 0x0b, 0x00, 0x00, 0x00, 0x00, 0x00, 0x04, 0x00, 0x0c, 0x00, 0x00, 0x00, 0x09, 0x00, 0x00, 0x00, 0x00, 0x00, 0x00, 0x09};
const int model_data_len = 2484;