
#ifdef __has_attribute
#define HAVE_ATTRIBUTE(x) __has_attribute(x)
#else
#define HAVE_ATTRIBUTE(x) 0
#endif
#if HAVE_ATTRIBUTE(aligned) || (defined(__GNUC__) && !defined(__clang__))
#define DATA_ALIGN_ATTRIBUTE __attribute__((aligned(4)))
#else
#define DATA_ALIGN_ATTRIBUTE
#endif

const unsigned char model_data[] DATA_ALIGN_ATTRIBUTE = {0x1c, 0x00, 0x00, 0x00, 0x54, 0x46, 0x4c, 0x33, 0x14, 0x00, 0x20, 0x00, 0x1c, 0x00, 0x18, 0x00, 0x14, 0x00, 0x10, 0x00, 0x0c, 0x00, 0x00, 0x00, 0x08, 0x00, 0x04, 0x00, 0x14, 0x00, 0x00, 0x00, 0x1c, 0x00, 0x00, 0x00, 0x94, 0x00, 0x00, 0x00, 0xec, 0x00, 0x00, 0x00, 0x24, 0x05, 0x00, 0x00, 0x34, 0x05, 0x00, 0x00, 0xd0, 0x09, 0x00, 0x00, 0x03, 0x00, 0x00, 0x00, 0x01, 0x00, 0x00, 0x00, 0x10, 0x00, 0x00, 0x00, 0x00, 0x00, 0x0a, 0x00, 0x10, 0x00, 0x0c, 0x00, 0x08, 0x00, 0x04, 0x00, 0x0a, 0x00, 0x00, 0x00, 0x0c, 0x00, 0x00, 0x00, 0x1c, 0x00, 0x00, 0x00, 0x40, 0x00, 0x00, 0x00, 0x0f, 0x00, 0x00, 0x00, 0x73, 0x65, 0x72, 0x76, 0x69, 0x6e, 0x67, 0x5f, 0x64, 0x65, 0x66, 0x61, 0x75, 0x6c, 0x74, 0x00, 0x01, 0x00, 0x00, 0x00, 0x04, 0x00, 0x00, 0x00, 0x94, 0xff, 0xff, 0xff, 0x07, 0x00, 0x00, 0x00, 0x04, 0x00, 0x00, 0x00, 0x0c, 0x00, 0x00, 0x00, 0x64, 0x65, 0x6e, 0x73, 0x65, 0x5f, 0x44, 0x65, 0x6e, 0x73, 0x65, 0x32, 0x00, 0x00, 0x00, 0x00, 0x01, 0x00, 0x00, 0x00, 0x04, 0x00, 0x00, 0x00, 0xca, 0xfa, 0xff, 0xff, 0x04, 0x00, 0x00, 0x00, 0x06, 0x00, 0x00, 0x00, 0x69, 0x6e, 0x70, 0x75, 0x74, 0x31, 0x00, 0x00, 0x02, 0x00, 0x00, 0x00, 0x34, 0x00, 0x00, 0x00, 0x04, 0x00, 0x00, 0x00, 0xdc, 0xff, 0xff, 0xff, 0x0a, 0x00, 0x00, 0x00, 0x04, 0x00, 0x00, 0x00, 0x13, 0x00, 0x00, 0x00, 0x43, 0x4f, 0x4e, 0x56, 0x45, 0x52, 0x53, 0x49, 0x4f, 0x4e, 0x5f, 0x4d, 0x45, 0x54, 0x41, 0x44, 0x41, 0x54, 0x41, 0x00, 0x08, 0x00, 0x0c, 0x00, 0x08, 0x00, 0x04, 0x00, 0x08, 0x00, 0x00, 0x00, 0x09, 0x00, 0x00, 0x00, 0x04, 0x00, 0x00, 0x00, 0x13, 0x00, 0x00, 0x00, 0x6d, 0x69, 0x6e, 0x5f, 0x72, 0x75, 0x6e, 0x74, 0x69, 0x6d, 0x65, 0x5f, 0x76, 0x65, 0x72, 0x73, 0x69, 0x6f, 0x6e, 0x00, 0x0b, 0x00, 0x00, 0x00, 0x34, 0x04, 0x00, 0x00, 0x2c, 0x04, 0x00, 0x00, 0x10, 0x04, 0x00, 0x00, 0xc0, 0x03, 0x00, 0x00, 0x70, 0x01, 0x00, 0x00, 0xa0, 0x00, 0x00, 0x00, 0x98, 0x00, 0x00, 0x00, 0x90, 0x00, 0x00, 0x00, 0x88, 0x00, 0x00, 0x00, 0x68, 0x00, 0x00, 0x00, 0x04, 0x00, 0x00, 0x00, 0x6a, 0xfb, 0xff, 0xff, 0x04, 0x00, 0x00, 0x00, 0x54, 0x00, 0x00, 0x00, 0x0c, 0x00, 0x00, 0x00, 0x08, 0x00, 0x0e, 0x00, 0x08, 0x00, 0x04, 0x00, 0x08, 0x00, 0x00, 0x00, 0x10, 0x00, 0x00, 0x00, 0x24, 0x00, 0x00, 0x00, 0x00, 0x00, 0x06, 0x00, 0x08, 0x00, 0x04, 0x00, 0x06, 0x00, 0x00, 0x00, 0x04, 0x00, 0x00, 0x00, 0x00, 0x00, 0x00, 0x00, 0x00, 0x00, 0x0a, 0x00, 0x10, 0x00, 0x0c, 0x00, 0x08, 0x00, 0x04, 0x00, 0x0a, 0x00, 0x00, 0x00, 0x02, 0x00, 0x00, 0x00, 0x02, 0x00, 0x00, 0x00, 0x04, 0x00, 0x00, 0x00, 0x06, 0x00, 0x00, 0x00, 0x32, 0x2e, 0x31, 0x35, 0x2e, 0x30, 0x00, 0x00, 0xca, 0xfb, 0xff, 0xff, 0x04, 0x00, 0x00, 0x00, 0x10, 0x00, 0x00, 0x00, 0x31, 0x2e, 0x35, 0x2e, 0x30, 0x00, 0x00, 0x00, 0x00, 0x00, 0x00, 0x00, 0x00, 0x00, 0x00, 0x00, 0xf0, 0xf7, 0xff, 0xff, 0xf4, 0xf7, 0xff, 0xff, 0xf8, 0xf7, 0xff, 0xff, 0xf2, 0xfb, 0xff, 0xff, 0x04, 0x00, 0x00, 0x00, 0xc0, 0x00, 0x00, 0x00, 0x2c, 0xe6, 0x22, 0x40, 0x85, 0xb1, 0xa9, 0xbf, 0x57, 0x83, 0x44, 0x3f, 0xd1, 0x95, 0x36, 0x3f, 0x3a, 0x9c, 0xd6, 0xc0, 0xf2, 0x3d, 0xce, 0xbf, 0xd3, 0xfc, 0x56, 0x3f, 0xf6, 0x33, 0x1d, 0x3f, 0x51, 0x49, 0x93, 0x3f, 0x0b, 0x86, 0x8b, 0x3e, 0x5e, 0x1f, 0x4c, 0x40, 0xa3, 0xc7, 0xc4, 0xc0, 0x40, 0x9a, 0x94, 0xc0, 0x71, 0xf0, 0x6e, 0x3f, 0x7b, 0x2f, 0x9e, 0xbf, 0x1a, 0x8c, 0xba, 0x3f, 0x61, 0xaf, 0xfa, 0xc0, 0x64, 0xb9, 0x89, 0x3f, 0xaf, 0x58, 0x25, 0x40, 0xde, 0x85, 0x7e, 0xbf, 0x11, 0xc7, 0x95, 0xc0, 0x5a, 0xae, 0xfb, 0x3f, 0xa6, 0x0f, 0xdb, 0xbe, 0xa2, 0x3a, 0x99, 0x3e, 0x7f, 0x39, 0x22, 0xc0, 0xef, 0x2d, 0x8c, 0x3f, 0x34, 0x8b, 0x28, 0xc1, 0xa0, 0x69, 0x82, 0x40, 0xfd, 0x81, 0x49, 0x40, 0x49, 0xa6, 0xee, 0xbf, 0x24, 0x43, 0xfe, 0x3f, 0x83, 0x7d, 0x37, 0x3e, 0x7c, 0x4b, 0xa2, 0x3f, 0xc4, 0x77, 0x4a, 0x3f, 0x06, 0xe5, 0xd4, 0xc0, 0xdc, 0x87, 0x32, 0xbf, 0xe6, 0x20, 0x07, 0x41, 0x07, 0xfd, 0x1a, 0x3f, 0xf5, 0x90, 0x88, 0xbf, 0x3c, 0xb8, 0x52, 0xbc, 0xa1, 0x8d, 0x69, 0x3f, 0x49, 0x60, 0xb0, 0xbf, 0xfa, 0x66, 0x89, 0x3f, 0x90, 0xc6, 0xc6, 0x40, 0xe9, 0x47, 0x52, 0x40, 0xef, 0x0a, 0x94, 0x3e, 0x37, 0x47, 0x9c, 0xbe, 0x33, 0xc1, 0xf8, 0xbf, 0xbe, 0xfc, 0xff, 0xff, 0x04, 0x00, 0x00, 0x00, 0x40, 0x02, 0x00, 0x00, 0x9b, 0x0b, 0x64, 0x3f, 0x67, 0x85, 0xb6, 0x3f, 0xa1, 0xd4, 0x11, 0xbf, 0xd0, 0xb7, 0x05, 0x40, 0x01, 0x45, 0x44, 0x3f, 0xa5, 0x56, 0x0c, 0xc0, 0xc0, 0x90, 0x8d, 0x40, 0x00, 0xdb, 0xaf, 0xbf, 0xb2, 0x15, 0x9d, 0xc0, 0x29, 0x17, 0xb5, 0x3f, 0xa2, 0x70, 0x99, 0x3f, 0xdc, 0x80, 0x8a, 0x3f, 0x68, 0x1e, 0xad, 0x3f, 0x7c, 0x26, 0xb9, 0x3f, 0xa9, 0x9a, 0x99, 0x3e, 0xe8, 0x09, 0x3a, 0xbe, 0xf0, 0x59, 0x0b, 0xc0, 0x53, 0xb6, 0xe6, 0x3e, 0x89, 0x2f, 0x90, 0xbe, 0x51, 0xa2, 0x32, 0x3f, 0x5a, 0x9a, 0x3e, 0x3f, 0x18, 0xbb, 0xc3, 0xbd, 0xb0, 0xd9, 0x19, 0xbe, 0x41, 0xaa, 0xfc, 0x3f, 0xd8, 0x63, 0x21, 0xc0, 0x79, 0x84, 0x11, 0x3f, 0x6b, 0xe2, 0xa8, 0x40, 0x1b, 0x88, 0x20, 0x3f, 0xcb, 0xaf, 0x01, 0x3f, 0xec, 0xa6, 0xb0, 0x3e, 0xf8, 0x48, 0x0b, 0x3f, 0x2f, 0xec, 0x4f, 0x3f, 0x5b, 0xd4, 0xcc, 0x3f, 0x2e, 0xc8, 0x23, 0x40, 0x3a, 0xe4, 0x97, 0x40, 0xe5, 0x2c, 0xa0, 0x3f, 0x52, 0x8b, 0x37, 0xbf, 0x0d, 0xb3, 0x1f, 0x3f, 0x60, 0x15, 0x09, 0xbe, 0xee, 0x13, 0x9e, 0x3c, 0x5e, 0x41, 0x49, 0x3e, 0x8b, 0xd0, 0xfe, 0xbf, 0xa6, 0x16, 0xc7, 0x3f, 0x58, 0xe7, 0xa0, 0xbf, 0x38, 0xe1, 0xae, 0xc0, 0xc1, 0xec, 0xe1, 0x3f, 0xe3, 0x8b, 0xa2, 0x3f, 0x75, 0xe5, 0xb7, 0x3f, 0x1d, 0x21, 0x30, 0x3f, 0x60, 0x97, 0x0f, 0x3f, 0xc1, 0x23, 0x09, 0x3f, 0x90, 0xba, 0x7b, 0xbf, 0x26, 0x38, 0x17, 0xc0, 0x83, 0x8e, 0x9b, 0x3f, 0xaf, 0x6e, 0x43, 0x3f, 0x0c, 0x5e, 0x81, 0x3f, 0xf8, 0x26, 0x00, 0x3f, 0x42, 0x61, 0xcf, 0x3e, 0x88, 0x14, 0x85, 0x3f, 0x41, 0x51, 0xfc, 0x3f, 0xf4, 0x68, 0xc7, 0x3f, 0xa7, 0x1e, 0x7e, 0x40, 0xfe, 0x59, 0xf2, 0x3f, 0x84, 0x60, 0xfa, 0xbe, 0x23, 0x88, 0x8e, 0xbc, 0x7d, 0x99, 0x32, 0x3e, 0x6c, 0x71, 0x4e, 0xbe, 0x14, 0x70, 0x02, 0x3c, 0xd1, 0x8c, 0x21, 0xbe, 0xf4, 0xd0, 0xb7, 0xbe, 0xae, 0x03, 0x01, 0xbf, 0xf5, 0x53, 0xe0, 0x3d, 0x4e, 0xd8, 0x9d, 0x3e, 0x57, 0x42, 0x43, 0x3f, 0x8e, 0x80, 0xf5, 0xbc, 0x45, 0xed, 0x06, 0x40, 0xd8, 0x11, 0x81, 0x3f, 0xc8, 0x16, 0x84, 0x3e, 0xbc, 0x29, 0xd1, 0x40, 0x30, 0xf0, 0x63, 0x40, 0xb0, 0x84, 0x2b, 0xbf, 0x55, 0x85, 0x7e, 0x3f, 0xda, 0x93, 0xa6, 0x3f, 0x04, 0x6d, 0xa1, 0x3f, 0xcb, 0x41, 0x5c, 0xbe, 0x56, 0x7f, 0x83, 0x3f, 0xa5, 0x6a, 0x0f, 0x40, 0xd0, 0x71, 0x24, 0xc0, 0x23, 0xec, 0xcd, 0x3f, 0xbd, 0x37, 0xb5, 0x40, 0x10, 0x01, 0x81, 0xbf, 0x05, 0xeb, 0x76, 0xbf, 0xee, 0xe6, 0x67, 0x3e, 0xdd, 0x73, 0x0c, 0x3d, 0x58, 0xd2, 0xc2, 0xbe, 0x44, 0xf9, 0xfe, 0x3d, 0x60, 0x9f, 0x68, 0x40, 0xe0, 0xaa, 0x19, 0x40, 0x94, 0x4c, 0x4f, 0xbf, 0x46, 0x36, 0xa0, 0x3f, 0xa7, 0x20, 0xe3, 0xbe, 0x44, 0x70, 0x1e, 0x40, 0x2c, 0xb4, 0xf8, 0x3f, 0x6f, 0xdf, 0x06, 0xbe, 0x46, 0xf7, 0x50, 0x3f, 0x1b, 0x18, 0xae, 0x3f, 0x24, 0x5a, 0x46, 0xc0, 0x33, 0x3d, 0x03, 0xc0, 0xea, 0x66, 0xae, 0x3f, 0xd1, 0x2a, 0x9d, 0x3f, 0x6e, 0xe6, 0x2b, 0x3f, 0xab, 0xea, 0x3e, 0x3f, 0x96, 0xdd, 0xbb, 0x3f, 0x40, 0xae, 0xb3, 0xbe, 0x72, 0x67, 0xf2, 0x3e, 0x8a, 0xd7, 0x2a, 0xc0, 0xe9, 0xf3, 0x1d, 0xbf, 0x3e, 0xf5, 0xb2, 0x3d, 0x17, 0x56, 0x0e, 0x3f, 0x54, 0x40, 0x6b, 0x3f, 0xcb, 0xb9, 0xb1, 0x3f, 0x0b, 0x6b, 0xbb, 0x3f, 0xc5, 0x1f, 0x0d, 0x3f, 0x91, 0x6e, 0x9a, 0x40, 0x1b, 0xcf, 0x72, 0x40, 0x69, 0x6b, 0xd1, 0xbd, 0x43, 0x6f, 0xd1, 0x3f, 0xce, 0xa9, 0x84, 0x3f, 0xa9, 0xf6, 0xbb, 0x3f, 0x68, 0xb2, 0x63, 0x3f, 0x36, 0x18, 0xc4, 0x3e, 0xa4, 0x47, 0x0a, 0x3f, 0xd6, 0xa1, 0x12, 0xc0, 0x88, 0xaa, 0xda, 0xbf, 0x99, 0xf6, 0xb4, 0x3f, 0xb2, 0xc5, 0xaf, 0x3e, 0x65, 0xae, 0x8a, 0xbe, 0x28, 0x45, 0x93, 0xbe, 0x58, 0x7b, 0xd0, 0xbe, 0x43, 0xa7, 0x00, 0xbf, 0xfb, 0x7e, 0x9f, 0xbe, 0xc0, 0x60, 0x57, 0xbd, 0x11, 0x6b, 0xca, 0x3e, 0x9f, 0xae, 0xca, 0xbe, 0x0a, 0xff, 0xff, 0xff, 0x04, 0x00, 0x00, 0x00, 0x40, 0x00, 0x00, 0x00, 0x27, 0xe5, 0x80, 0x3f, 0x8e, 0x9d, 0x07, 0x40, 0xe4, 0x94, 0x27, 0x3f, 0x19, 0xfe, 0xbc, 0xbe, 0x8e, 0x78, 0xbd, 0x3f, 0x2a, 0x0b, 0x18, 0x40, 0x20, 0xad, 0xa3, 0xbd, 0x62, 0xbe, 0x11, 0xbe, 0x64, 0xf5, 0x04, 0xbf, 0x2e, 0xab, 0x36, 0x3f, 0x02, 0x15, 0x33, 0xbf, 0xd5, 0x84, 0x99, 0x3f, 0xd1, 0x96, 0x2c, 0x3f, 0x29, 0x18, 0x1e, 0xbf, 0x21, 0xba, 0x2b, 0x40, 0x55, 0xfa, 0x8e, 0xbe, 0x56, 0xff, 0xff, 0xff, 0x04, 0x00, 0x00, 0x00, 0x0c, 0x00, 0x00, 0x00, 0x90, 0x4b, 0x82, 0xbf, 0x2f, 0x57, 0xd2, 0x3f, 0x7c, 0x5d, 0xdb, 0x3e, 0x78, 0xfb, 0xff, 0xff, 0x7c, 0xfb, 0xff, 0xff, 0x0f, 0x00, 0x00, 0x00, 0x4d, 0x4c, 0x49, 0x52, 0x20, 0x43, 0x6f, 0x6e, 0x76, 0x65, 0x72, 0x74, 0x65, 0x64, 0x2e, 0x00, 0x01, 0x00, 0x00, 0x00, 0x14, 0x00, 0x00, 0x00, 0x00, 0x00, 0x0e, 0x00, 0x18, 0x00, 0x14, 0x00, 0x10, 0x00, 0x0c, 0x00, 0x08, 0x00, 0x04, 0x00, 0x0e, 0x00, 0x00, 0x00, 0x14, 0x00, 0x00, 0x00, 0x1c, 0x00, 0x00, 0x00, 0xec, 0x00, 0x00, 0x00, 0xf0, 0x00, 0x00, 0x00, 0xf4, 0x00, 0x00, 0x00, 0x04, 0x00, 0x00, 0x00, 0x6d, 0x61, 0x69, 0x6e, 0x00, 0x00, 0x00, 0x00, 0x03, 0x00, 0x00, 0x00, 0x94, 0x00, 0x00, 0x00, 0x50, 0x00, 0x00, 0x00, 0x14, 0x00, 0x00, 0x00, 0x00, 0x00, 0x0e, 0x00, 0x1a, 0x00, 0x14, 0x00, 0x10, 0x00, 0x0c, 0x00, 0x0b, 0x00, 0x04, 0x00, 0x0e, 0x00, 0x00, 0x00, 0x1c, 0x00, 0x00, 0x00, 0x00, 0x00, 0x00, 0x09, 0x1c, 0x00, 0x00, 0x00, 0x20, 0x00, 0x00, 0x00, 0x01, 0x00, 0x00, 0x00, 0x00, 0x00, 0x06, 0x00, 0x08, 0x00, 0x04, 0x00, 0x06, 0x00, 0x00, 0x00, 0x00, 0x00, 0x80, 0x3f, 0x01, 0x00, 0x00, 0x00, 0x07, 0x00, 0x00, 0x00, 0x01, 0x00, 0x00, 0x00, 0x06, 0x00, 0x00, 0x00, 0xce, 0xff, 0xff, 0xff, 0x10, 0x00, 0x00, 0x00, 0x00, 0x00, 0x00, 0x08, 0x0c, 0x00, 0x00, 0x00, 0x10, 0x00, 0x00, 0x00, 0x3c, 0xfc, 0xff, 0xff, 0x01, 0x00, 0x00, 0x00, 0x06, 0x00, 0x00, 0x00, 0x03, 0x00, 0x00, 0x00, 0x05, 0x00, 0x00, 0x00, 0x04, 0x00, 0x00, 0x00, 0x01, 0x00, 0x00, 0x00, 0x00, 0x00, 0x0e, 0x00, 0x16, 0x00, 0x00, 0x00, 0x10, 0x00, 0x0c, 0x00, 0x0b, 0x00, 0x04, 0x00, 0x0e, 0x00, 0x00, 0x00, 0x18, 0x00, 0x00, 0x00, 0x00, 0x00, 0x00, 0x08, 0x18, 0x00, 0x00, 0x00, 0x1c, 0x00, 0x00, 0x00, 0x00, 0x00, 0x06, 0x00, 0x08, 0x00, 0x07, 0x00, 0x06, 0x00, 0x00, 0x00, 0x00, 0x00, 0x00, 0x01, 0x01, 0x00, 0x00, 0x00, 0x05, 0x00, 0x00, 0x00, 0x03, 0x00, 0x00, 0x00, 0x00, 0x00, 0x00, 0x00, 0x03, 0x00, 0x00, 0x00, 0x02, 0x00, 0x00, 0x00, 0x01, 0x00, 0x00, 0x00, 0x07, 0x00, 0x00, 0x00, 0x01, 0x00, 0x00, 0x00, 0x00, 0x00, 0x00, 0x00, 0x08, 0x00, 0x00, 0x00, 0x20, 0x03, 0x00, 0x00, 0xa8, 0x02, 0x00, 0x00, 0x30, 0x02, 0x00, 0x00, 0xdc, 0x01, 0x00, 0x00, 0x88, 0x01, 0x00, 0x00, 0xe4, 0x00, 0x00, 0x00, 0x60, 0x00, 0x00, 0x00, 0x04, 0x00, 0x00, 0x00, 0x16, 0xfd, 0xff, 0xff, 0x00, 0x00, 0x00, 0x01, 0x14, 0x00, 0x00, 0x00, 0x1c, 0x00, 0x00, 0x00, 0x1c, 0x00, 0x00, 0x00, 0x08, 0x00, 0x00, 0x00, 0x34, 0x00, 0x00, 0x00, 0x02, 0x00, 0x00, 0x00, 0xff, 0xff, 0xff, 0xff, 0x03, 0x00, 0x00, 0x00, 0x00, 0xfd, 0xff, 0xff, 0x19, 0x00, 0x00, 0x00, 0x53, 0x74, 0x61, 0x74, 0x65, 0x66, 0x75, 0x6c, 0x50, 0x61, 0x72, 0x74, 0x69, 0x74, 0x69, 0x6f, 0x6e, 0x65, 0x64, 0x43, 0x61, 0x6c, 0x6c, 0x3a, 0x30, 0x00, 0x00, 0x00, 0x02, 0x00, 0x00, 0x00, 0x01, 0x00, 0x00, 0x00, 0x03, 0x00, 0x00, 0x00, 0x6e, 0xfd, 0xff, 0xff, 0x00, 0x00, 0x00, 0x01, 0x14, 0x00, 0x00, 0x00, 0x1c, 0x00, 0x00, 0x00, 0x1c, 0x00, 0x00, 0x00, 0x07, 0x00, 0x00, 0x00, 0x5c, 0x00, 0x00, 0x00, 0x02, 0x00, 0x00, 0x00, 0xff, 0xff, 0xff, 0xff, 0x03, 0x00, 0x00, 0x00, 0x58, 0xfd, 0xff, 0xff, 0x42, 0x00, 0x00, 0x00, 0x73, 0x65, 0x71, 0x75, 0x65, 0x6e, 0x74, 0x69, 0x61, 0x6c, 0x5f, 0x31, 0x2f, 0x64, 0x65, 0x6e, 0x73, 0x65, 0x5f, 0x44, 0x65, 0x6e, 0x73, 0x65, 0x32, 0x2f, 0x4d, 0x61, 0x74, 0x4d, 0x75, 0x6c, 0x3b, 0x73, 0x65, 0x71, 0x75, 0x65, 0x6e, 0x74, 0x69, 0x61, 0x6c, 0x5f, 0x31, 0x2f, 0x64, 0x65, 0x6e, 0x73, 0x65, 0x5f, 0x44, 0x65, 0x6e, 0x73, 0x65, 0x32, 0x2f, 0x42, 0x69, 0x61, 0x73, 0x41, 0x64, 0x64, 0x00, 0x00, 0x02, 0x00, 0x00, 0x00, 0x01, 0x00, 0x00, 0x00, 0x03, 0x00, 0x00, 0x00, 0xee, 0xfd, 0xff, 0xff, 0x00, 0x00, 0x00, 0x01, 0x14, 0x00, 0x00, 0x00, 0x1c, 0x00, 0x00, 0x00, 0x1c, 0x00, 0x00, 0x00, 0x06, 0x00, 0x00, 0x00, 0x7c, 0x00, 0x00, 0x00, 0x02, 0x00, 0x00, 0x00, 0xff, 0xff, 0xff, 0xff, 0x10, 0x00, 0x00, 0x00, 0xd8, 0xfd, 0xff, 0xff, 0x61, 0x00, 0x00, 0x00, 0x73, 0x65, 0x71, 0x75, 0x65, 0x6e, 0x74, 0x69, 0x61, 0x6c, 0x5f, 0x31, 0x2f, 0x64, 0x65, 0x6e, 0x73, 0x65, 0x5f, 0x44, 0x65, 0x6e, 0x73, 0x65, 0x31, 0x2f, 0x4d, 0x61, 0x74, 0x4d, 0x75, 0x6c, 0x3b, 0x73, 0x65, 0x71, 0x75, 0x65, 0x6e, 0x74, 0x69, 0x61, 0x6c, 0x5f, 0x31, 0x2f, 0x64, 0x65, 0x6e, 0x73, 0x65, 0x5f, 0x44, 0x65, 0x6e, 0x73, 0x65, 0x31, 0x2f, 0x52, 0x65, 0x6c, 0x75, 0x3b, 0x73, 0x65, 0x71, 0x75, 0x65, 0x6e, 0x74, 0x69, 0x61, 0x6c, 0x5f, 0x31, 0x2f, 0x64, 0x65, 0x6e, 0x73, 0x65, 0x5f, 0x44, 0x65, 0x6e, 0x73, 0x65, 0x31, 0x2f, 0x42, 0x69, 0x61, 0x73, 0x41, 0x64, 0x64, 0x00, 0x00, 0x00, 0x02, 0x00, 0x00, 0x00, 0x01, 0x00, 0x00, 0x00, 0x10, 0x00, 0x00, 0x00, 0x02, 0xff, 0xff, 0xff, 0x00, 0x00, 0x00, 0x01, 0x10, 0x00, 0x00, 0x00, 0x10, 0x00, 0x00, 0x00, 0x05, 0x00, 0x00, 0x00, 0x30, 0x00, 0x00, 0x00, 0x68, 0xfe, 0xff, 0xff, 0x20, 0x00, 0x00, 0x00, 0x73, 0x65, 0x71, 0x75, 0x65, 0x6e, 0x74, 0x69, 0x61, 0x6c, 0x5f, 0x31, 0x2f, 0x64, 0x65, 0x6e, 0x73, 0x65, 0x5f, 0x44, 0x65, 0x6e, 0x73, 0x65, 0x32, 0x2f, 0x4d, 0x61, 0x74, 0x4d, 0x75, 0x6c, 0x00, 0x00, 0x00, 0x00, 0x02, 0x00, 0x00, 0x00, 0x03, 0x00, 0x00, 0x00, 0x10, 0x00, 0x00, 0x00, 0x52, 0xff, 0xff, 0xff, 0x00, 0x00, 0x00, 0x01, 0x10, 0x00, 0x00, 0x00, 0x10, 0x00, 0x00, 0x00, 0x04, 0x00, 0x00, 0x00, 0x30, 0x00, 0x00, 0x00, 0xb8, 0xfe, 0xff, 0xff, 0x20, 0x00, 0x00, 0x00, 0x73, 0x65, 0x71, 0x75, 0x65, 0x6e, 0x74, 0x69, 0x61, 0x6c, 0x5f, 0x31, 0x2f, 0x64, 0x65, 0x6e, 0x73, 0x65, 0x5f, 0x44, 0x65, 0x6e, 0x73, 0x65, 0x31, 0x2f, 0x4d, 0x61, 0x74, 0x4d, 0x75, 0x6c, 0x00, 0x00, 0x00, 0x00, 0x02, 0x00, 0x00, 0x00, 0x10, 0x00, 0x00, 0x00, 0x09, 0x00, 0x00, 0x00, 0xa2, 0xff, 0xff, 0xff, 0x00, 0x00, 0x00, 0x01, 0x10, 0x00, 0x00, 0x00, 0x10, 0x00, 0x00, 0x00, 0x03, 0x00, 0x00, 0x00, 0x40, 0x00, 0x00, 0x00, 0x08, 0xff, 0xff, 0xff, 0x30, 0x00, 0x00, 0x00, 0x73, 0x65, 0x71, 0x75, 0x65, 0x6e, 0x74, 0x69, 0x61, 0x6c, 0x5f, 0x31, 0x2f, 0x64, 0x65, 0x6e, 0x73, 0x65, 0x5f, 0x44, 0x65, 0x6e, 0x73, 0x65, 0x31, 0x2f, 0x42, 0x69, 0x61, 0x73, 0x41, 0x64, 0x64, 0x2f, 0x52, 0x65, 0x61, 0x64, 0x56, 0x61, 0x72, 0x69, 0x61, 0x62, 0x6c, 0x65, 0x4f, 0x70, 0x00, 0x00, 0x00, 0x00, 0x01, 0x00, 0x00, 0x00, 0x10, 0x00, 0x00, 0x00, 0x00, 0x00, 0x16, 0x00, 0x18, 0x00, 0x14, 0x00, 0x00, 0x00, 0x10, 0x00, 0x0c, 0x00, 0x08, 0x00, 0x00, 0x00, 0x00, 0x00, 0x00, 0x00, 0x07, 0x00, 0x16, 0x00, 0x00, 0x00, 0x00, 0x00, 0x00, 0x01, 0x10, 0x00, 0x00, 0x00, 0x10, 0x00, 0x00, 0x00, 0x02, 0x00, 0x00, 0x00, 0x40, 0x00, 0x00, 0x00, 0x7c, 0xff, 0xff, 0xff, 0x30, 0x00, 0x00, 0x00, 0x73, 0x65, 0x71, 0x75, 0x65, 0x6e, 0x74, 0x69, 0x61, 0x6c, 0x5f, 0x31, 0x2f, 0x64, 0x65, 0x6e, 0x73, 0x65, 0x5f, 0x44, 0x65, 0x6e, 0x73, 0x65, 0x32, 0x2f, 0x42, 0x69, 0x61, 0x73, 0x41, 0x64, 0x64, 0x2f, 0x52, 0x65, 0x61, 0x64, 0x56, 0x61, 0x72, 0x69, 0x61, 0x62, 0x6c, 0x65, 0x4f, 0x70, 0x00, 0x00, 0x00, 0x00, 0x01, 0x00, 0x00, 0x00, 0x03, 0x00, 0x00, 0x00, 0x00, 0x00, 0x16, 0x00, 0x1c, 0x00, 0x18, 0x00, 0x00, 0x00, 0x14, 0x00, 0x10, 0x00, 0x0c, 0x00, 0x00, 0x00, 0x00, 0x00, 0x08, 0x00, 0x07, 0x00, 0x16, 0x00, 0x00, 0x00, 0x00, 0x00, 0x00, 0x01, 0x14, 0x00, 0x00, 0x00, 0x20, 0x00, 0x00, 0x00, 0x20, 0x00, 0x00, 0x00, 0x01, 0x00, 0x00, 0x00, 0x38, 0x00, 0x00, 0x00, 0x02, 0x00, 0x00, 0x00, 0xff, 0xff, 0xff, 0xff, 0x09, 0x00, 0x00, 0x00, 0x04, 0x00, 0x04, 0x00, 0x04, 0x00, 0x00, 0x00, 0x18, 0x00, 0x00, 0x00, 0x73, 0x65, 0x72, 0x76, 0x69, 0x6e, 0x67, 0x5f, 0x64, 0x65, 0x66, 0x61, 0x75, 0x6c, 0x74, 0x5f, 0x69, 0x6e, 0x70, 0x75, 0x74, 0x31, 0x3a, 0x30, 0x00, 0x00, 0x00, 0x00, 0x02, 0x00, 0x00, 0x00, 0x01, 0x00, 0x00, 0x00, 0x09, 0x00, 0x00, 0x00, 0x02, 0x00, 0x00, 0x00, 0x20, 0x00, 0x00, 0x00, 0x04, 0x00, 0x00, 0x00, 0xf4, 0xff, 0xff, 0xff, 0x19, 0x00, 0x00, 0x00, 0x00, 0x00, 0x00, 0x19, 0x0c, 0x00, 0x0c, 0x00, 0x0b, 0x00, 0x00, 0x00, 0x00, 0x00, 0x04, 0x00, 0x0c, 0x00, 0x00, 0x00, 0x09, 0x00, 0x00, 0x00, 0x00, 0x00, 0x00, 0x09};
const int model_data_len = 2612;