
#ifdef __has_attribute
#define HAVE_ATTRIBUTE(x) __has_attribute(x)
#else
#define HAVE_ATTRIBUTE(x) 0
#endif
#if HAVE_ATTRIBUTE(aligned) || (defined(__GNUC__) && !defined(__clang__))
#define DATA_ALIGN_ATTRIBUTE __attribute__((aligned(4)))
#else
#define DATA_ALIGN_ATTRIBUTE
#endif

const unsigned char model_data[] DATA_ALIGN_ATTRIBUTE = {0x1c, 0x00, 0x00, 0x00, 0x54, 0x46, 0x4c, 0x33, 0x14, 0x00, 0x20, 0x00, 0x1c, 0x00, 0x18, 0x00, 0x14, 0x00, 0x10, 0x00, 0x0c, 0x00, 0x00, 0x00, 0x08, 0x00, 0x04, 0x00, 0x14, 0x00, 0x00, 0x00, 0x1c, 0x00, 0x00, 0x00, 0x94, 0x00, 0x00, 0x00, 0xec, 0x00, 0x00, 0x00, 0xe4, 0x12, 0x00, 0x00, 0xf4, 0x12, 0x00, 0x00, 0x90, 0x17, 0x00, 0x00, 0x03, 0x00, 0x00, 0x00, 0x01, 0x00, 0x00, 0x00, 0x10, 0x00, 0x00, 0x00, 0x00, 0x00, 0x0a, 0x00, 0x10, 0x00, 0x0c, 0x00, 0x08, 0x00, 0x04, 0x00, 0x0a, 0x00, 0x00, 0x00, 0x0c, 0x00, 0x00, 0x00, 0x1c, 0x00, 0x00, 0x00, 0x40, 0x00, 0x00, 0x00, 0x0f, 0x00, 0x00, 0x00, 0x73, 0x65, 0x72, 0x76, 0x69, 0x6e, 0x67, 0x5f, 0x64, 0x65, 0x66, 0x61, 0x75, 0x6c, 0x74, 0x00, 0x01, 0x00, 0x00, 0x00, 0x04, 0x00, 0x00, 0x00, 0x94, 0xff, 0xff, 0xff, 0x07, 0x00, 0x00, 0x00, 0x04, 0x00, 0x00, 0x00, 0x0c, 0x00, 0x00, 0x00, 0x64, 0x65, 0x6e, 0x73, 0x65, 0x5f, 0x44, 0x65, 0x6e, 0x73, 0x65, 0x32, 0x00, 0x00, 0x00, 0x00, 0x01, 0x00, 0x00, 0x00, 0x04, 0x00, 0x00, 0x00, 0x0a, 0xed, 0xff, 0xff, 0x04, 0x00, 0x00, 0x00, 0x06, 0x00, 0x00, 0x00, 0x69, 0x6e, 0x70, 0x75, 0x74, 0x31, 0x00, 0x00, 0x02, 0x00, 0x00, 0x00, 0x34, 0x00, 0x00, 0x00, 0x04, 0x00, 0x00, 0x00, 0xdc, 0xff, 0xff, 0xff, 0x0a, 0x00, 0x00, 0x00, 0x04, 0x00, 0x00, 0x00, 0x13, 0x00, 0x00, 0x00, 0x43, 0x4f, 0x4e, 0x56, 0x45, 0x52, 0x53, 0x49, 0x4f, 0x4e, 0x5f, 0x4d, 0x45, 0x54, 0x41, 0x44, 0x41, 0x54, 0x41, 0x00, 0x08, 0x00, 0x0c, 0x00, 0x08, 0x00, 0x04, 0x00, 0x08, 0x00, 0x00, 0x00, 0x09, 0x00, 0x00, 0x00, 0x04, 0x00, 0x00, 0x00, 0x13, 0x00, 0x00, 0x00, 0x6d, 0x69, 0x6e, 0x5f, 0x72, 0x75, 0x6e, 0x74, 0x69, 0x6d, 0x65, 0x5f, 0x76, 0x65, 0x72, 0x73, 0x69, 0x6f, 0x6e, 0x00, 0x0b, 0x00, 0x00, 0x00, 0xf4, 0x11, 0x00, 0x00, 0xec, 0x11, 0x00, 0x00, 0xd0, 0x11, 0x00, 0x00, 0x40, 0x11, 0x00, 0x00, 0x30, 0x02, 0x00, 0x00, 0xa0, 0x00, 0x00, 0x00, 0x98, 0x00, 0x00, 0x00, 0x90, 0x00, 0x00, 0x00, 0x88, 0x00, 0x00, 0x00, 0x68, 0x00, 0x00, 0x00, 0x04, 0x00, 0x00, 0x00, 0xaa, 0xed, 0xff, 0xff, 0x04, 0x00, 0x00, 0x00, 0x54, 0x00, 0x00, 0x00, 0x0c, 0x00, 0x00, 0x00, 0x08, 0x00, 0x0e, 0x00, 0x08, 0x00, 0x04, 0x00, 0x08, 0x00, 0x00, 0x00, 0x10, 0x00, 0x00, 0x00, 0x24, 0x00, 0x00, 0x00, 0x00, 0x00, 0x06, 0x00, 0x08, 0x00, 0x04, 0x00, 0x06, 0x00, 0x00, 0x00, 0x04, 0x00, 0x00, 0x00, 0x00, 0x00, 0x00, 0x00, 0x00, 0x00, 0x0a, 0x00, 0x10, 0x00, 0x0c, 0x00, 0x08, 0x00, 0x04, 0x00, 0x0a, 0x00, 0x00, 0x00, 0x02, 0x00, 0x00, 0x00, 0x02, 0x00, 0x00, 0x00, 0x04, 0x00, 0x00, 0x00, 0x06, 0x00, 0x00, 0x00, 0x32, 0x2e, 0x31, 0x34, 0x2e, 0x30, 0x00, 0x00, 0x0a, 0xee, 0xff, 0xff, 0x04, 0x00, 0x00, 0x00, 0x10, 0x00, 0x00, 0x00, 0x31, 0x2e, 0x35, 0x2e, 0x30, 0x00, 0x00, 0x00, 0x00, 0x00, 0x00, 0x00, 0x00, 0x00, 0x00, 0x00, 0x30, 0xea, 0xff, 0xff, 0x34, 0xea, 0xff, 0xff, 0x38, 0xea, 0xff, 0xff, 0x32, 0xee, 0xff, 0xff, 0x04, 0x00, 0x00, 0x00, 0x80, 0x01, 0x00, 0x00, 0xf9, 0xe4, 0x46, 0xc0, 0x80, 0x49, 0xa1, 0x3e, 0x57, 0x30, 0x7c, 0x3e, 0x7a, 0xf5, 0xfb, 0xc0, 0xe6, 0x6b, 0x85, 0x3f, 0x97, 0x53, 0x8c, 0xbe, 0xb6, 0xad, 0x22, 0x3d, 0x28, 0x99, 0x6f, 0xc0, 0x87, 0x64, 0xa5, 0x40, 0x9f, 0xfb, 0x22, 0x40, 0xa8, 0xac, 0x8c, 0xbe, 0x01, 0x1f, 0xa4, 0x3f, 0x3c, 0x1c, 0x77, 0x40, 0x6f, 0x63, 0x05, 0xc1, 0x44, 0xe7, 0xec, 0xc0, 0x25, 0x9d, 0x89, 0xc0, 0xf5, 0x56, 0x46, 0xbe, 0x0f, 0xbc, 0x05, 0x40, 0xde, 0x3b, 0x9c, 0x40, 0x72, 0x18, 0x4e, 0x40, 0x6b, 0x6f, 0x9a, 0x3e, 0x52, 0x34, 0x33, 0xc1, 0x00, 0xb6, 0x1a, 0xc1, 0x81, 0xa6, 0x8b, 0xbd, 0x60, 0xa3, 0x05, 0xc0, 0xce, 0xeb, 0x28, 0x40, 0x29, 0x5e, 0x7b, 0xbe, 0x11, 0x74, 0xe3, 0xc0, 0x98, 0xee, 0x06, 0x3f, 0xd7, 0xeb, 0xf1, 0x3e, 0x3a, 0x39, 0x1a, 0xc0, 0xab, 0xaf, 0xe7, 0xbe, 0x31, 0x40, 0x9e, 0xbf, 0xde, 0x6f, 0xec, 0xbd, 0x06, 0x6e, 0x3b, 0xbd, 0x5a, 0xe0, 0x57, 0xc1, 0x6b, 0xe7, 0x01, 0x3f, 0x96, 0x37, 0x9e, 0x3d, 0x80, 0xa0, 0xd4, 0x3e, 0x41, 0xba, 0x9b, 0x40, 0x63, 0xe5, 0xb6, 0xc0, 0x62, 0x19, 0x7c, 0xc0, 0xdd, 0xd5, 0xe8, 0x3d, 0xba, 0xbe, 0xa4, 0xc0, 0x05, 0xd7, 0x1e, 0xc0, 0x4d, 0x21, 0x06, 0x3e, 0xce, 0x21, 0xef, 0xc0, 0x23, 0x38, 0xad, 0x40, 0xab, 0x92, 0xe7, 0x3e, 0x64, 0x4a, 0x6b, 0xc0, 0x99, 0xe3, 0xef, 0xc0, 0x4b, 0x64, 0x73, 0xc0, 0x0f, 0x6b, 0x2e, 0x3e, 0x8f, 0xee, 0x3a, 0xc0, 0xe7, 0xc1, 0x8a, 0xc1, 0x85, 0x12, 0xe3, 0x3e, 0xdf, 0xd1, 0xf8, 0xc0, 0xb9, 0xe9, 0x2f, 0xc0, 0x96, 0x4e, 0xfe, 0x3e, 0xca, 0x36, 0x0d, 0x40, 0xbe, 0xe9, 0xcf, 0xbd, 0xdc, 0xb3, 0x05, 0xbf, 0x8e, 0xdf, 0xd6, 0xc0, 0x88, 0x36, 0x63, 0xbd, 0x73, 0x48, 0x68, 0x40, 0x80, 0xcb, 0xe7, 0xbe, 0xe7, 0x22, 0xec, 0x3e, 0x8b, 0xa2, 0x2e, 0x41, 0x3e, 0x7f, 0x45, 0xbf, 0x38, 0xc7, 0xb7, 0x3c, 0xe8, 0x45, 0x43, 0x3e, 0x0c, 0x37, 0xaa, 0xbe, 0xbe, 0xbf, 0xf3, 0xbf, 0x36, 0xd3, 0x94, 0xbf, 0x08, 0x9f, 0x89, 0x3e, 0x4b, 0x53, 0x39, 0xbf, 0x92, 0x71, 0x40, 0xc0, 0x81, 0xf2, 0x01, 0x41, 0xc6, 0xfa, 0xee, 0x40, 0x25, 0x8d, 0xcb, 0xbf, 0x1c, 0xb8, 0xaf, 0x3e, 0x05, 0x3a, 0x2d, 0x3f, 0x20, 0x3c, 0x33, 0xc0, 0xb7, 0x9e, 0x24, 0xc0, 0xe5, 0x27, 0xc1, 0x3d, 0x97, 0x00, 0x3b, 0x41, 0x14, 0x92, 0x6a, 0x41, 0x71, 0xf6, 0x4f, 0xbe, 0xd2, 0x21, 0x2c, 0x40, 0x0e, 0x3b, 0xaf, 0x3c, 0xcd, 0xbe, 0x35, 0xbe, 0x50, 0x10, 0x72, 0x40, 0xe1, 0x35, 0xeb, 0xbe, 0x65, 0xc5, 0xdb, 0x3e, 0x11, 0x37, 0x69, 0x40, 0x9f, 0x9c, 0xb9, 0xbe, 0xbe, 0xef, 0xff, 0xff, 0x04, 0x00, 0x00, 0x00, 0x00, 0x0f, 0x00, 0x00, 0x8f, 0x96, 0x2b, 0xbf, 0x9c, 0xe8, 0x4f, 0x3f, 0x9b, 0xdb, 0x72, 0xbf, 0xed, 0x0c, 0x6b, 0xbe, 0x07, 0x79, 0x8e, 0x3d, 0x42, 0x99, 0xb5, 0xbf, 0xc5, 0xce, 0x1e, 0x3d, 0xca, 0x56, 0x0d, 0xbe, 0x31, 0x32, 0xff, 0xbe, 0x2d, 0x40, 0x0f, 0x3e, 0x2b, 0x62, 0xf0, 0xbe, 0x9a, 0x94, 0x4b, 0xbf, 0x01, 0x1f, 0xec, 0xbe, 0xa8, 0x45, 0xda, 0xbd, 0x13, 0x43, 0x87, 0xbf, 0x7c, 0x4b, 0x2e, 0xbf, 0x6a, 0xaf, 0x1b, 0x3f, 0x27, 0xd6, 0xf7, 0xbf, 0x14, 0xe9, 0x52, 0xbf, 0x21, 0x68, 0x40, 0x3f, 0x9f, 0xf9, 0xb1, 0xbf, 0xbe, 0x9b, 0x16, 0xbf, 0x55, 0xe6, 0x23, 0x3f, 0x3f, 0x54, 0x3e, 0xbf, 0x87, 0x5a, 0xf1, 0xbe, 0x62, 0x3d, 0xc3, 0xbe, 0x43, 0x80, 0x94, 0xbe, 0xcf, 0xc1, 0xd8, 0xbe, 0x76, 0x3a, 0x5b, 0xbf, 0xc8, 0xd0, 0x41, 0xbf, 0xd8, 0xca, 0x0f, 0x3e, 0x5f, 0x00, 0x49, 0xbe, 0x05, 0x2b, 0xa7, 0xbe, 0x6e, 0xa8, 0x63, 0xbe, 0xdd, 0x4d, 0x84, 0xbe, 0x1a, 0x42, 0xec, 0xbd, 0x93, 0xb3, 0x88, 0x3e, 0xd7, 0x86, 0xb4, 0xbe, 0x03, 0x29, 0xa1, 0xbd, 0x52, 0xcc, 0x08, 0x3e, 0x47, 0x9d, 0xa7, 0x3c, 0x1c, 0xeb, 0x86, 0xbe, 0xcb, 0xfc, 0x77, 0x3e, 0xb5, 0x8c, 0x98, 0xbe, 0x3a, 0x40, 0x2d, 0xbe, 0x8f, 0xcb, 0x35, 0x3e, 0x07, 0x89, 0xbe, 0xbe, 0xa2, 0x37, 0xbf, 0xbe, 0xce, 0x8f, 0xb3, 0xbe, 0x86, 0x8d, 0xb7, 0xbe, 0x53, 0x29, 0xd0, 0x3d, 0x55, 0x59, 0x78, 0x3e, 0xa1, 0xd4, 0xda, 0xbe, 0xfd, 0x9f, 0x35, 0x3e, 0xaa, 0xa6, 0x95, 0xbe, 0x5f, 0xbd, 0x38, 0xbe, 0x8c, 0xa1, 0x94, 0xbe, 0x31, 0xd5, 0x08, 0x3e, 0x88, 0xac, 0xc4, 0xbe, 0xcf, 0x7e, 0x5c, 0x3e, 0x5c, 0x39, 0x7f, 0xbe, 0xe0, 0x71, 0x88, 0x3d, 0x1d, 0x75, 0xa2, 0x3d, 0xd8, 0x49, 0xb7, 0xbe, 0xd3, 0x2a, 0x56, 0x3e, 0xc0, 0xd5, 0x60, 0xbe, 0x95, 0x2b, 0x9f, 0xbd, 0x4f, 0x80, 0x46, 0xbe, 0x52, 0x3f, 0xe9, 0x3d, 0x5c, 0x1f, 0x93, 0xbd, 0xc7, 0x9b, 0x9b, 0xbe, 0x82, 0x8c, 0x53, 0x3e, 0x20, 0xdc, 0x1a, 0xbe, 0xbe, 0x5b, 0x12, 0xbe, 0x99, 0x82, 0x04, 0xbe, 0x95, 0x28, 0x48, 0xbe, 0xc1, 0xa3, 0x72, 0x3e, 0x00, 0xb6, 0x18, 0xbd, 0x67, 0xa6, 0x48, 0x3e, 0x2c, 0x39, 0xa2, 0xbe, 0xd9, 0xe0, 0x2d, 0x3d, 0x0a, 0x73, 0xb9, 0xbe, 0x7b, 0x8e, 0x3b, 0x3e, 0xec, 0x22, 0xca, 0xbe, 0xf4, 0xf5, 0xbf, 0xbe, 0xd7, 0xc6, 0x78, 0xbe, 0xf3, 0xf9, 0x9f, 0xbd, 0x0c, 0xc8, 0x83, 0xbe, 0x33, 0xe3, 0x87, 0xbd, 0x36, 0x66, 0x03, 0x3d, 0xf0, 0x1b, 0xe7, 0x3f, 0xf3, 0x42, 0x3e, 0xbf, 0x13, 0xa9, 0x96, 0x3e, 0x00, 0x4c, 0xaf, 0x3f, 0x0b, 0xb0, 0x2a, 0xbf, 0x5a, 0x63, 0x81, 0x3f, 0x51, 0xda, 0xf2, 0x3f, 0xd6, 0x5b, 0x00, 0xbb, 0x32, 0xb1, 0x37, 0x3f, 0x0f, 0x6e, 0xe9, 0x3f, 0x72, 0x47, 0xbb, 0xbf, 0x1b, 0xbf, 0x85, 0xbe, 0x08, 0x66, 0xc1, 0x3e, 0x19, 0xcb, 0x08, 0xc0, 0x8e, 0xb2, 0x3d, 0xbe, 0x55, 0x0f, 0xc5, 0x3e, 0xe5, 0x2f, 0xa7, 0xbf, 0x13, 0x52, 0x02, 0xbf, 0xb4, 0x38, 0x2a, 0xbe, 0x5e, 0x52, 0xc4, 0xbf, 0xc2, 0x78, 0x8f, 0xbf, 0xc5, 0x10, 0xb3, 0xbe, 0xbc, 0xee, 0xb8, 0xbf, 0x33, 0xd0, 0x1d, 0xc0, 0x4e, 0xb7, 0xb7, 0x3b, 0xff, 0xaa, 0xd8, 0xbf, 0x6f, 0xa0, 0xaa, 0xbf, 0x90, 0xd8, 0x66, 0xbf, 0x9a, 0xbe, 0xdd, 0xbf, 0xe0, 0xad, 0xc1, 0xbe, 0x0b, 0xe9, 0xcd, 0x3f, 0x2c, 0x49, 0x49, 0x3f, 0xc4, 0xb6, 0x58, 0x3e, 0x00, 0xf7, 0xfd, 0x3f, 0xc7, 0x88, 0x8d, 0x3d, 0x3d, 0xf8, 0x26, 0xbf, 0x1f, 0xf7, 0xa2, 0x3f, 0x69, 0xe7, 0x09, 0x3e, 0xce, 0xe6, 0x31, 0xbf, 0xc2, 0xd0, 0x86, 0x3f, 0x3e, 0xc0, 0x55, 0x3e, 0xbb, 0x0f, 0xf3, 0xbe, 0x88, 0x18, 0xcf, 0x3f, 0xc1, 0x03, 0xb9, 0x3d, 0x2c, 0x27, 0x02, 0xbe, 0x4e, 0xdd, 0xf5, 0x3f, 0x37, 0xd9, 0xe1, 0xbe, 0xdd, 0x4e, 0x2e, 0x3e, 0x28, 0xcb, 0xc7, 0x3f, 0x08, 0xa6, 0x2b, 0x3d, 0x69, 0x98, 0xb5, 0x3e, 0xd7, 0xf8, 0xcd, 0x3f, 0xe9, 0x5c, 0x95, 0x3f, 0x60, 0x81, 0x02, 0x3e, 0x5c, 0x34, 0xef, 0x3f, 0x9e, 0x61, 0xbb, 0x3e, 0xc1, 0x46, 0xcd, 0x3e, 0xc9, 0xe5, 0x38, 0x40, 0xe2, 0x5e, 0xb5, 0x3f, 0xb3, 0x92, 0xab, 0x3f, 0x11, 0xd6, 0x02, 0x3e, 0x63, 0x0e, 0x71, 0xbe, 0x21, 0x8d, 0x9c, 0x3d, 0x59, 0x9e, 0x82, 0xbe, 0x9c, 0x67, 0x94, 0xbe, 0x13, 0xee, 0xf5, 0x3c, 0xd5, 0xf7, 0xcd, 0xbd, 0xec, 0xf9, 0xb5, 0xbd, 0xfd, 0x5a, 0x38, 0xbe, 0x16, 0x56, 0xc2, 0x3d, 0x8e, 0x73, 0xa3, 0xbd, 0xcc, 0xca, 0x4a, 0x3e, 0xb1, 0x58, 0x98, 0xbe, 0xd8, 0xb1, 0x4c, 0x3d, 0xe4, 0x89, 0x3a, 0xbd, 0x3c, 0x24, 0x37, 0x3e, 0x0e, 0xb9, 0x32, 0xbe, 0x4d, 0x12, 0x49, 0xbc, 0xfc, 0xbe, 0xe6, 0xbd, 0xaa, 0xf6, 0x94, 0x3e, 0x00, 0xc2, 0x99, 0xbe, 0x7f, 0xeb, 0xdc, 0x3d, 0x02, 0x4f, 0x14, 0xbe, 0x35, 0x6a, 0xfa, 0x3c, 0x81, 0xe0, 0x48, 0xbe, 0x83, 0x48, 0x8b, 0xbe, 0xe2, 0xcc, 0x1d, 0xbe, 0xaf, 0xf5, 0x06, 0x3e, 0x68, 0x59, 0x64, 0xbe, 0x46, 0x88, 0x8d, 0xbe, 0x5a, 0x0b, 0xfb, 0x3d, 0x48, 0x4a, 0xd9, 0x3d, 0xc3, 0x4e, 0x2e, 0x3d, 0x3e, 0x17, 0x1d, 0xbd, 0x85, 0x10, 0x02, 0xbc, 0x39, 0x64, 0x58, 0x3d, 0x27, 0xf0, 0xc0, 0x3d, 0x32, 0xcc, 0xaa, 0xbe, 0x89, 0xaf, 0xbf, 0xbe, 0x04, 0x43, 0x36, 0xbd, 0xad, 0x1f, 0xb3, 0xbe, 0x80, 0xf5, 0xa4, 0xbe, 0x53, 0xd5, 0x1f, 0xbd, 0x19, 0x1d, 0x75, 0xbe, 0xe4, 0xc8, 0x0f, 0xbd, 0xe6, 0x71, 0x17, 0x3e, 0x04, 0x32, 0x03, 0x3e, 0x2f, 0xca, 0x8f, 0xbd, 0x84, 0xda, 0x91, 0x3d, 0xac, 0xd3, 0xda, 0xbd, 0x51, 0x17, 0xda, 0xbe, 0x79, 0xef, 0x06, 0x3e, 0x3d, 0x71, 0x8c, 0xbe, 0x56, 0xbe, 0xcd, 0xbe, 0xb5, 0xb8, 0x54, 0xbe, 0x39, 0x12, 0x1b, 0x3d, 0xa3, 0x53, 0x8d, 0xbd, 0xb6, 0x85, 0x32, 0xbe, 0x07, 0x70, 0x91, 0xbe, 0xdb, 0x75, 0x8b, 0xbe, 0xb8, 0xb5, 0x46, 0x3f, 0x57, 0x07, 0x94, 0x3e, 0xd6, 0x7d, 0x2b, 0x3f, 0x1f, 0xb1, 0x91, 0x3f, 0xfd, 0x23, 0xab, 0x3e, 0x26, 0x72, 0xcd, 0x3f, 0x44, 0xa7, 0x94, 0x3f, 0x31, 0xaa, 0x26, 0x3e, 0x00, 0x17, 0x9b, 0x3f, 0x88, 0xb0, 0xd6, 0x3f, 0xc9, 0xf0, 0x59, 0x3d, 0x1d, 0xef, 0x75, 0x3f, 0xa3, 0x25, 0x65, 0x3f, 0xba, 0xcd, 0x82, 0xbd, 0x27, 0x17, 0x7f, 0x3f, 0x09, 0x7f, 0xa9, 0x3c, 0xad, 0x52, 0x06, 0x3f, 0xf3, 0xad, 0xac, 0x3e, 0x81, 0x00, 0x7f, 0x3f, 0x19, 0x30, 0xa4, 0xbf, 0x73, 0x8b, 0x8b, 0xbe, 0xbe, 0x78, 0xaf, 0x3f, 0x97, 0x0d, 0x18, 0xc0, 0xe2, 0xb7, 0xc1, 0xbe, 0xe4, 0x50, 0x80, 0x3e, 0x52, 0x55, 0x3e, 0xc0, 0xde, 0xb6, 0xa8, 0xbf, 0x4c, 0x62, 0xb9, 0xbe, 0x5c, 0xa5, 0x79, 0xc0, 0x88, 0x71, 0xcc, 0xbf, 0xac, 0xd7, 0x36, 0x3f, 0x45, 0x81, 0xcd, 0x3c, 0x40, 0x4c, 0xca, 0xbd, 0x08, 0xcd, 0xe8, 0x3e, 0x18, 0x2c, 0x39, 0xbf, 0x05, 0xcd, 0x09, 0xbf, 0xaa, 0x79, 0x5c, 0xbe, 0x41, 0xe1, 0x91, 0xbe, 0x3d, 0x12, 0x28, 0xbf, 0x34, 0x5f, 0x03, 0xbf, 0xd3, 0x0d, 0x7f, 0x3e, 0x35, 0x23, 0xc3, 0xbe, 0x35, 0xdd, 0x36, 0x3f, 0x6c, 0x88, 0xcd, 0xbe, 0x59, 0x53, 0x20, 0xbf, 0x09, 0x7b, 0x9c, 0x3f, 0x67, 0xc8, 0xaa, 0xbe, 0x7a, 0xff, 0xbd, 0x3d, 0x3d, 0x45, 0x53, 0x3e, 0xbf, 0x2b, 0xa2, 0x3f, 0x43, 0x38, 0x38, 0xbe, 0x95, 0xee, 0x31, 0x3f, 0x79, 0x7f, 0xfe, 0x3f, 0x9f, 0x79, 0xb5, 0xbe, 0xea, 0xf8, 0xa3, 0x3f, 0x00, 0x59, 0x1a, 0x40, 0xe2, 0x21, 0xd3, 0x3e, 0xd0, 0xd2, 0x53, 0x40, 0x30, 0x83, 0x29, 0x40, 0x37, 0x69, 0x26, 0x3f, 0x30, 0x1d, 0x9e, 0x3f, 0x2b, 0x80, 0x45, 0xbf, 0x1c, 0xac, 0xfd, 0xbe, 0x99, 0xe8, 0xb0, 0x3f, 0x0d, 0xbf, 0x71, 0xbf, 0xd9, 0x3f, 0x9d, 0xbf, 0x6e, 0x05, 0xa6, 0x3f, 0x8b, 0x49, 0x32, 0xbf, 0x08, 0xe1, 0xb4, 0xbf, 0xa4, 0x54, 0xd0, 0x3f, 0x85, 0xe4, 0xdb, 0xbe, 0x5f, 0x94, 0x0e, 0xbf, 0xf3, 0x1a, 0x0a, 0x40, 0x86, 0x36, 0x5e, 0xbf, 0x8c, 0x35, 0x86, 0xbf, 0x51, 0x45, 0x12, 0x40, 0x45, 0x1a, 0xa6, 0xbf, 0x83, 0xb5, 0xb0, 0xbe, 0x0e, 0x1a, 0x0d, 0x40, 0xd7, 0x3c, 0x25, 0xbf, 0x63, 0x58, 0xc0, 0x3e, 0xbb, 0x62, 0x40, 0x40, 0x48, 0x13, 0x4a, 0xbe, 0x12, 0x4c, 0x51, 0xbf, 0xc8, 0xbc, 0x13, 0x40, 0x4e, 0x2e, 0x05, 0xbf, 0x0a, 0x13, 0x02, 0xbf, 0x2f, 0xc3, 0x16, 0x40, 0x40, 0x6d, 0x15, 0xbf, 0xf6, 0x38, 0x2d, 0x3e, 0x08, 0x12, 0x1a, 0x3d, 0xd8, 0x2c, 0xbf, 0x3c, 0xa2, 0xb0, 0x8d, 0xbd, 0x70, 0x2f, 0x86, 0x3e, 0x16, 0xe6, 0x67, 0xbc, 0x7b, 0x9e, 0x89, 0xbc, 0xf5, 0x1a, 0x6f, 0xbe, 0x21, 0xe7, 0xda, 0xbd, 0x7a, 0x9e, 0x6c, 0x3e, 0x80, 0x98, 0x7c, 0xbe, 0xc6, 0x71, 0x80, 0xbe, 0x40, 0x04, 0x2d, 0x3d, 0x88, 0xd1, 0x2a, 0xbe, 0xc8, 0xfe, 0x8e, 0xbe, 0xd3, 0xf9, 0x6f, 0xbe, 0x7c, 0x14, 0x2c, 0x3e, 0xbd, 0xcb, 0x5b, 0xbe, 0xea, 0x6b, 0xa9, 0x3d, 0xdf, 0x36, 0x94, 0x3c, 0xf0, 0xa1, 0x67, 0xbe, 0xab, 0x99, 0xa4, 0xbe, 0x89, 0xdb, 0x3e, 0xbe, 0x17, 0x61, 0xfb, 0xbd, 0x60, 0xf7, 0x62, 0x3e, 0x92, 0x92, 0x98, 0xbc, 0x01, 0x0e, 0x20, 0xbe, 0x3a, 0x63, 0xdb, 0xbd, 0xc7, 0x3b, 0xd8, 0xbd, 0x4b, 0x82, 0x65, 0x3e, 0x39, 0x63, 0x4f, 0xbe, 0x07, 0x61, 0xa2, 0x3f, 0xb8, 0xe4, 0x26, 0xbf, 0x94, 0x9a, 0xd6, 0xbe, 0x8e, 0x61, 0x52, 0x3f, 0x08, 0xf0, 0x2f, 0xbf, 0xc9, 0xa0, 0x7a, 0xbf, 0x95, 0x51, 0x94, 0x3f, 0x28, 0x15, 0x47, 0xbf, 0xbc, 0x84, 0x93, 0xbf, 0x82, 0xcb, 0xaa, 0x3f, 0x1d, 0x38, 0xd8, 0xbe, 0x5e, 0xb6, 0xee, 0xbe, 0x08, 0x69, 0xab, 0x3f, 0x08, 0x1f, 0x8a, 0xbf, 0x11, 0x22, 0x83, 0xbf, 0x94, 0xdb, 0x06, 0x40, 0xa3, 0xf0, 0xf5, 0xbf, 0xe3, 0xa5, 0x93, 0xbe, 0x57, 0xaf, 0x5e, 0x3f, 0xbb, 0xb3, 0xfd, 0xbe, 0x17, 0xbe, 0x3c, 0xbd, 0x4f, 0x6d, 0xdd, 0x3f, 0x78, 0x79, 0x15, 0xbf, 0xce, 0xa2, 0x59, 0xbf, 0x00, 0x59, 0xa9, 0x3f, 0x02, 0x13, 0x83, 0xbf, 0xd1, 0x85, 0x3c, 0xbf, 0xe2, 0x05, 0x0d, 0x40, 0x5a, 0x03, 0xeb, 0xbe, 0x04, 0x22, 0x27, 0xbf, 0x1f, 0xbc, 0xa7, 0x3f, 0xa9, 0x86, 0xba, 0xbf, 0x15, 0x07, 0xad, 0xbf, 0x58, 0x3a, 0xf1, 0x3f, 0xb8, 0x4e, 0xab, 0xbf, 0x72, 0x46, 0x01, 0xc0, 0xf0, 0x0b, 0xf2, 0x3f, 0xa8, 0x40, 0xa9, 0xbf, 0xa6, 0xf8, 0x13, 0xc0, 0x93, 0xc3, 0x09, 0x40, 0x85, 0xb3, 0x90, 0xbf, 0x13, 0x75, 0xd2, 0xbf, 0x96, 0x76, 0xf0, 0x3f, 0xd1, 0xd6, 0x9b, 0xbf, 0xd3, 0x6e, 0x1c, 0xc0, 0x0a, 0x39, 0x9a, 0x3f, 0x89, 0x0b, 0xa7, 0xbf, 0x6b, 0xd9, 0x84, 0xbf, 0x04, 0x39, 0xa4, 0x3f, 0x44, 0x82, 0x62, 0xbf, 0x11, 0x13, 0x81, 0xbf, 0x1a, 0x5b, 0xb0, 0x3f, 0x07, 0xf1, 0xd0, 0x3d, 0x7d, 0x7b, 0x44, 0xbf, 0x5d, 0xe1, 0x20, 0x3f, 0xf7, 0x64, 0x24, 0x3f, 0x02, 0xf7, 0xe1, 0xbe, 0xa8, 0x8f, 0xdd, 0x3f, 0xa2, 0xf3, 0x95, 0x3c, 0x4f, 0xf2, 0xe5, 0xbd, 0xb2, 0x37, 0x60, 0xbe, 0x7d, 0x50, 0xe7, 0xbf, 0x95, 0x2a, 0xbf, 0xbe, 0xdf, 0xd2, 0x78, 0xbe, 0xb0, 0xa3, 0x29, 0xbf, 0x47, 0x3b, 0x1e, 0xbf, 0xb5, 0x13, 0xf3, 0xbe, 0x88, 0x91, 0x9e, 0x3e, 0x87, 0xd8, 0x93, 0xbf, 0xa4, 0x16, 0x18, 0x3d, 0x76, 0x52, 0x97, 0xbe, 0xf4, 0xde, 0x4a, 0xbf, 0x4f, 0xea, 0xe9, 0x3d, 0x24, 0x95, 0x3d, 0xbe, 0x32, 0x58, 0x53, 0x3e, 0x72, 0xd6, 0x67, 0x3f, 0x7f, 0x9f, 0x27, 0x3f, 0x94, 0xf5, 0x43, 0x3f, 0x25, 0xf8, 0x61, 0x3f, 0x37, 0x2f, 0x61, 0x3f, 0x5c, 0x9d, 0xc9, 0x3e, 0xd2, 0x02, 0x7d, 0x3f, 0xa6, 0x28, 0x46, 0xbf, 0x19, 0x37, 0xcd, 0x3e, 0x37, 0xae, 0xba, 0x3f, 0x69, 0x99, 0x10, 0x3e, 0x83, 0x2b, 0xad, 0xbf, 0xf5, 0xe8, 0x1b, 0x40, 0x2e, 0xf9, 0x17, 0x3f, 0x8b, 0xaa, 0x81, 0xc0, 0x29, 0x11, 0x58, 0x3f, 0x90, 0x51, 0x5d, 0xbf, 0x5f, 0xc7, 0xb8, 0xbf, 0xe5, 0xaf, 0x22, 0x3e, 0x0c, 0xec, 0xfa, 0xbe, 0xd3, 0x10, 0x03, 0xc0, 0x6a, 0x3b, 0xf1, 0x3d, 0x57, 0xf8, 0x6b, 0x3e, 0x90, 0xdf, 0x0f, 0xc0, 0x16, 0x6a, 0x6c, 0xbe, 0x41, 0x25, 0x7b, 0xbe, 0x2d, 0x7d, 0x81, 0xbf, 0xc3, 0x09, 0x5c, 0xbc, 0x53, 0xf2, 0x5d, 0xbf, 0x9a, 0xcd, 0x6c, 0xbf, 0x01, 0x88, 0x89, 0x3f, 0x58, 0x88, 0xa2, 0x3d, 0x54, 0x4b, 0x58, 0xbe, 0xd9, 0xb7, 0x63, 0x3f, 0xd8, 0xab, 0x75, 0x3f, 0x00, 0xe7, 0xa6, 0xbf, 0x35, 0x7a, 0xd2, 0x3f, 0x72, 0xf8, 0xcb, 0xbe, 0x26, 0xf7, 0x9a, 0xbf, 0xfe, 0x38, 0x08, 0x40, 0x71, 0xe2, 0xf8, 0x3e, 0xb2, 0x37, 0xf1, 0xbf, 0x42, 0x8f, 0x2c, 0x40, 0x1c, 0x57, 0x84, 0x3f, 0x65, 0xfc, 0x77, 0xc0, 0xe5, 0xd0, 0xa0, 0x3f, 0x32, 0x3f, 0x01, 0x3e, 0x46, 0x11, 0x01, 0xbf, 0x8f, 0xcc, 0x56, 0x3f, 0xbf, 0xf5, 0x44, 0x3d, 0xd7, 0x20, 0x99, 0x3e, 0xa2, 0x28, 0x3e, 0x3f, 0x93, 0x48, 0x9f, 0xbe, 0x0f, 0xd4, 0x14, 0x3f, 0xdc, 0x5a, 0x8b, 0x3f, 0x63, 0x83, 0x20, 0xbf, 0x80, 0xd3, 0xa8, 0x3f, 0x22, 0xf0, 0x2c, 0x3f, 0x9a, 0xc4, 0xcf, 0x3e, 0x1c, 0x31, 0x89, 0x3f, 0xda, 0xe0, 0xdf, 0xbe, 0xc5, 0x5f, 0x1a, 0x3e, 0x60, 0x35, 0xa3, 0x3e, 0x5d, 0x7c, 0x9a, 0x3f, 0xfd, 0x7e, 0x96, 0xbf, 0xe2, 0xcf, 0x92, 0x3f, 0x8a, 0x27, 0x3a, 0x3f, 0x51, 0xf6, 0x03, 0xc0, 0xe6, 0xe2, 0x98, 0x3f, 0x20, 0xb7, 0x48, 0xbf, 0x3c, 0x3b, 0x1a, 0xc0, 0xd2, 0x60, 0x7d, 0x3e, 0x35, 0x42, 0x5d, 0xc0, 0x33, 0x35, 0x61, 0xc0, 0x1f, 0x72, 0x8d, 0xbd, 0x8c, 0x3f, 0xb9, 0x3d, 0xa6, 0xff, 0x56, 0xbe, 0xc4, 0x3f, 0xac, 0xbe, 0x56, 0xce, 0x9a, 0x3d, 0xe3, 0x03, 0x98, 0xbe, 0xc2, 0x7d, 0x17, 0xbe, 0xd5, 0x18, 0xb4, 0xbe, 0xa2, 0x35, 0x04, 0x3e, 0x40, 0xef, 0xef, 0xbd, 0x9f, 0x8d, 0x9d, 0xbe, 0x87, 0x95, 0x0a, 0x3c, 0xcf, 0x1f, 0x6d, 0xbe, 0xbf, 0x27, 0x8e, 0xbe, 0x56, 0xd1, 0xc0, 0x3c, 0xc1, 0x56, 0x5a, 0xbe, 0x3f, 0x8b, 0xea, 0x3b, 0xa1, 0xac, 0xf6, 0xbc, 0xe2, 0x4f, 0xb4, 0x3d, 0x0c, 0x14, 0xe5, 0xbe, 0xa7, 0xd5, 0xb1, 0xbe, 0xda, 0x63, 0x18, 0x3e, 0xfe, 0xc9, 0xbe, 0xbe, 0xc7, 0x6c, 0x6b, 0xbe, 0x8d, 0x09, 0x82, 0xbe, 0x35, 0x57, 0x60, 0xbe, 0x56, 0x2c, 0x8c, 0xbe, 0xb2, 0x44, 0xfb, 0x3d, 0x0e, 0x6a, 0xc3, 0xbd, 0x18, 0xab, 0x12, 0xbe, 0x62, 0x79, 0x27, 0x3e, 0xf8, 0xff, 0xc8, 0xbe, 0x41, 0x6b, 0x83, 0xbe, 0x7c, 0x2c, 0xc5, 0x3e, 0xba, 0xd1, 0x8c, 0xbd, 0xe3, 0xcc, 0xaa, 0xbe, 0xf2, 0xfb, 0xae, 0xbb, 0x12, 0xc5, 0x50, 0x3f, 0x49, 0x86, 0xd3, 0xbe, 0xfa, 0x69, 0xa3, 0x3e, 0x4f, 0xc1, 0x74, 0x3f, 0x08, 0xf3, 0xbf, 0xbe, 0xca, 0x4b, 0xb7, 0x3d, 0x7b, 0x80, 0x5d, 0x3f, 0x78, 0x86, 0xce, 0xbd, 0x2e, 0x5b, 0xa1, 0x3e, 0x81, 0x92, 0x2c, 0x3f, 0x38, 0x97, 0x1a, 0x3d, 0xfc, 0xa2, 0x8b, 0x3d, 0x27, 0x9d, 0xec, 0xbe, 0xb2, 0x0a, 0x59, 0x3e, 0x92, 0x52, 0xe4, 0xbd, 0x1f, 0x79, 0x45, 0xbf, 0xea, 0x20, 0x4c, 0x3f, 0x72, 0x54, 0x25, 0xbf, 0xad, 0x0a, 0x94, 0xbf, 0xb1, 0x7f, 0x41, 0x3f, 0x61, 0x74, 0x1b, 0xbf, 0xf3, 0xbb, 0xfa, 0xbb, 0x10, 0x93, 0x75, 0x3c, 0xba, 0xca, 0xd3, 0xbe, 0xff, 0xa5, 0x6c, 0x3f, 0xdc, 0xa5, 0xa2, 0xbf, 0x26, 0xcf, 0xa5, 0xbf, 0xf0, 0xca, 0x97, 0x3f, 0x6c, 0x89, 0xb4, 0xbf, 0x74, 0x33, 0x12, 0xc0, 0x9f, 0x7e, 0xcd, 0x3f, 0xe6, 0xa0, 0xbd, 0xbf, 0x05, 0x54, 0xca, 0xbf, 0xaf, 0x8a, 0xbf, 0x3f, 0xe6, 0xe9, 0xb6, 0xbf, 0x9d, 0x26, 0xd5, 0xbf, 0xe3, 0xc7, 0x60, 0x3f, 0xde, 0xf0, 0xb3, 0xbf, 0xde, 0xd5, 0xfb, 0xbf, 0xe2, 0xc9, 0x6c, 0x3f, 0xab, 0xc5, 0xf2, 0xbf, 0x2a, 0x8a, 0xc9, 0xbf, 0x45, 0x89, 0x03, 0x40, 0xc3, 0x46, 0xaa, 0xbf, 0x7f, 0xd2, 0xcb, 0xbf, 0x4d, 0x34, 0x03, 0x40, 0xcb, 0x6d, 0x27, 0xbf, 0xb2, 0x79, 0x92, 0xbd, 0x38, 0xd2, 0x35, 0x40, 0xff, 0x7a, 0xe6, 0x3e, 0x19, 0x0d, 0x4d, 0x3f, 0x57, 0xc9, 0x29, 0x40, 0xba, 0xdc, 0x0d, 0x3f, 0x26, 0xe9, 0xbd, 0x3f, 0x62, 0xf2, 0x54, 0x3e, 0x89, 0x2a, 0xcb, 0x3e, 0x44, 0x49, 0x37, 0x3c, 0xfd, 0x29, 0x3b, 0xbf, 0xb1, 0x8a, 0x0f, 0xbe, 0x01, 0xac, 0xff, 0x3d, 0x15, 0xa0, 0xad, 0x3d, 0x61, 0x92, 0xe4, 0xbe, 0x14, 0xd1, 0x9c, 0xbe, 0xf1, 0x78, 0x51, 0xbf, 0x38, 0x4e, 0x3a, 0xbe, 0xca, 0xb3, 0xcf, 0xbe, 0x1b, 0xcd, 0x36, 0xbf, 0xad, 0x7c, 0xf6, 0xbd, 0xda, 0x95, 0xe3, 0xbe, 0xad, 0x30, 0x8b, 0xbf, 0x93, 0xcb, 0x5b, 0x3d, 0xa8, 0x8e, 0x2e, 0xbf, 0x91, 0x2a, 0x5e, 0xbf, 0x0e, 0xbe, 0xf3, 0x3e, 0x86, 0x83, 0x2b, 0xbf, 0x8e, 0xe4, 0x8d, 0xbf, 0x3b, 0xab, 0xe0, 0x3e, 0x0d, 0x2e, 0xa8, 0xbf, 0x43, 0x66, 0x86, 0xbf, 0xc4, 0xd8, 0x33, 0x3f, 0xcf, 0xf1, 0xa3, 0xbf, 0x4d, 0x3c, 0x19, 0xbf, 0xf4, 0xf7, 0x15, 0x3f, 0x33, 0x45, 0xc1, 0xbf, 0x95, 0xa5, 0x11, 0xbd, 0x80, 0xe5, 0x04, 0xbe, 0x3d, 0x71, 0x4d, 0xbd, 0xb9, 0x0c, 0x93, 0xbd, 0xd7, 0x1b, 0xb3, 0xbc, 0x2c, 0x34, 0x3e, 0x3b, 0xc3, 0xc4, 0xb3, 0x3c, 0x31, 0x4a, 0x9a, 0xbe, 0x18, 0x3e, 0xc5, 0xbd, 0xce, 0xce, 0x41, 0xbc, 0x76, 0x98, 0x91, 0x3d, 0xe0, 0xd1, 0x0a, 0xbe, 0x4a, 0x88, 0x05, 0xbe, 0xe6, 0x25, 0x29, 0x3d, 0x9e, 0x76, 0xd1, 0xbc, 0x36, 0xe9, 0x32, 0xbe, 0xae, 0xc0, 0x53, 0x3e, 0xbe, 0x8d, 0xe7, 0xbd, 0x4c, 0x2f, 0x2d, 0x3e, 0xda, 0x17, 0x35, 0x3e, 0x37, 0x3f, 0x43, 0xbe, 0x15, 0xc0, 0x4a, 0xbe, 0x0f, 0x53, 0x21, 0xbe, 0x72, 0xd0, 0x52, 0xbe, 0x02, 0x7f, 0x8a, 0xbe, 0x57, 0x9d, 0x48, 0xbd, 0x91, 0x74, 0xa0, 0xbd, 0xc0, 0xfe, 0x8d, 0xbe, 0x5b, 0x92, 0x5b, 0x3e, 0xc2, 0x3e, 0x9e, 0xbe, 0x78, 0x28, 0x28, 0xbc, 0xba, 0xb2, 0xa2, 0xbf, 0xe2, 0x06, 0xef, 0xbf, 0xb2, 0xa5, 0x4d, 0xbf, 0x82, 0xdf, 0x02, 0xbf, 0x3b, 0xfa, 0xda, 0xbf, 0x4c, 0x86, 0xb3, 0xbd, 0x1c, 0x90, 0x16, 0x3f, 0xcf, 0xdd, 0xa9, 0xbf, 0xb4, 0x16, 0xcb, 0xbc, 0x4f, 0x1b, 0x51, 0x3e, 0xed, 0xfd, 0x31, 0xbf, 0xff, 0x77, 0x6c, 0x3e, 0xf6, 0x15, 0xc7, 0xbd, 0xc5, 0xc3, 0x3d, 0x3e, 0x74, 0xe9, 0x37, 0x3f, 0xbf, 0x35, 0x4b, 0x3f, 0xef, 0xf6, 0x8b, 0xbe, 0xbd, 0x17, 0x86, 0x3f, 0xbe, 0x46, 0xc7, 0x3e, 0x1b, 0x92, 0xcf, 0xbd, 0x99, 0x2f, 0x9d, 0x3f, 0xa5, 0xd2, 0xa2, 0xbf, 0x0f, 0x8f, 0x52, 0xbf, 0xc8, 0x2c, 0xd0, 0x3f, 0xdc, 0xef, 0x83, 0xbf, 0x11, 0x71, 0xff, 0xbf, 0x12, 0x89, 0xd3, 0x3f, 0xdd, 0x84, 0x96, 0xbd, 0xab, 0xfc, 0xa2, 0xc0, 0xf5, 0x3b, 0x9f, 0x3f, 0x81, 0x04, 0x17, 0xbf, 0x15, 0x69, 0x8c, 0x3f, 0xdf, 0x92, 0x90, 0x3f, 0x2b, 0x3e, 0x8d, 0x3d, 0xee, 0xea, 0x37, 0x3f, 0xa6, 0xc3, 0x07, 0x40, 0x28, 0x77, 0x3b, 0x3e, 0x27, 0x93, 0xc1, 0x3e, 0xbb, 0xc6, 0xfd, 0x3f, 0xd3, 0x0a, 0x05, 0xbf, 0x43, 0xcd, 0xb2, 0xbd, 0x59, 0x2f, 0x97, 0x3f, 0xd9, 0x7a, 0xd1, 0xbf, 0x4e, 0x61, 0x7b, 0xbf, 0x8e, 0xc4, 0x92, 0x3f, 0xd8, 0x47, 0x99, 0xbf, 0xb3, 0xaa, 0xf5, 0xbe, 0xf3, 0xaa, 0x98, 0xbe, 0x86, 0x88, 0xfc, 0xbf, 0x82, 0x71, 0x97, 0xbf, 0xb9, 0x1e, 0x93, 0xbf, 0x10, 0x86, 0x2a, 0xc0, 0xa8, 0x51, 0xcf, 0xbf, 0xa9, 0xdb, 0x8e, 0xbf, 0x3d, 0x78, 0xd0, 0xbf, 0x96, 0x09, 0x9f, 0xbf, 0xe3, 0x2d, 0xa0, 0xbf, 0x8e, 0x05, 0x1f, 0xc0, 0x80, 0x25, 0xa9, 0xbe, 0x0f, 0x20, 0x95, 0xbe, 0x1a, 0x65, 0x8e, 0xbe, 0x79, 0xd8, 0x5d, 0xbe, 0xd2, 0x30, 0xe7, 0xbe, 0xae, 0x2e, 0x29, 0xbd, 0xd1, 0x50, 0x2a, 0xbe, 0x37, 0x21, 0xcc, 0xbe, 0x84, 0x04, 0x4a, 0xbe, 0xe5, 0x8e, 0x92, 0xbe, 0x44, 0x85, 0x06, 0x3e, 0x36, 0xb6, 0x3e, 0x3e, 0xd0, 0xdc, 0x0f, 0xbd, 0x71, 0x95, 0x98, 0xbd, 0xb9, 0xc2, 0xf5, 0x3c, 0xfc, 0x3e, 0x48, 0x3d, 0x51, 0x61, 0xf6, 0xbd, 0x5e, 0x0f, 0x87, 0xbe, 0xae, 0x04, 0xc1, 0x3d, 0x6e, 0x85, 0xad, 0xbe, 0x72, 0x83, 0xde, 0x3d, 0x4f, 0x5e, 0x33, 0x3e, 0xbe, 0x8f, 0x80, 0x3e, 0x33, 0xe8, 0x3f, 0x3e, 0xc2, 0x71, 0x3b, 0x3c, 0x23, 0xe4, 0x25, 0xbe, 0x37, 0xd0, 0xff, 0x3d, 0x2d, 0x6b, 0x04, 0xbe, 0xee, 0x68, 0xee, 0xbd, 0x3c, 0x90, 0x73, 0x3c, 0x55, 0x52, 0x5a, 0xbe, 0x40, 0x4c, 0x28, 0x3f, 0x94, 0x43, 0x78, 0xbf, 0xc1, 0x63, 0x55, 0xbd, 0xf3, 0x72, 0x91, 0x3e, 0x2c, 0xc6, 0x65, 0xbf, 0x7a, 0xd3, 0x4f, 0xbe, 0xaa, 0x2e, 0xd2, 0x3e, 0x20, 0x4d, 0xb9, 0xbe, 0x33, 0x23, 0x8a, 0xbe, 0x1d, 0x40, 0x97, 0x3f, 0xc9, 0x8d, 0x11, 0xbf, 0x63, 0xdb, 0xa2, 0xbd, 0x9b, 0x35, 0x19, 0x3f, 0xd6, 0x92, 0x26, 0xbf, 0x7f, 0x48, 0x49, 0xbf, 0x7a, 0xd2, 0xec, 0x3f, 0xc8, 0x31, 0x41, 0xbf, 0x43, 0x4d, 0xaa, 0xbe, 0xc6, 0x53, 0xb5, 0x3f, 0xdd, 0x17, 0x19, 0xbe, 0x59, 0x31, 0x32, 0xbf, 0xbd, 0x72, 0xcd, 0x3f, 0x6d, 0x98, 0xb0, 0xbf, 0x3f, 0x9d, 0xef, 0xbf, 0x33, 0xd0, 0xef, 0x3f, 0x76, 0xda, 0x91, 0x3e, 0xa6, 0x6c, 0xa5, 0xbf, 0xce, 0xb8, 0x38, 0x40, 0x36, 0xa2, 0x20, 0x3f, 0xde, 0x9f, 0x14, 0xc0, 0x46, 0x38, 0x2d, 0xbf, 0xca, 0x45, 0x30, 0x3f, 0x12, 0x5f, 0x86, 0x3f, 0x22, 0xac, 0x73, 0xbf, 0xde, 0x96, 0x06, 0xbd, 0x6e, 0x6d, 0x65, 0x3e, 0x4d, 0xa6, 0x14, 0xbf, 0x4f, 0xa5, 0x18, 0x3f, 0x2e, 0x69, 0x1d, 0x3d, 0xc7, 0xb6, 0xa7, 0xbf, 0xa4, 0x89, 0x3f, 0x3f, 0x1e, 0xbc, 0xf6, 0xbe, 0x89, 0xe1, 0x51, 0xbe, 0xe2, 0x8f, 0x16, 0x3f, 0xde, 0x5f, 0xf6, 0xbe, 0x9d, 0x29, 0x8d, 0x3e, 0x6b, 0x6b, 0x03, 0x3f, 0x26, 0xa0, 0xa8, 0x3e, 0xf5, 0xeb, 0xad, 0xbf, 0x03, 0x68, 0xeb, 0x3e, 0xb9, 0x43, 0x23, 0x3f, 0xb3, 0x17, 0xb7, 0xbf, 0x4a, 0xc5, 0x95, 0x3f, 0x61, 0x4a, 0x93, 0x3e, 0x1b, 0xa2, 0x66, 0xbf, 0xec, 0x85, 0x72, 0x3f, 0x26, 0xc2, 0xa5, 0x3e, 0x68, 0x97, 0x4d, 0xbe, 0xc5, 0x34, 0x2e, 0x40, 0xd1, 0x2c, 0x49, 0x3e, 0x5a, 0x89, 0x2a, 0x3e, 0xdc, 0xda, 0xb8, 0xbe, 0xfd, 0x6c, 0x8d, 0xbe, 0x2d, 0x12, 0xc4, 0x3d, 0xc8, 0x56, 0x85, 0x3e, 0xb2, 0x37, 0x36, 0xbe, 0x7c, 0x0a, 0x83, 0xbe, 0x00, 0xbe, 0x25, 0xbe, 0xc2, 0x46, 0x07, 0xbe, 0x54, 0x5f, 0xc8, 0x3c, 0x41, 0x50, 0xf5, 0x3d, 0xe6, 0xcf, 0xee, 0xbb, 0xb3, 0x2f, 0x14, 0x3e, 0xf6, 0xdf, 0x0a, 0x3d, 0xfd, 0x2f, 0x07, 0xbe, 0x22, 0x72, 0x63, 0x3e, 0x0e, 0xae, 0x4b, 0x3e, 0x31, 0x28, 0xa3, 0xbd, 0x87, 0x51, 0x5c, 0xbe, 0x84, 0xab, 0xc9, 0xbe, 0xf8, 0x86, 0xcc, 0xbe, 0x93, 0xe2, 0xbf, 0xbe, 0x12, 0x31, 0xe9, 0xbe, 0x8a, 0xf2, 0x8d, 0xbe, 0x59, 0x55, 0x29, 0x3e, 0xd2, 0x7b, 0xbe, 0xbe, 0xa4, 0x3d, 0x32, 0xbd, 0x83, 0x3d, 0xbc, 0xbd, 0xe4, 0xed, 0x9d, 0x3b, 0x22, 0xd4, 0x27, 0x3e, 0x77, 0xe2, 0x03, 0x40, 0xb7, 0x0d, 0x32, 0xbe, 0xe8, 0x51, 0x26, 0xbf, 0x9b, 0xe1, 0xc9, 0x3f, 0xd6, 0x71, 0xc4, 0xbe, 0x68, 0xb2, 0xd3, 0x3d, 0x55, 0xf1, 0x99, 0x3f, 0xa6, 0x90, 0xcb, 0xbe, 0x83, 0x8e, 0xa6, 0xbd, 0x19, 0x45, 0xa8, 0x3f, 0xb4, 0x91, 0x9f, 0xbf, 0xaf, 0x79, 0x4a, 0xbf, 0x41, 0xdb, 0x63, 0x3f, 0x9f, 0x10, 0x1d, 0xbf, 0x0e, 0x9f, 0xa5, 0xbf, 0x0b, 0x95, 0x84, 0x3f, 0xea, 0xf4, 0x90, 0xbe, 0x8a, 0x08, 0xe9, 0xbf, 0x10, 0x00, 0x12, 0x3f, 0xd4, 0x44, 0x25, 0xbf, 0xe6, 0xa9, 0xd8, 0xbf, 0x61, 0x88, 0xac, 0x3e, 0x01, 0x9e, 0x64, 0xbf, 0x29, 0xbc, 0xa6, 0xbf, 0xdd, 0x3a, 0xf3, 0x3e, 0x7c, 0x74, 0xf9, 0xbe, 0x4f, 0x76, 0x15, 0xc0, 0xbc, 0xb7, 0x93, 0x3f, 0xf0, 0xfe, 0x8c, 0xbe, 0x6a, 0x5f, 0x2f, 0xc0, 0xdb, 0x9f, 0x56, 0xbe, 0x68, 0xb5, 0x21, 0x3e, 0x0e, 0x37, 0x7a, 0xbe, 0x85, 0x16, 0xee, 0x3d, 0x1a, 0x0f, 0x3c, 0x3e, 0x1e, 0xb4, 0x54, 0xbd, 0xe4, 0xd2, 0xb2, 0x3d, 0xf7, 0x1d, 0x1b, 0x3e, 0x98, 0x0f, 0x9e, 0xbe, 0x85, 0x41, 0x87, 0xbe, 0x93, 0xb4, 0xbf, 0xbe, 0x6e, 0xa8, 0x8d, 0x3e, 0x3b, 0xe3, 0x67, 0xbe, 0x8d, 0xec, 0x75, 0xbe, 0x93, 0xaa, 0x05, 0xbe, 0x46, 0x70, 0x97, 0xbe, 0x88, 0xbe, 0x0e, 0xbe, 0x7d, 0xd3, 0x7e, 0xbe, 0x87, 0xe4, 0xc2, 0xbe, 0x2b, 0x58, 0xcb, 0xbb, 0x42, 0x5e, 0x77, 0x3e, 0xd1, 0x81, 0x14, 0xbe, 0x9d, 0xca, 0xaa, 0xbe, 0x1e, 0xa2, 0xf5, 0xbc, 0x9c, 0x23, 0x2a, 0x3e, 0x4f, 0x5f, 0x2b, 0x3e, 0x90, 0xa6, 0x63, 0xbe, 0x0e, 0xc9, 0x2e, 0xbe, 0xa5, 0xfa, 0x5e, 0xbd, 0x79, 0xe3, 0xe8, 0xbc, 0xed, 0x06, 0xbc, 0xbe, 0x89, 0x93, 0xd6, 0x3d, 0xe7, 0x5e, 0x52, 0x3e, 0x02, 0xcf, 0x94, 0xbe, 0x4e, 0xc2, 0x4b, 0xbd, 0x3a, 0xfa, 0x67, 0xbe, 0x83, 0x5d, 0x0e, 0xbe, 0x70, 0x50, 0x0a, 0xbd, 0x12, 0x46, 0x77, 0xbe, 0xdb, 0x94, 0x3a, 0xbe, 0x6d, 0x14, 0x13, 0x3e, 0x33, 0x7b, 0x5d, 0xbd, 0xd6, 0x77, 0x9a, 0xbe, 0xd0, 0x40, 0x79, 0x3d, 0xfa, 0x06, 0xe8, 0xbd, 0x96, 0x88, 0x2d, 0x3d, 0x0f, 0x0a, 0x50, 0xbe, 0xb6, 0x73, 0x2f, 0x3e, 0x7a, 0x4b, 0x4e, 0xbe, 0x80, 0x3b, 0x3e, 0xbe, 0x2f, 0x93, 0xf5, 0xbe, 0x7d, 0xfe, 0x77, 0xbe, 0x21, 0x96, 0xc8, 0x3c, 0x0f, 0x96, 0xdb, 0xbd, 0x63, 0x59, 0x7b, 0x3e, 0x09, 0x60, 0xd9, 0xbc, 0xa2, 0x08, 0xe8, 0xbe, 0x8d, 0x56, 0x4c, 0x3e, 0xf9, 0xde, 0x4a, 0xbd, 0x51, 0xe4, 0x1d, 0xbe, 0xb5, 0x61, 0xb5, 0x3f, 0xa8, 0xcb, 0x98, 0xbe, 0x71, 0xcd, 0x38, 0xbf, 0xa4, 0xaf, 0x85, 0x3f, 0xa1, 0x2e, 0x32, 0xbe, 0x5e, 0xf1, 0xf8, 0x3d, 0x0e, 0xfc, 0x87, 0x3f, 0x7c, 0x19, 0x31, 0xbe, 0x50, 0x15, 0xb4, 0x3d, 0xe1, 0x4c, 0xa0, 0x3f, 0xc0, 0xbb, 0xe5, 0xbe, 0xc7, 0x82, 0x03, 0x3f, 0x79, 0xec, 0xf6, 0x3e, 0x01, 0x64, 0x77, 0xbf, 0xb6, 0xa3, 0x06, 0xbf, 0x50, 0x7b, 0xb4, 0x3f, 0x1a, 0x7d, 0xeb, 0xbe, 0x62, 0x7c, 0xab, 0xbf, 0x0e, 0x6e, 0x9f, 0x3f, 0xb4, 0x8c, 0xfa, 0xbe, 0x8e, 0x4e, 0xd8, 0xbf, 0x70, 0x92, 0x84, 0x3f, 0x3b, 0x00, 0xcc, 0xbf, 0xc4, 0xb2, 0xf3, 0xbf, 0xe1, 0x9d, 0xdd, 0x3f, 0x3f, 0xeb, 0xac, 0xbf, 0x8c, 0xd8, 0x05, 0xc0, 0x35, 0x77, 0xd0, 0x3f, 0x6c, 0x80, 0xdf, 0xbf, 0x5b, 0x34, 0x13, 0xc0, 0x4c, 0xfa, 0x3d, 0xbe, 0xc9, 0xd3, 0xe9, 0xbd, 0xeb, 0x6a, 0x5e, 0x3d, 0xe3, 0x4f, 0x60, 0x3e, 0x06, 0x85, 0xd1, 0xbc, 0x01, 0x54, 0x54, 0xbd, 0xf5, 0x00, 0x91, 0xbb, 0xda, 0x0a, 0xcb, 0x3d, 0x02, 0xa4, 0xb9, 0x3d, 0x47, 0xe5, 0xad, 0xbd, 0x00, 0x27, 0x3d, 0xbe, 0x45, 0xc4, 0xa7, 0xbe, 0x2e, 0x2d, 0x7e, 0xbd, 0x3d, 0x7c, 0x3e, 0x3e, 0x03, 0x2c, 0x82, 0xbe, 0xab, 0x2b, 0x52, 0xbd, 0x53, 0x6a, 0xc5, 0x3d, 0xc4, 0xa4, 0x27, 0x3b, 0x36, 0xce, 0x92, 0x3d, 0xda, 0x19, 0xe0, 0xbd, 0x71, 0x87, 0x98, 0xbe, 0x39, 0xc7, 0x57, 0x3e, 0x5b, 0x03, 0x26, 0xbe, 0x41, 0x47, 0xcd, 0xbe, 0xe2, 0x79, 0x83, 0xbe, 0x86, 0xf2, 0x53, 0xbe, 0x03, 0x6e, 0x19, 0x3d, 0x7d, 0x09, 0x5c, 0x3d, 0x90, 0xc2, 0xf4, 0xbe, 0xb8, 0xa7, 0xda, 0xbe, 0xca, 0xfe, 0xff, 0xff, 0x04, 0x00, 0x00, 0x00, 0x80, 0x00, 0x00, 0x00, 0x5a, 0x37, 0xd6, 0x3e, 0x14, 0xba, 0x8c, 0xbd, 0xb7, 0x58, 0x2b, 0xbd, 0xcf, 0x56, 0x74, 0x40, 0x73, 0xc0, 0x0f, 0xbf, 0x0d, 0xc9, 0xa4, 0xbb, 0x3f, 0x25, 0x4e, 0xbd, 0x8b, 0x52, 0xa8, 0x40, 0x01, 0x70, 0x4e, 0xc0, 0xca, 0xaf, 0xd8, 0xbe, 0x62, 0x38, 0x4d, 0xbc, 0xa7, 0x56, 0x26, 0x3f, 0x41, 0x57, 0xc6, 0x3d, 0x26, 0xc8, 0x6c, 0x40, 0xe7, 0x94, 0x79, 0x40, 0xeb, 0x21, 0xbb, 0x40, 0x18, 0x3f, 0x13, 0xbc, 0x01, 0xb1, 0xa0, 0xbc, 0x45, 0xaa, 0xd6, 0x3f, 0x35, 0xb5, 0x27, 0x3e, 0x63, 0x19, 0xdd, 0x2d, 0x49, 0x80, 0x42, 0x40, 0x39, 0xa0, 0x43, 0x40, 0x4c, 0x12, 0x6d, 0xbd, 0xf3, 0x8c, 0x4c, 0x40, 0xb9, 0xd5, 0xaa, 0xbe, 0x65, 0xe4, 0x0a, 0xbe, 0x1a, 0xf7, 0x81, 0x40, 0x9a, 0xea, 0x66, 0xbd, 0xc8, 0x79, 0xc5, 0xbd, 0x46, 0xf7, 0x3f, 0x40, 0x87, 0x49, 0xd2, 0xbd, 0x56, 0xff, 0xff, 0xff, 0x04, 0x00, 0x00, 0x00, 0x0c, 0x00, 0x00, 0x00, 0x6c, 0x38, 0x45, 0xc0, 0x74, 0x1c, 0x73, 0x40, 0xa5, 0x14, 0x38, 0x3f, 0x78, 0xfb, 0xff, 0xff, 0x7c, 0xfb, 0xff, 0xff, 0x0f, 0x00, 0x00, 0x00, 0x4d, 0x4c, 0x49, 0x52, 0x20, 0x43, 0x6f, 0x6e, 0x76, 0x65, 0x72, 0x74, 0x65, 0x64, 0x2e, 0x00, 0x01, 0x00, 0x00, 0x00, 0x14, 0x00, 0x00, 0x00, 0x00, 0x00, 0x0e, 0x00, 0x18, 0x00, 0x14, 0x00, 0x10, 0x00, 0x0c, 0x00, 0x08, 0x00, 0x04, 0x00, 0x0e, 0x00, 0x00, 0x00, 0x14, 0x00, 0x00, 0x00, 0x1c, 0x00, 0x00, 0x00, 0xec, 0x00, 0x00, 0x00, 0xf0, 0x00, 0x00, 0x00, 0xf4, 0x00, 0x00, 0x00, 0x04, 0x00, 0x00, 0x00, 0x6d, 0x61, 0x69, 0x6e, 0x00, 0x00, 0x00, 0x00, 0x03, 0x00, 0x00, 0x00, 0x94, 0x00, 0x00, 0x00, 0x50, 0x00, 0x00, 0x00, 0x14, 0x00, 0x00, 0x00, 0x00, 0x00, 0x0e, 0x00, 0x1a, 0x00, 0x14, 0x00, 0x10, 0x00, 0x0c, 0x00, 0x0b, 0x00, 0x04, 0x00, 0x0e, 0x00, 0x00, 0x00, 0x1c, 0x00, 0x00, 0x00, 0x00, 0x00, 0x00, 0x09, 0x1c, 0x00, 0x00, 0x00, 0x20, 0x00, 0x00, 0x00, 0x01, 0x00, 0x00, 0x00, 0x00, 0x00, 0x06, 0x00, 0x08, 0x00, 0x04, 0x00, 0x06, 0x00, 0x00, 0x00, 0x00, 0x00, 0x80, 0x3f, 0x01, 0x00, 0x00, 0x00, 0x07, 0x00, 0x00, 0x00, 0x01, 0x00, 0x00, 0x00, 0x06, 0x00, 0x00, 0x00, 0xce, 0xff, 0xff, 0xff, 0x10, 0x00, 0x00, 0x00, 0x00, 0x00, 0x00, 0x08, 0x0c, 0x00, 0x00, 0x00, 0x10, 0x00, 0x00, 0x00, 0x3c, 0xfc, 0xff, 0xff, 0x01, 0x00, 0x00, 0x00, 0x06, 0x00, 0x00, 0x00, 0x03, 0x00, 0x00, 0x00, 0x05, 0x00, 0x00, 0x00, 0x04, 0x00, 0x00, 0x00, 0x01, 0x00, 0x00, 0x00, 0x00, 0x00, 0x0e, 0x00, 0x16, 0x00, 0x00, 0x00, 0x10, 0x00, 0x0c, 0x00, 0x0b, 0x00, 0x04, 0x00, 0x0e, 0x00, 0x00, 0x00, 0x18, 0x00, 0x00, 0x00, 0x00, 0x00, 0x00, 0x08, 0x18, 0x00, 0x00, 0x00, 0x1c, 0x00, 0x00, 0x00, 0x00, 0x00, 0x06, 0x00, 0x08, 0x00, 0x07, 0x00, 0x06, 0x00, 0x00, 0x00, 0x00, 0x00, 0x00, 0x01, 0x01, 0x00, 0x00, 0x00, 0x05, 0x00, 0x00, 0x00, 0x03, 0x00, 0x00, 0x00, 0x00, 0x00, 0x00, 0x00, 0x03, 0x00, 0x00, 0x00, 0x02, 0x00, 0x00, 0x00, 0x01, 0x00, 0x00, 0x00, 0x07, 0x00, 0x00, 0x00, 0x01, 0x00, 0x00, 0x00, 0x00, 0x00, 0x00, 0x00, 0x08, 0x00, 0x00, 0x00, 0x20, 0x03, 0x00, 0x00, 0xa8, 0x02, 0x00, 0x00, 0x30, 0x02, 0x00, 0x00, 0xdc, 0x01, 0x00, 0x00, 0x88, 0x01, 0x00, 0x00, 0xe4, 0x00, 0x00, 0x00, 0x60, 0x00, 0x00, 0x00, 0x04, 0x00, 0x00, 0x00, 0x16, 0xfd, 0xff, 0xff, 0x00, 0x00, 0x00, 0x01, 0x14, 0x00, 0x00, 0x00, 0x1c, 0x00, 0x00, 0x00, 0x1c, 0x00, 0x00, 0x00, 0x08, 0x00, 0x00, 0x00, 0x34, 0x00, 0x00, 0x00, 0x02, 0x00, 0x00, 0x00, 0xff, 0xff, 0xff, 0xff, 0x03, 0x00, 0x00, 0x00, 0x00, 0xfd, 0xff, 0xff, 0x19, 0x00, 0x00, 0x00, 0x53, 0x74, 0x61, 0x74, 0x65, 0x66, 0x75, 0x6c, 0x50, 0x61, 0x72, 0x74, 0x69, 0x74, 0x69, 0x6f, 0x6e, 0x65, 0x64, 0x43, 0x61, 0x6c, 0x6c, 0x3a, 0x30, 0x00, 0x00, 0x00, 0x02, 0x00, 0x00, 0x00, 0x01, 0x00, 0x00, 0x00, 0x03, 0x00, 0x00, 0x00, 0x6e, 0xfd, 0xff, 0xff, 0x00, 0x00, 0x00, 0x01, 0x14, 0x00, 0x00, 0x00, 0x1c, 0x00, 0x00, 0x00, 0x1c, 0x00, 0x00, 0x00, 0x07, 0x00, 0x00, 0x00, 0x5c, 0x00, 0x00, 0x00, 0x02, 0x00, 0x00, 0x00, 0xff, 0xff, 0xff, 0xff, 0x03, 0x00, 0x00, 0x00, 0x58, 0xfd, 0xff, 0xff, 0x42, 0x00, 0x00, 0x00, 0x73, 0x65, 0x71, 0x75, 0x65, 0x6e, 0x74, 0x69, 0x61, 0x6c, 0x5f, 0x31, 0x2f, 0x64, 0x65, 0x6e, 0x73, 0x65, 0x5f, 0x44, 0x65, 0x6e, 0x73, 0x65, 0x32, 0x2f, 0x4d, 0x61, 0x74, 0x4d, 0x75, 0x6c, 0x3b, 0x73, 0x65, 0x71, 0x75, 0x65, 0x6e, 0x74, 0x69, 0x61, 0x6c, 0x5f, 0x31, 0x2f, 0x64, 0x65, 0x6e, 0x73, 0x65, 0x5f, 0x44, 0x65, 0x6e, 0x73, 0x65, 0x32, 0x2f, 0x42, 0x69, 0x61, 0x73, 0x41, 0x64, 0x64, 0x00, 0x00, 0x02, 0x00, 0x00, 0x00, 0x01, 0x00, 0x00, 0x00, 0x03, 0x00, 0x00, 0x00, 0xee, 0xfd, 0xff, 0xff, 0x00, 0x00, 0x00, 0x01, 0x14, 0x00, 0x00, 0x00, 0x1c, 0x00, 0x00, 0x00, 0x1c, 0x00, 0x00, 0x00, 0x06, 0x00, 0x00, 0x00, 0x7c, 0x00, 0x00, 0x00, 0x02, 0x00, 0x00, 0x00, 0xff, 0xff, 0xff, 0xff, 0x20, 0x00, 0x00, 0x00, 0xd8, 0xfd, 0xff, 0xff, 0x61, 0x00, 0x00, 0x00, 0x73, 0x65, 0x71, 0x75, 0x65, 0x6e, 0x74, 0x69, 0x61, 0x6c, 0x5f, 0x31, 0x2f, 0x64, 0x65, 0x6e, 0x73, 0x65, 0x5f, 0x44, 0x65, 0x6e, 0x73, 0x65, 0x31, 0x2f, 0x4d, 0x61, 0x74, 0x4d, 0x75, 0x6c, 0x3b, 0x73, 0x65, 0x71, 0x75, 0x65, 0x6e, 0x74, 0x69, 0x61, 0x6c, 0x5f, 0x31, 0x2f, 0x64, 0x65, 0x6e, 0x73, 0x65, 0x5f, 0x44, 0x65, 0x6e, 0x73, 0x65, 0x31, 0x2f, 0x52, 0x65, 0x6c, 0x75, 0x3b, 0x73, 0x65, 0x71, 0x75, 0x65, 0x6e, 0x74, 0x69, 0x61, 0x6c, 0x5f, 0x31, 0x2f, 0x64, 0x65, 0x6e, 0x73, 0x65, 0x5f, 0x44, 0x65, 0x6e, 0x73, 0x65, 0x31, 0x2f, 0x42, 0x69, 0x61, 0x73, 0x41, 0x64, 0x64, 0x00, 0x00, 0x00, 0x02, 0x00, 0x00, 0x00, 0x01, 0x00, 0x00, 0x00, 0x20, 0x00, 0x00, 0x00, 0x02, 0xff, 0xff, 0xff, 0x00, 0x00, 0x00, 0x01, 0x10, 0x00, 0x00, 0x00, 0x10, 0x00, 0x00, 0x00, 0x05, 0x00, 0x00, 0x00, 0x30, 0x00, 0x00, 0x00, 0x68, 0xfe, 0xff, 0xff, 0x20, 0x00, 0x00, 0x00, 0x73, 0x65, 0x71, 0x75, 0x65, 0x6e, 0x74, 0x69, 0x61, 0x6c, 0x5f, 0x31, 0x2f, 0x64, 0x65, 0x6e, 0x73, 0x65, 0x5f, 0x44, 0x65, 0x6e, 0x73, 0x65, 0x32, 0x2f, 0x4d, 0x61, 0x74, 0x4d, 0x75, 0x6c, 0x00, 0x00, 0x00, 0x00, 0x02, 0x00, 0x00, 0x00, 0x03, 0x00, 0x00, 0x00, 0x20, 0x00, 0x00, 0x00, 0x52, 0xff, 0xff, 0xff, 0x00, 0x00, 0x00, 0x01, 0x10, 0x00, 0x00, 0x00, 0x10, 0x00, 0x00, 0x00, 0x04, 0x00, 0x00, 0x00, 0x30, 0x00, 0x00, 0x00, 0xb8, 0xfe, 0xff, 0xff, 0x20, 0x00, 0x00, 0x00, 0x73, 0x65, 0x71, 0x75, 0x65, 0x6e, 0x74, 0x69, 0x61, 0x6c, 0x5f, 0x31, 0x2f, 0x64, 0x65, 0x6e, 0x73, 0x65, 0x5f, 0x44, 0x65, 0x6e, 0x73, 0x65, 0x31, 0x2f, 0x4d, 0x61, 0x74, 0x4d, 0x75, 0x6c, 0x00, 0x00, 0x00, 0x00, 0x02, 0x00, 0x00, 0x00, 0x20, 0x00, 0x00, 0x00, 0x1e, 0x00, 0x00, 0x00, 0xa2, 0xff, 0xff, 0xff, 0x00, 0x00, 0x00, 0x01, 0x10, 0x00, 0x00, 0x00, 0x10, 0x00, 0x00, 0x00, 0x03, 0x00, 0x00, 0x00, 0x40, 0x00, 0x00, 0x00, 0x08, 0xff, 0xff, 0xff, 0x30, 0x00, 0x00, 0x00, 0x73, 0x65, 0x71, 0x75, 0x65, 0x6e, 0x74, 0x69, 0x61, 0x6c, 0x5f, 0x31, 0x2f, 0x64, 0x65, 0x6e, 0x73, 0x65, 0x5f, 0x44, 0x65, 0x6e, 0x73, 0x65, 0x31, 0x2f, 0x42, 0x69, 0x61, 0x73, 0x41, 0x64, 0x64, 0x2f, 0x52, 0x65, 0x61, 0x64, 0x56, 0x61, 0x72, 0x69, 0x61, 0x62, 0x6c, 0x65, 0x4f, 0x70, 0x00, 0x00, 0x00, 0x00, 0x01, 0x00, 0x00, 0x00, 0x20, 0x00, 0x00, 0x00, 0x00, 0x00, 0x16, 0x00, 0x18, 0x00, 0x14, 0x00, 0x00, 0x00, 0x10, 0x00, 0x0c, 0x00, 0x08, 0x00, 0x00, 0x00, 0x00, 0x00, 0x00, 0x00, 0x07, 0x00, 0x16, 0x00, 0x00, 0x00, 0x00, 0x00, 0x00, 0x01, 0x10, 0x00, 0x00, 0x00, 0x10, 0x00, 0x00, 0x00, 0x02, 0x00, 0x00, 0x00, 0x40, 0x00, 0x00, 0x00, 0x7c, 0xff, 0xff, 0xff, 0x30, 0x00, 0x00, 0x00, 0x73, 0x65, 0x71, 0x75, 0x65, 0x6e, 0x74, 0x69, 0x61, 0x6c, 0x5f, 0x31, 0x2f, 0x64, 0x65, 0x6e, 0x73, 0x65, 0x5f, 0x44, 0x65, 0x6e, 0x73, 0x65, 0x32, 0x2f, 0x42, 0x69, 0x61, 0x73, 0x41, 0x64, 0x64, 0x2f, 0x52, 0x65, 0x61, 0x64, 0x56, 0x61, 0x72, 0x69, 0x61, 0x62, 0x6c, 0x65, 0x4f, 0x70, 0x00, 0x00, 0x00, 0x00, 0x01, 0x00, 0x00, 0x00, 0x03, 0x00, 0x00, 0x00, 0x00, 0x00, 0x16, 0x00, 0x1c, 0x00, 0x18, 0x00, 0x00, 0x00, 0x14, 0x00, 0x10, 0x00, 0x0c, 0x00, 0x00, 0x00, 0x00, 0x00, 0x08, 0x00, 0x07, 0x00, 0x16, 0x00, 0x00, 0x00, 0x00, 0x00, 0x00, 0x01, 0x14, 0x00, 0x00, 0x00, 0x20, 0x00, 0x00, 0x00, 0x20, 0x00, 0x00, 0x00, 0x01, 0x00, 0x00, 0x00, 0x38, 0x00, 0x00, 0x00, 0x02, 0x00, 0x00, 0x00, 0xff, 0xff, 0xff, 0xff, 0x1e, 0x00, 0x00, 0x00, 0x04, 0x00, 0x04, 0x00, 0x04, 0x00, 0x00, 0x00, 0x18, 0x00, 0x00, 0x00, 0x73, 0x65, 0x72, 0x76, 0x69, 0x6e, 0x67, 0x5f, 0x64, 0x65, 0x66, 0x61, 0x75, 0x6c, 0x74, 0x5f, 0x69, 0x6e, 0x70, 0x75, 0x74, 0x31, 0x3a, 0x30, 0x00, 0x00, 0x00, 0x00, 0x02, 0x00, 0x00, 0x00, 0x01, 0x00, 0x00, 0x00, 0x1e, 0x00, 0x00, 0x00, 0x02, 0x00, 0x00, 0x00, 0x20, 0x00, 0x00, 0x00, 0x04, 0x00, 0x00, 0x00, 0xf4, 0xff, 0xff, 0xff, 0x19, 0x00, 0x00, 0x00, 0x00, 0x00, 0x00, 0x19, 0x0c, 0x00, 0x0c, 0x00, 0x0b, 0x00, 0x00, 0x00, 0x00, 0x00, 0x04, 0x00, 0x0c, 0x00, 0x00, 0x00, 0x09, 0x00, 0x00, 0x00, 0x00, 0x00, 0x00, 0x09};
const int model_data_len = 6132;