
#ifdef __has_attribute
#define HAVE_ATTRIBUTE(x) __has_attribute(x)
#else
#define HAVE_ATTRIBUTE(x) 0
#endif
#if HAVE_ATTRIBUTE(aligned) || (defined(__GNUC__) && !defined(__clang__))
#define DATA_ALIGN_ATTRIBUTE __attribute__((aligned(4)))
#else
#define DATA_ALIGN_ATTRIBUTE
#endif

const unsigned char model_data[] DATA_ALIGN_ATTRIBUTE = {0x1c, 0x00, 0x00, 0x00, 0x54, 0x46, 0x4c, 0x33, 0x14, 0x00, 0x20, 0x00, 0x1c, 0x00, 0x18, 0x00, 0x14, 0x00, 0x10, 0x00, 0x0c, 0x00, 0x00, 0x00, 0x08, 0x00, 0x04, 0x00, 0x14, 0x00, 0x00, 0x00, 0x1c, 0x00, 0x00, 0x00, 0x94, 0x00, 0x00, 0x00, 0xec, 0x00, 0x00, 0x00, 0xe8, 0x29, 0x00, 0x00, 0xf8, 0x29, 0x00, 0x00, 0x94, 0x2e, 0x00, 0x00, 0x03, 0x00, 0x00, 0x00, 0x01, 0x00, 0x00, 0x00, 0x10, 0x00, 0x00, 0x00, 0x00, 0x00, 0x0a, 0x00, 0x10, 0x00, 0x0c, 0x00, 0x08, 0x00, 0x04, 0x00, 0x0a, 0x00, 0x00, 0x00, 0x0c, 0x00, 0x00, 0x00, 0x1c, 0x00, 0x00, 0x00, 0x40, 0x00, 0x00, 0x00, 0x0f, 0x00, 0x00, 0x00, 0x73, 0x65, 0x72, 0x76, 0x69, 0x6e, 0x67, 0x5f, 0x64, 0x65, 0x66, 0x61, 0x75, 0x6c, 0x74, 0x00, 0x01, 0x00, 0x00, 0x00, 0x04, 0x00, 0x00, 0x00, 0x94, 0xff, 0xff, 0xff, 0x07, 0x00, 0x00, 0x00, 0x04, 0x00, 0x00, 0x00, 0x0c, 0x00, 0x00, 0x00, 0x64, 0x65, 0x6e, 0x73, 0x65, 0x5f, 0x44, 0x65, 0x6e, 0x73, 0x65, 0x33, 0x00, 0x00, 0x00, 0x00, 0x01, 0x00, 0x00, 0x00, 0x04, 0x00, 0x00, 0x00, 0x06, 0xd6, 0xff, 0xff, 0x04, 0x00, 0x00, 0x00, 0x06, 0x00, 0x00, 0x00, 0x69, 0x6e, 0x70, 0x75, 0x74, 0x31, 0x00, 0x00, 0x02, 0x00, 0x00, 0x00, 0x34, 0x00, 0x00, 0x00, 0x04, 0x00, 0x00, 0x00, 0xdc, 0xff, 0xff, 0xff, 0x0a, 0x00, 0x00, 0x00, 0x04, 0x00, 0x00, 0x00, 0x13, 0x00, 0x00, 0x00, 0x43, 0x4f, 0x4e, 0x56, 0x45, 0x52, 0x53, 0x49, 0x4f, 0x4e, 0x5f, 0x4d, 0x45, 0x54, 0x41, 0x44, 0x41, 0x54, 0x41, 0x00, 0x08, 0x00, 0x0c, 0x00, 0x08, 0x00, 0x04, 0x00, 0x08, 0x00, 0x00, 0x00, 0x09, 0x00, 0x00, 0x00, 0x04, 0x00, 0x00, 0x00, 0x13, 0x00, 0x00, 0x00, 0x6d, 0x69, 0x6e, 0x5f, 0x72, 0x75, 0x6e, 0x74, 0x69, 0x6d, 0x65, 0x5f, 0x76, 0x65, 0x72, 0x73, 0x69, 0x6f, 0x6e, 0x00, 0x0b, 0x00, 0x00, 0x00, 0xf8, 0x28, 0x00, 0x00, 0xf0, 0x28, 0x00, 0x00, 0xd0, 0x28, 0x00, 0x00, 0xc0, 0x26, 0x00, 0x00, 0xb0, 0x08, 0x00, 0x00, 0xa0, 0x00, 0x00, 0x00, 0x98, 0x00, 0x00, 0x00, 0x90, 0x00, 0x00, 0x00, 0x88, 0x00, 0x00, 0x00, 0x68, 0x00, 0x00, 0x00, 0x04, 0x00, 0x00, 0x00, 0xa6, 0xd6, 0xff, 0xff, 0x04, 0x00, 0x00, 0x00, 0x54, 0x00, 0x00, 0x00, 0x0c, 0x00, 0x00, 0x00, 0x08, 0x00, 0x0e, 0x00, 0x08, 0x00, 0x04, 0x00, 0x08, 0x00, 0x00, 0x00, 0x10, 0x00, 0x00, 0x00, 0x24, 0x00, 0x00, 0x00, 0x00, 0x00, 0x06, 0x00, 0x08, 0x00, 0x04, 0x00, 0x06, 0x00, 0x00, 0x00, 0x04, 0x00, 0x00, 0x00, 0x00, 0x00, 0x00, 0x00, 0x00, 0x00, 0x0a, 0x00, 0x10, 0x00, 0x0c, 0x00, 0x08, 0x00, 0x04, 0x00, 0x0a, 0x00, 0x00, 0x00, 0x02, 0x00, 0x00, 0x00, 0x02, 0x00, 0x00, 0x00, 0x04, 0x00, 0x00, 0x00, 0x06, 0x00, 0x00, 0x00, 0x32, 0x2e, 0x31, 0x35, 0x2e, 0x30, 0x00, 0x00, 0x06, 0xd7, 0xff, 0xff, 0x04, 0x00, 0x00, 0x00, 0x10, 0x00, 0x00, 0x00, 0x31, 0x2e, 0x35, 0x2e, 0x30, 0x00, 0x00, 0x00, 0x00, 0x00, 0x00, 0x00, 0x00, 0x00, 0x00, 0x00, 0x2c, 0xd3, 0xff, 0xff, 0x30, 0xd3, 0xff, 0xff, 0x34, 0xd3, 0xff, 0xff, 0x2e, 0xd7, 0xff, 0xff, 0x04, 0x00, 0x00, 0x00, 0x00, 0x08, 0x00, 0x00, 0xd5, 0x79, 0x96, 0xbe, 0xb8, 0x7a, 0x12, 0x3e, 0x3d, 0x0d, 0x68, 0xc0, 0xb8, 0x61, 0x7e, 0x3d, 0x55, 0x8c, 0x0b, 0xc1, 0x31, 0x2f, 0x4f, 0xbd, 0xae, 0x89, 0xc6, 0xbd, 0x44, 0x45, 0xeb, 0x3f, 0x14, 0xb1, 0x0c, 0xbd, 0xe9, 0xcb, 0xf3, 0xbd, 0xec, 0x17, 0x03, 0xbc, 0x08, 0xec, 0xf4, 0x3f, 0xd7, 0xd4, 0xb2, 0x3d, 0x38, 0x51, 0xaa, 0x40, 0xcd, 0x01, 0xed, 0x3d, 0xd8, 0x2f, 0x74, 0xbe, 0x84, 0x9d, 0x38, 0xc1, 0xde, 0x30, 0xce, 0x3d, 0xed, 0x0a, 0x7c, 0x3f, 0xab, 0x2f, 0xa6, 0xbc, 0x31, 0x2b, 0x1b, 0xbe, 0x80, 0x9c, 0x43, 0x3d, 0x2d, 0x69, 0x41, 0x41, 0x85, 0x95, 0x84, 0x40, 0x84, 0x96, 0x80, 0x3f, 0xc8, 0x05, 0xfc, 0x3f, 0xf4, 0xe7, 0xd3, 0xbb, 0x21, 0x50, 0xb9, 0xbd, 0xfb, 0x77, 0x7f, 0xbd, 0x08, 0xbe, 0xfb, 0xbd, 0xbc, 0xfd, 0xf4, 0x3f, 0xe5, 0xef, 0x64, 0x40, 0x42, 0x30, 0x83, 0xbf, 0x07, 0xef, 0xa6, 0x3f, 0xc2, 0x5c, 0x23, 0x3d, 0x34, 0x97, 0xd0, 0x40, 0x67, 0x20, 0x75, 0xbc, 0x03, 0xde, 0x97, 0xbd, 0x74, 0xef, 0x34, 0x3c, 0x4f, 0x38, 0xf6, 0xbd, 0x16, 0x58, 0x1d, 0xc1, 0xb9, 0xfd, 0x4e, 0x3e, 0x0e, 0x00, 0xb8, 0xbd, 0xed, 0xde, 0x9b, 0x40, 0x1b, 0xc9, 0x08, 0xbe, 0xb2, 0x10, 0x92, 0x40, 0xc2, 0x80, 0x86, 0xc0, 0xcb, 0x23, 0xfd, 0xc0, 0x11, 0x72, 0x34, 0x3e, 0xdc, 0x3b, 0xd0, 0x40, 0xe4, 0x52, 0x49, 0x40, 0x40, 0x04, 0x75, 0x40, 0x7e, 0x9d, 0x8c, 0x40, 0x8a, 0xf2, 0x58, 0xbe, 0xb3, 0x72, 0x34, 0x41, 0x8a, 0x9d, 0x9f, 0xbd, 0xae, 0x5d, 0xd3, 0xbd, 0x07, 0x2e, 0x86, 0xbe, 0x0a, 0x01, 0x75, 0x3d, 0x80, 0x55, 0x78, 0x3c, 0x78, 0x98, 0x05, 0x40, 0xaf, 0x1a, 0xb9, 0xbc, 0x36, 0xb3, 0x88, 0x3b, 0xc2, 0x00, 0x57, 0x3c, 0xc6, 0xbd, 0x94, 0xbd, 0x70, 0xd1, 0x6e, 0xbf, 0x95, 0xb6, 0x7b, 0xbd, 0xd8, 0xeb, 0xb5, 0x3d, 0x26, 0x99, 0x7b, 0x3d, 0x73, 0x99, 0x58, 0x3d, 0xba, 0xef, 0xb8, 0x3f, 0xb2, 0xf1, 0xdc, 0xc0, 0xaa, 0x6a, 0x26, 0xbe, 0x56, 0xa8, 0x08, 0xc1, 0xa6, 0xdc, 0xcf, 0x40, 0x68, 0x86, 0x12, 0xbe, 0xd0, 0xb2, 0x56, 0xbd, 0x5f, 0x6b, 0x2f, 0xbf, 0x77, 0x68, 0x36, 0x40, 0x7f, 0x31, 0x0d, 0x3f, 0x95, 0x27, 0x18, 0x3f, 0x28, 0xc4, 0xec, 0x40, 0xad, 0xb1, 0xa4, 0x3d, 0xab, 0x18, 0xce, 0x3f, 0x60, 0x72, 0xb3, 0x3d, 0x1a, 0xff, 0xe7, 0x40, 0x64, 0x71, 0x6d, 0xc0, 0xf4, 0xf4, 0x39, 0x3f, 0x4e, 0xa2, 0x0a, 0x3d, 0x1b, 0x67, 0x22, 0xbe, 0xb8, 0x0e, 0xbf, 0xc0, 0x43, 0x63, 0x44, 0x41, 0x97, 0xb8, 0x0e, 0xbe, 0x25, 0xd6, 0xd5, 0xc0, 0xdf, 0x98, 0xdd, 0x3d, 0x98, 0x03, 0xe5, 0xc0, 0x7e, 0x54, 0xd8, 0xbd, 0xea, 0xa8, 0xe6, 0xbd, 0x79, 0x68, 0x7b, 0x40, 0x70, 0x4e, 0x29, 0xbe, 0x30, 0xbc, 0xf1, 0xbc, 0x35, 0xc6, 0x3e, 0x3e, 0xe8, 0xa0, 0xa4, 0x40, 0x4c, 0x10, 0x0c, 0xc1, 0x23, 0xa6, 0x2a, 0x3c, 0x6a, 0xf3, 0x53, 0xbd, 0xe6, 0xc8, 0x93, 0xbd, 0x72, 0x92, 0x4b, 0xb9, 0x96, 0x83, 0xb1, 0xc0, 0x54, 0x19, 0xa1, 0x40, 0x96, 0xe6, 0xb8, 0x3d, 0x7d, 0x91, 0x8d, 0x40, 0xd1, 0x3f, 0xdc, 0xc0, 0x38, 0x36, 0xd2, 0xc0, 0x4f, 0x6b, 0xfc, 0xc0, 0xd2, 0xa7, 0xf6, 0xbd, 0x7b, 0x5e, 0xd1, 0x3c, 0xe1, 0xcd, 0x17, 0x40, 0x3e, 0x46, 0xf2, 0x3d, 0x59, 0x3b, 0xdc, 0x3c, 0x29, 0xa5, 0x37, 0xbd, 0x91, 0xb0, 0x7d, 0xbc, 0xa5, 0xff, 0x09, 0xbc, 0x51, 0x9c, 0x1e, 0x40, 0x86, 0x4c, 0x70, 0x3e, 0xad, 0x7d, 0x8c, 0xbd, 0x6c, 0x0c, 0x97, 0x40, 0x85, 0xeb, 0xc1, 0xbd, 0x07, 0x0b, 0x5a, 0x3f, 0xc6, 0x48, 0x2d, 0xbe, 0x30, 0x97, 0xb3, 0x3f, 0xee, 0xb8, 0x39, 0xbe, 0xdd, 0xea, 0x38, 0x3f, 0xc9, 0xea, 0x45, 0xbe, 0x9e, 0x1a, 0x75, 0xbe, 0x09, 0x04, 0x1b, 0x3d, 0x16, 0xc9, 0x3b, 0x3d, 0x92, 0x5c, 0x63, 0x3d, 0x36, 0x43, 0x02, 0xbe, 0x44, 0xad, 0x13, 0xbf, 0xca, 0x5a, 0x0f, 0x3e, 0x5b, 0x01, 0x37, 0xc0, 0xaf, 0xa8, 0x0b, 0x3d, 0x6d, 0x66, 0xbc, 0x3b, 0x98, 0xd9, 0x63, 0xbf, 0x4b, 0x4e, 0x08, 0x3e, 0x1b, 0x47, 0xd9, 0xbd, 0x8c, 0x02, 0xca, 0x3c, 0xd1, 0x31, 0x34, 0x3e, 0xb0, 0x1c, 0x88, 0xbd, 0x4f, 0xea, 0x32, 0xc1, 0x5b, 0xaf, 0x41, 0x40, 0x6d, 0xb2, 0x6a, 0x3f, 0x91, 0x41, 0xf2, 0xbf, 0xbf, 0xaa, 0xb9, 0xbe, 0x0f, 0xdf, 0xbe, 0xbd, 0x74, 0x04, 0x00, 0x3e, 0x01, 0xc5, 0x94, 0xbe, 0xd1, 0xfe, 0x0c, 0x3f, 0x33, 0xd5, 0x2e, 0xbf, 0x67, 0x50, 0x84, 0xbf, 0x33, 0x01, 0x47, 0xbf, 0x6d, 0xcd, 0x78, 0xbe, 0x09, 0x18, 0x91, 0xbf, 0x53, 0x18, 0x13, 0x3e, 0xf3, 0x51, 0x47, 0xbe, 0x3b, 0xda, 0x70, 0xbb, 0xef, 0x0c, 0x40, 0x3e, 0xd1, 0x8d, 0x25, 0x3f, 0x8e, 0x84, 0xca, 0xbd, 0xc1, 0x72, 0xee, 0xbc, 0xaf, 0xa7, 0x05, 0xc0, 0xd3, 0x47, 0xb1, 0xbe, 0x4d, 0x8e, 0x64, 0xc0, 0xbd, 0xe2, 0xab, 0x40, 0x16, 0x7a, 0x96, 0x40, 0x51, 0x8d, 0x2c, 0xbd, 0x5a, 0xbf, 0x53, 0xc0, 0x90, 0x39, 0x85, 0xbf, 0xdd, 0x52, 0x12, 0x3d, 0x38, 0xfa, 0x35, 0xc0, 0xda, 0x37, 0xbd, 0xbd, 0xe6, 0x07, 0x07, 0xc0, 0xd2, 0xf0, 0x36, 0x3e, 0x40, 0xf3, 0x49, 0x3e, 0xcd, 0x1b, 0xaa, 0xbd, 0xd4, 0xeb, 0x1b, 0xbe, 0x12, 0x41, 0x15, 0xbd, 0xcd, 0x9e, 0xd8, 0x3e, 0x6d, 0x16, 0x40, 0x3e, 0xd9, 0xf0, 0x6f, 0xbd, 0xb3, 0x1e, 0x74, 0xbd, 0x9c, 0x81, 0xdc, 0xbd, 0x33, 0xfb, 0x90, 0x3f, 0x6f, 0x47, 0xe0, 0xbd, 0x76, 0x8b, 0x55, 0x3d, 0x10, 0xde, 0x7a, 0xbd, 0x8c, 0x5b, 0xc2, 0x3d, 0xc2, 0x69, 0x1c, 0xbf, 0x88, 0x50, 0x71, 0x40, 0x7e, 0xe7, 0x0f, 0x3e, 0x56, 0xd3, 0x5a, 0x40, 0x78, 0x49, 0xfc, 0x3e, 0x8e, 0x32, 0xfc, 0xbd, 0xe9, 0x88, 0x2b, 0xbe, 0xeb, 0x54, 0x5e, 0x3f, 0x74, 0xef, 0x27, 0x40, 0x78, 0xa4, 0x8f, 0xbe, 0x0a, 0xde, 0x3f, 0x3e, 0xbb, 0x5f, 0x0d, 0x40, 0x0f, 0x43, 0x99, 0xbe, 0x10, 0xec, 0x6d, 0xbf, 0x26, 0x72, 0x31, 0x3e, 0x66, 0x08, 0x16, 0x40, 0xfd, 0x83, 0xa5, 0x40, 0x63, 0x2a, 0x35, 0xc0, 0x85, 0x19, 0xa7, 0xbe, 0x48, 0xe2, 0x0a, 0xbe, 0x4e, 0x12, 0xcf, 0xc0, 0xbb, 0xb5, 0x9c, 0xc0, 0xb3, 0xc4, 0x02, 0x3e, 0x28, 0x69, 0x36, 0x40, 0xd8, 0x49, 0x1a, 0x3e, 0x8f, 0x6a, 0x4a, 0xbf, 0xb8, 0xa9, 0x66, 0xbe, 0x3e, 0x58, 0xfd, 0x3d, 0xaf, 0x9c, 0x00, 0x3f, 0xa6, 0x5f, 0x38, 0xbc, 0xeb, 0x48, 0x0b, 0x3e, 0x59, 0x26, 0x3e, 0x3e, 0x90, 0xf7, 0x81, 0xc0, 0x26, 0x23, 0x99, 0x40, 0x47, 0x37, 0x4e, 0x3e, 0xcd, 0xaf, 0x2e, 0xbe, 0xd8, 0xab, 0xe2, 0xbd, 0x3a, 0xbc, 0x3e, 0x3e, 0x3a, 0x02, 0x25, 0xc0, 0x88, 0xd6, 0x60, 0xbf, 0x25, 0x9b, 0xa0, 0xbd, 0xa5, 0x7f, 0xd3, 0x3f, 0xc2, 0xb1, 0x74, 0x40, 0xe7, 0x03, 0x0d, 0x40, 0x7f, 0xc5, 0xec, 0x3f, 0x44, 0x54, 0xad, 0x3d, 0x7c, 0x6f, 0x43, 0x3d, 0x8d, 0x02, 0x44, 0xbf, 0x5e, 0x8c, 0xcb, 0xba, 0xb3, 0x12, 0xb0, 0xbb, 0x59, 0xa5, 0x3d, 0xbe, 0x96, 0x0b, 0x38, 0xbe, 0xe0, 0x50, 0xb4, 0xbd, 0xdd, 0xbc, 0xdd, 0xc0, 0x0c, 0x33, 0x8a, 0xbb, 0xe1, 0x37, 0x52, 0xbe, 0xd9, 0x6b, 0x0f, 0xc0, 0xa7, 0xbf, 0x93, 0x3c, 0x4f, 0xa3, 0x1f, 0xbf, 0x6d, 0xdb, 0x14, 0xbe, 0x71, 0xd5, 0x73, 0xbf, 0x2e, 0x18, 0x16, 0x3d, 0x61, 0x73, 0x16, 0x40, 0x75, 0x08, 0x6d, 0xbe, 0xe1, 0xd1, 0xde, 0xbd, 0x8c, 0xea, 0xd4, 0x3f, 0x4f, 0x68, 0xb3, 0xbc, 0xdf, 0x7d, 0xb7, 0x3d, 0xab, 0x09, 0xa7, 0x3d, 0x75, 0x36, 0x80, 0x3f, 0x15, 0x17, 0x3b, 0xbe, 0x3e, 0xdb, 0x5b, 0xbf, 0xa4, 0xc0, 0x0a, 0x3e, 0x0d, 0x3a, 0x7a, 0xbd, 0x10, 0x61, 0x18, 0x41, 0x46, 0x0b, 0x82, 0x3d, 0x4e, 0xae, 0x9d, 0xbf, 0x04, 0x6b, 0x92, 0x3c, 0x29, 0xe7, 0xca, 0xbd, 0xa1, 0x49, 0x4a, 0xbe, 0x6e, 0x52, 0x72, 0xc0, 0xd0, 0xb7, 0xc5, 0xc0, 0x4a, 0xc8, 0x72, 0x3c, 0x5f, 0x26, 0x91, 0xbe, 0x3f, 0x94, 0xb0, 0xbd, 0x45, 0x8a, 0x05, 0xbe, 0x00, 0x59, 0xdf, 0x3d, 0x81, 0xcd, 0x3f, 0x3d, 0x84, 0xd2, 0x4e, 0xbf, 0xe7, 0x89, 0xf5, 0xbe, 0x0a, 0x11, 0x1f, 0x40, 0xc7, 0x0c, 0xda, 0xbf, 0x5f, 0x1e, 0x51, 0xbd, 0x2a, 0x32, 0x9e, 0xc0, 0xbd, 0x94, 0x3f, 0x3e, 0x83, 0x00, 0xda, 0xbd, 0x85, 0x7c, 0x6a, 0x3c, 0xf0, 0xc5, 0x33, 0x3d, 0xa4, 0x1b, 0xf5, 0x40, 0x12, 0x89, 0x6a, 0xbc, 0x59, 0x2c, 0xf6, 0xbd, 0x92, 0x16, 0x72, 0xbf, 0x32, 0x8d, 0xaf, 0xbe, 0xff, 0x1f, 0xf3, 0xbe, 0xc9, 0xa9, 0x63, 0x40, 0x38, 0x58, 0x69, 0x40, 0x88, 0xe1, 0xd3, 0xbd, 0xba, 0x2d, 0xa5, 0xc0, 0x56, 0x95, 0x65, 0x3f, 0xe8, 0xeb, 0xff, 0xbf, 0x08, 0x40, 0xec, 0x3d, 0x2e, 0xa9, 0x86, 0xbc, 0x4e, 0xff, 0x0c, 0xc1, 0xff, 0xd5, 0x04, 0xbe, 0xe3, 0x3b, 0xea, 0xbd, 0x83, 0xbe, 0x01, 0x3d, 0x11, 0x86, 0x15, 0xbe, 0xc2, 0x70, 0x2c, 0x3d, 0x77, 0xc3, 0x99, 0xbf, 0xc5, 0x71, 0x3f, 0xbd, 0x26, 0x4e, 0xbd, 0x3d, 0x4a, 0xf2, 0x9c, 0x3d, 0x95, 0xbb, 0x53, 0xbe, 0x78, 0x8b, 0xa4, 0xbe, 0x07, 0x83, 0xf9, 0xbd, 0x5f, 0x32, 0x1a, 0xbd, 0x0c, 0xda, 0x44, 0xbd, 0x6d, 0xdd, 0x44, 0xbe, 0x4d, 0x71, 0xb5, 0xbf, 0x4c, 0xf8, 0x15, 0x40, 0x65, 0x9b, 0x0f, 0x3e, 0x43, 0x06, 0x44, 0x40, 0x41, 0x14, 0x4c, 0xc0, 0xbf, 0xc7, 0x45, 0xbd, 0x94, 0xaf, 0x3a, 0x3b, 0x2a, 0x75, 0x59, 0x3e, 0xdc, 0x4c, 0xed, 0xbf, 0x2d, 0x00, 0xb4, 0xbf, 0x27, 0x20, 0x6f, 0xbf, 0x9d, 0x8c, 0x03, 0xc1, 0x0d, 0xbf, 0xcd, 0xbd, 0x3c, 0x42, 0x68, 0xbf, 0x2b, 0x6d, 0x1e, 0x3e, 0xc6, 0xa3, 0x2d, 0xc1, 0xee, 0x1a, 0x12, 0xc0, 0xab, 0xa5, 0x9b, 0xbf, 0xe4, 0xc4, 0xe6, 0xbd, 0x61, 0x7a, 0x43, 0x3d, 0xc1, 0xe6, 0x67, 0x40, 0xd3, 0x0e, 0x87, 0xc1, 0x93, 0xd5, 0x35, 0xbe, 0x18, 0x9a, 0x77, 0x3f, 0x52, 0xd7, 0x3a, 0xbe, 0x72, 0x08, 0x16, 0x41, 0x82, 0x35, 0x08, 0xbe, 0x44, 0xe3, 0xd7, 0xbd, 0xcd, 0x5a, 0x22, 0xc0, 0x8f, 0xd6, 0x0d, 0xbe, 0x53, 0x04, 0x15, 0xbe, 0x56, 0x23, 0x4d, 0x3e, 0x44, 0xed, 0x6b, 0xbf, 0x08, 0x52, 0x7f, 0x40, 0xa9, 0xde, 0xc3, 0x3d, 0xf5, 0x77, 0x7f, 0x3d, 0x39, 0xe5, 0xc5, 0xbd, 0xf5, 0x97, 0x34, 0xbe, 0x05, 0x5c, 0x97, 0x40, 0xcd, 0x8c, 0x41, 0xc0, 0x77, 0xae, 0x07, 0x3b, 0x46, 0x2a, 0xe7, 0xbf, 0x1b, 0xe4, 0xb0, 0x40, 0xf2, 0xc3, 0x84, 0x3f, 0x48, 0x33, 0x4d, 0x40, 0xbe, 0x51, 0x76, 0xbe, 0xf7, 0xfc, 0x3d, 0x3e, 0x0d, 0x7c, 0x6a, 0xbe, 0x07, 0x1b, 0x85, 0xbc, 0x9f, 0xb1, 0x81, 0xbd, 0xfb, 0x38, 0xd5, 0xbd, 0x80, 0xb2, 0x20, 0x3e, 0x97, 0x84, 0x3b, 0xbe, 0xf9, 0x4a, 0x31, 0xbe, 0x9c, 0xcf, 0xef, 0xbd, 0x50, 0x95, 0x9b, 0xbe, 0x0e, 0xbe, 0x36, 0xc0, 0x8c, 0x41, 0x01, 0x3e, 0x25, 0x2a, 0x52, 0x3e, 0x99, 0x41, 0x30, 0x3e, 0x7f, 0x47, 0x86, 0xbf, 0x33, 0xb9, 0x13, 0xbe, 0xe3, 0x7c, 0x97, 0x3f, 0xa3, 0x40, 0xfa, 0x3d, 0x90, 0xd5, 0x02, 0xbe, 0x08, 0x9f, 0x05, 0xc1, 0x95, 0xa2, 0x38, 0x3c, 0x9b, 0x4d, 0x8f, 0x3d, 0x83, 0x72, 0x43, 0xbd, 0xa5, 0x94, 0x83, 0xc0, 0xc0, 0xed, 0x13, 0x3d, 0x56, 0x06, 0x98, 0xc0, 0xa5, 0x01, 0xbc, 0xbd, 0xdd, 0x0e, 0x53, 0x3e, 0xa8, 0x59, 0x1e, 0x40, 0xf4, 0xe5, 0xb8, 0x3d, 0xa3, 0x93, 0xda, 0xbe, 0x22, 0x1d, 0x18, 0x3e, 0x59, 0xf4, 0x4a, 0xbd, 0x3d, 0xf4, 0x88, 0x3d, 0x39, 0xd3, 0x26, 0xc1, 0x9b, 0x26, 0x3a, 0xc0, 0x22, 0x9f, 0x7a, 0xbf, 0x5e, 0xc2, 0x61, 0xbd, 0x9b, 0x88, 0xd0, 0x3d, 0x5e, 0x38, 0x85, 0xbd, 0x0c, 0x9e, 0xc2, 0xbd, 0xf4, 0xed, 0x15, 0x3e, 0xf3, 0x92, 0x79, 0xc0, 0xb4, 0xb9, 0x0d, 0xc0, 0xa8, 0x02, 0x5e, 0xc0, 0x5e, 0x06, 0xad, 0xbd, 0x80, 0x0a, 0x2e, 0x3e, 0x2b, 0x73, 0x49, 0xbf, 0x8b, 0x46, 0xcc, 0x3d, 0xff, 0x24, 0x2f, 0xbe, 0x4c, 0x58, 0x31, 0xbe, 0xc4, 0x48, 0xd3, 0xbc, 0x76, 0x0d, 0x13, 0xbf, 0xb5, 0xab, 0x44, 0x3e, 0xf6, 0xc6, 0x2e, 0x3e, 0xda, 0xf5, 0x2f, 0xc1, 0x95, 0x6d, 0x45, 0xbd, 0x69, 0x2d, 0x8a, 0xc0, 0x60, 0x90, 0xc2, 0xc0, 0xfc, 0xca, 0x3c, 0x3e, 0x70, 0x6a, 0x12, 0xbe, 0x54, 0x2c, 0x2c, 0xc0, 0x6f, 0x9b, 0x77, 0xc0, 0xcd, 0xb4, 0xb0, 0xc0, 0xd2, 0x4a, 0x97, 0xc0, 0xa0, 0x9f, 0x62, 0xbd, 0x62, 0xd5, 0x1c, 0xc0, 0xc7, 0xe7, 0x22, 0xbe, 0xcf, 0x24, 0x73, 0xbd, 0xde, 0x8d, 0x47, 0xbe, 0x64, 0xb5, 0x4d, 0x3e, 0xdc, 0x65, 0x85, 0xbc, 0x75, 0xcb, 0x78, 0xc0, 0x0b, 0xba, 0xa7, 0xbd, 0x6b, 0x72, 0x50, 0xbd, 0x62, 0x53, 0xd2, 0x3d, 0x51, 0x7a, 0xd1, 0xbc, 0x93, 0x34, 0x62, 0xbe, 0x8e, 0x86, 0xe5, 0xbc, 0x63, 0x09, 0xd0, 0x3d, 0xc1, 0x70, 0x08, 0xbe, 0x39, 0xbe, 0xe3, 0x3d, 0xa2, 0xaa, 0xea, 0x3d, 0x51, 0x8d, 0x25, 0xc0, 0xd7, 0xba, 0x0d, 0xbe, 0x6b, 0xc4, 0xdc, 0x3e, 0x89, 0xbc, 0xa5, 0xbf, 0xe5, 0x6e, 0x19, 0x3d, 0x52, 0x19, 0x21, 0x3e, 0x89, 0x96, 0x86, 0x3d, 0x25, 0x16, 0xb7, 0xc0, 0x2e, 0xe6, 0xa4, 0x3e, 0x7c, 0x9f, 0x29, 0xbd, 0xc7, 0xd9, 0xa3, 0xbf, 0x42, 0x41, 0xe2, 0x3d, 0x3f, 0x6c, 0x91, 0x3e, 0x0b, 0x68, 0x09, 0x3d, 0x63, 0x2e, 0x74, 0xbf, 0x09, 0x8c, 0xe6, 0x3e, 0x9b, 0x58, 0x81, 0x3e, 0x17, 0x84, 0x8d, 0xbd, 0x84, 0xc2, 0xf9, 0x3a, 0x1d, 0x05, 0x69, 0x40, 0x51, 0xea, 0xe5, 0xc0, 0x08, 0xc5, 0x09, 0xbe, 0x02, 0xe3, 0x23, 0xbe, 0x51, 0xae, 0xa0, 0x3c, 0x90, 0x94, 0x03, 0xc0, 0x19, 0x55, 0x13, 0x3e, 0xd6, 0x4c, 0xdd, 0x3d, 0xd7, 0x5e, 0x51, 0xc0, 0x5d, 0x81, 0x31, 0x3d, 0x28, 0x0f, 0xea, 0x3c, 0x33, 0x9a, 0xcd, 0x3d, 0xb0, 0x92, 0x9a, 0xc0, 0xc3, 0xe3, 0x4c, 0xc0, 0xff, 0x9d, 0x2f, 0xbe, 0xc1, 0x6e, 0x01, 0x3e, 0x45, 0x9c, 0x10, 0x3d, 0xe0, 0x7e, 0x0c, 0xbe, 0x10, 0x47, 0xea, 0x3f, 0xf1, 0x4f, 0x37, 0x3f, 0x2a, 0x93, 0x50, 0x3d, 0x34, 0x64, 0x82, 0xc0, 0xc9, 0x53, 0x30, 0xc1, 0x2b, 0x6d, 0x20, 0xbf, 0x2b, 0x66, 0xab, 0xbf, 0x1f, 0xcd, 0x30, 0xbe, 0x3c, 0x38, 0x08, 0x3d, 0xa9, 0xfb, 0x3d, 0xc0, 0xfc, 0x60, 0x98, 0x3d, 0x4c, 0x5b, 0xc3, 0xbd, 0xd0, 0x0e, 0x38, 0x3e, 0xcf, 0x45, 0xd6, 0xbc, 0x12, 0xd0, 0x0d, 0xbe, 0x56, 0x8c, 0x6d, 0xc0, 0xb6, 0x21, 0x61, 0x3e, 0xdd, 0x99, 0xfe, 0xbb, 0xc1, 0x6d, 0xf6, 0xc0, 0x8a, 0x33, 0xeb, 0xbd, 0x3a, 0xdf, 0xff, 0xff, 0x04, 0x00, 0x00, 0x00, 0x00, 0x1e, 0x00, 0x00, 0xa0, 0x62, 0x9b, 0xbe, 0x63, 0x5b, 0x1b, 0xbf, 0xe3, 0x30, 0x96, 0xbe, 0x6f, 0x2c, 0x3e, 0x3e, 0xcd, 0xc8, 0xa5, 0xbd, 0x53, 0xa3, 0x54, 0xbf, 0x1d, 0xcd, 0x33, 0xbf, 0xaa, 0x66, 0xc0, 0xbe, 0xe3, 0xc0, 0xa1, 0x3e, 0x8c, 0xb9, 0x0f, 0xbf, 0x13, 0x49, 0x63, 0xbc, 0x35, 0x69, 0xda, 0xbe, 0x13, 0x28, 0x01, 0xbe, 0x9d, 0xb8, 0x8a, 0xbe, 0x47, 0xe1, 0xb9, 0x3e, 0xfe, 0xf1, 0x0b, 0xbe, 0x1d, 0x6a, 0xa4, 0xbd, 0x92, 0x68, 0x92, 0xbe, 0xa2, 0xc4, 0xd1, 0xbd, 0x4b, 0x5d, 0x06, 0x3e, 0x59, 0xd8, 0x5b, 0xbd, 0x29, 0xa7, 0x81, 0xbe, 0xc6, 0xee, 0x14, 0xbe, 0xa9, 0xc2, 0xbe, 0xbe, 0x0d, 0xc4, 0x93, 0x3d, 0xbf, 0xc7, 0xdf, 0x3d, 0x66, 0x1c, 0x42, 0xbe, 0x51, 0x5a, 0x11, 0xbe, 0xac, 0x8a, 0x0b, 0xbd, 0xc3, 0xb7, 0x3d, 0xbe, 0x63, 0xbc, 0x4b, 0xbf, 0x68, 0xb6, 0xf4, 0x3f, 0x1f, 0x1e, 0x2b, 0x3f, 0x04, 0xd7, 0x76, 0x3f, 0xd0, 0x8c, 0x44, 0xbd, 0x79, 0xec, 0x03, 0xba, 0x6d, 0xd3, 0xbe, 0x3f, 0xd5, 0x96, 0xe5, 0x3e, 0x55, 0x7a, 0x77, 0x3d, 0x6e, 0x89, 0x12, 0x3e, 0x67, 0x7f, 0xac, 0x3f, 0xf6, 0xd5, 0x48, 0xc0, 0x91, 0xdd, 0x56, 0xc0, 0xff, 0x83, 0xb7, 0x3d, 0x2d, 0xe5, 0xe4, 0x3f, 0xd6, 0xde, 0x9a, 0x3a, 0x12, 0xb0, 0x82, 0x3d, 0x5f, 0x32, 0x77, 0xbd, 0x3f, 0x55, 0x63, 0x3d, 0x4e, 0xb2, 0x12, 0xbd, 0x10, 0x51, 0xa3, 0xbc, 0xf4, 0xef, 0x3d, 0x3d, 0x82, 0xbe, 0x04, 0xbe, 0x72, 0xe0, 0x13, 0xbe, 0x92, 0x06, 0xf7, 0x3d, 0x8a, 0x03, 0xec, 0xbd, 0xd2, 0x63, 0x6d, 0xbd, 0x19, 0x6d, 0x09, 0xbd, 0xb7, 0x03, 0xe3, 0xbd, 0x76, 0x2c, 0xfb, 0xbc, 0x21, 0x06, 0xb1, 0x3f, 0xb9, 0x59, 0xbb, 0xbf, 0x52, 0x14, 0xa9, 0x3f, 0x40, 0xcd, 0x1e, 0x3f, 0x33, 0x99, 0xf0, 0x3e, 0xfa, 0x56, 0xe5, 0x3e, 0x4b, 0xc1, 0xb3, 0xbf, 0xf0, 0x71, 0x79, 0x3e, 0x32, 0x29, 0x0a, 0x40, 0x25, 0x8f, 0xfc, 0xbd, 0xc3, 0x56, 0x43, 0x3e, 0x25, 0xf0, 0x05, 0xc0, 0x69, 0x37, 0x72, 0xc0, 0x35, 0xe0, 0x2a, 0x40, 0x96, 0x6e, 0x48, 0xbf, 0x8a, 0xa3, 0x6c, 0xbd, 0xe0, 0x3c, 0xbc, 0x3d, 0x1a, 0x10, 0x63, 0xbe, 0x2b, 0x1d, 0x9a, 0xbb, 0xd5, 0xcd, 0x50, 0xbe, 0x4d, 0x3b, 0x42, 0xbe, 0x58, 0x17, 0x74, 0xbd, 0xa2, 0x1b, 0x2b, 0xbe, 0x39, 0x46, 0xc2, 0xbd, 0x75, 0xcf, 0x11, 0x3e, 0x62, 0x83, 0x14, 0xbe, 0xeb, 0xdf, 0x05, 0x3d, 0x18, 0xbe, 0x0f, 0xbe, 0x34, 0x48, 0xec, 0x3d, 0x97, 0x01, 0x17, 0x3d, 0x17, 0xac, 0x24, 0x3d, 0xc6, 0x72, 0x84, 0xbe, 0xd6, 0x1e, 0xb3, 0xbd, 0xd3, 0xaf, 0x18, 0xbd, 0x4e, 0x3b, 0xc1, 0xbc, 0x21, 0x4c, 0xf4, 0xbd, 0xe9, 0x89, 0x80, 0xbe, 0x51, 0x60, 0xa2, 0xbd, 0x38, 0x44, 0xa1, 0xbd, 0xb3, 0x74, 0x64, 0xbd, 0x7e, 0x36, 0x88, 0xbe, 0xe2, 0x2e, 0x87, 0x3d, 0x89, 0x63, 0x3c, 0xbe, 0x53, 0x29, 0xac, 0xbd, 0x60, 0x01, 0x8d, 0x3d, 0xa4, 0xb4, 0x50, 0x3b, 0xc5, 0x68, 0xb4, 0xbe, 0x39, 0x38, 0xdc, 0xbe, 0x99, 0xc5, 0xa8, 0x3e, 0xe6, 0x72, 0x95, 0xbd, 0xc1, 0x86, 0x77, 0xbe, 0x44, 0xbf, 0xd5, 0xbe, 0x59, 0x5d, 0x1a, 0xbf, 0xa0, 0x3d, 0xff, 0x3e, 0x33, 0x32, 0x08, 0xbe, 0xc6, 0xbb, 0xcb, 0xbe, 0x40, 0xb3, 0x61, 0x40, 0x8b, 0x40, 0x2b, 0x40, 0xc1, 0x3e, 0x84, 0x3e, 0x9e, 0x5a, 0xc3, 0xbe, 0x79, 0x40, 0x61, 0xbe, 0x4f, 0x90, 0x22, 0xbe, 0xd2, 0x35, 0xcb, 0x3d, 0x7f, 0x24, 0xee, 0xbd, 0x56, 0xf8, 0x0f, 0x3e, 0x11, 0x27, 0xc1, 0xbd, 0xcc, 0xab, 0xc1, 0xbd, 0x57, 0x5a, 0x0d, 0xbe, 0x80, 0xaa, 0x58, 0x3c, 0x4d, 0x6b, 0xc7, 0xbc, 0x74, 0xa0, 0x89, 0xbd, 0x23, 0x9b, 0x69, 0xbd, 0x41, 0xa9, 0xc1, 0xbb, 0xa3, 0x8d, 0x72, 0x3d, 0xe4, 0xb9, 0x40, 0xbd, 0xc3, 0x7a, 0x31, 0xbe, 0x5f, 0x45, 0xe7, 0xbd, 0x94, 0x3f, 0x95, 0xbd, 0x43, 0xe8, 0x2f, 0xbe, 0xe5, 0x98, 0x39, 0x3d, 0x95, 0x95, 0x1b, 0xbe, 0x7d, 0x3d, 0xb1, 0x3d, 0x85, 0xdf, 0xd6, 0x3d, 0x5f, 0xe9, 0x1f, 0xbd, 0xd4, 0x2b, 0x53, 0xbd, 0xd1, 0x9f, 0x05, 0x3d, 0xa6, 0xe6, 0xe9, 0xbc, 0x0c, 0xdc, 0x2b, 0x3d, 0x87, 0x99, 0x63, 0xbe, 0x01, 0x6d, 0xf0, 0xbd, 0x00, 0x06, 0x49, 0xbd, 0x10, 0xa4, 0x43, 0xbe, 0xcc, 0x71, 0x51, 0x3c, 0x60, 0xb8, 0xc3, 0xbd, 0x89, 0x3c, 0xa6, 0x3d, 0xce, 0x68, 0xa9, 0xbd, 0xf0, 0xa1, 0xad, 0x3d, 0xeb, 0x21, 0x28, 0x3e, 0x7b, 0x30, 0xcc, 0x3c, 0xf2, 0x82, 0x5c, 0xbe, 0xc7, 0x6c, 0x15, 0x3e, 0xdd, 0x70, 0x04, 0xbe, 0x80, 0xe7, 0x17, 0xbe, 0xb1, 0x04, 0x8f, 0xbd, 0x24, 0x33, 0x99, 0xbd, 0x5e, 0xb8, 0x1c, 0xbf, 0xd0, 0x19, 0x7c, 0xbe, 0x4a, 0x9a, 0x65, 0xbf, 0x6a, 0xae, 0x35, 0x3f, 0xdb, 0xee, 0xb8, 0xbe, 0x8a, 0x36, 0xc7, 0xbd, 0xcf, 0x5e, 0x75, 0x3e, 0x98, 0xea, 0x78, 0xbf, 0x44, 0x22, 0xc0, 0x3e, 0xd8, 0xa4, 0x18, 0xbd, 0xa9, 0x0b, 0x1b, 0xbe, 0x7a, 0x1e, 0x39, 0x40, 0xd3, 0xaf, 0x2d, 0x40, 0x5a, 0xdd, 0x3e, 0x3f, 0xc9, 0x4c, 0xd0, 0xbc, 0xc2, 0x59, 0x9a, 0x3d, 0xf4, 0x6c, 0x13, 0x3e, 0x96, 0xd1, 0xc5, 0xbc, 0x6e, 0x6b, 0xc7, 0xbd, 0xd5, 0xbc, 0x4b, 0xbd, 0x21, 0xff, 0x22, 0xbe, 0xb0, 0x98, 0x51, 0xbd, 0x85, 0x13, 0xaa, 0xbd, 0x02, 0xae, 0x97, 0x3c, 0x02, 0xd8, 0xb2, 0x3d, 0xba, 0x9b, 0x41, 0xbe, 0xea, 0x7a, 0xb2, 0xbd, 0x8c, 0xdc, 0xd7, 0xbc, 0xe7, 0xe7, 0xa2, 0xbd, 0x98, 0xc3, 0x54, 0xbe, 0xa6, 0x1f, 0x39, 0xbf, 0x40, 0xbf, 0x26, 0xbf, 0x03, 0xd1, 0x19, 0xbf, 0x2d, 0xe9, 0x0f, 0x3e, 0x40, 0xf3, 0x5d, 0xbf, 0x89, 0xcd, 0x2f, 0xbf, 0x67, 0xe2, 0xbc, 0x3e, 0x67, 0xda, 0x46, 0xbf, 0xa8, 0x47, 0x02, 0x3f, 0x32, 0x4a, 0x11, 0xbf, 0x24, 0x17, 0x1d, 0xbe, 0xb8, 0x25, 0xa2, 0x40, 0xb5, 0x2f, 0x3e, 0x40, 0xe1, 0x26, 0x45, 0x3d, 0xb3, 0xcf, 0x67, 0xbe, 0x32, 0x5b, 0x83, 0x3c, 0xd1, 0x60, 0x29, 0x3d, 0x4f, 0xce, 0x0f, 0xbe, 0xc7, 0xba, 0xc0, 0x3d, 0x42, 0xac, 0x8e, 0xbc, 0x68, 0x3e, 0x12, 0xbe, 0xb2, 0xeb, 0xcd, 0x3c, 0x66, 0xa8, 0x49, 0xbe, 0x69, 0x98, 0x26, 0xbe, 0x7d, 0x75, 0x72, 0xbe, 0xbf, 0xc1, 0x9a, 0xbd, 0xf7, 0xe7, 0x4b, 0xbd, 0xa8, 0xd1, 0x93, 0x3d, 0x5e, 0x6c, 0x38, 0xbe, 0x12, 0x61, 0x49, 0x3d, 0xc5, 0x6c, 0xd5, 0xbd, 0xa1, 0xcd, 0x04, 0xbe, 0xaa, 0xef, 0xad, 0x3e, 0x21, 0xf2, 0x27, 0xbc, 0x87, 0x59, 0x5b, 0xbe, 0x88, 0x06, 0x1e, 0xbe, 0x04, 0xa2, 0x8f, 0xbd, 0x62, 0x2f, 0x4a, 0xbe, 0xdd, 0x16, 0xc5, 0xbb, 0x03, 0x51, 0xde, 0x3b, 0xf7, 0xf6, 0x60, 0xbe, 0x01, 0xe5, 0x3b, 0xbe, 0xda, 0x10, 0x09, 0xbd, 0x57, 0x8e, 0x05, 0x3e, 0xc9, 0x95, 0x29, 0xbd, 0xed, 0xba, 0x31, 0xbf, 0xe0, 0xaf, 0x34, 0x3f, 0xfd, 0x98, 0x0a, 0xbf, 0x26, 0x03, 0x94, 0xbe, 0xd2, 0xf1, 0x95, 0xbd, 0xe0, 0x72, 0x8a, 0xbf, 0x67, 0xd0, 0x3f, 0x3e, 0x5f, 0xc2, 0xee, 0xbe, 0x38, 0xb6, 0xed, 0xbf, 0x24, 0x86, 0xe2, 0xbe, 0xde, 0xc2, 0x49, 0xbe, 0xfa, 0xa3, 0xa8, 0x3e, 0xce, 0x5a, 0x1c, 0xc0, 0xd3, 0x93, 0x0d, 0xc1, 0x33, 0x11, 0xe3, 0x3f, 0x20, 0x1c, 0x36, 0x3d, 0x19, 0x1e, 0x24, 0xbe, 0x73, 0x48, 0xcb, 0xbd, 0xd8, 0xc7, 0x34, 0xbe, 0x56, 0x98, 0x8c, 0x3d, 0xa2, 0x6b, 0x04, 0x3e, 0xb1, 0x40, 0x18, 0xbe, 0x79, 0xef, 0x11, 0x3d, 0xe5, 0x88, 0x50, 0xbe, 0x03, 0x6f, 0x6c, 0xbe, 0xc2, 0x11, 0x06, 0xbd, 0xa7, 0x2f, 0x9e, 0xbb, 0xb1, 0xb3, 0xac, 0x3c, 0xbe, 0xce, 0x3b, 0x3e, 0xbb, 0x5d, 0x32, 0xbe, 0x8f, 0xdd, 0x34, 0x3d, 0x4e, 0x8f, 0xcb, 0xbf, 0x1c, 0x50, 0x43, 0xbf, 0x8d, 0x51, 0x34, 0xbf, 0x1c, 0x8e, 0x65, 0x3d, 0x26, 0x7e, 0x83, 0xbe, 0xed, 0xb6, 0xb6, 0xbf, 0xf6, 0xe3, 0x5a, 0xbd, 0xd2, 0x8b, 0xb4, 0xbb, 0x9b, 0xfa, 0x75, 0xbd, 0x52, 0xca, 0x8b, 0xbe, 0x02, 0x23, 0x81, 0xbf, 0x01, 0xf9, 0x86, 0x3e, 0x0d, 0x9a, 0x28, 0x3f, 0x0d, 0x32, 0x2d, 0xbd, 0x65, 0x7c, 0x00, 0xbe, 0x2d, 0x3f, 0x22, 0xbe, 0x25, 0xc5, 0x07, 0xbe, 0x8d, 0xc5, 0x50, 0xbe, 0x01, 0xdd, 0xb2, 0x3d, 0x92, 0x1d, 0xe1, 0x3d, 0x16, 0x94, 0xee, 0xbc, 0x5c, 0xe1, 0x7d, 0xbe, 0xb2, 0x07, 0xaa, 0xbd, 0xb0, 0xb3, 0x51, 0xbe, 0x92, 0x9c, 0x59, 0xbe, 0x04, 0xc7, 0x2e, 0xbe, 0xda, 0x3f, 0xb7, 0x3b, 0xf7, 0xb4, 0xcf, 0xbd, 0xf9, 0xc9, 0xb5, 0x3d, 0xda, 0x6d, 0x82, 0xbd, 0xd5, 0xc5, 0x13, 0x3e, 0x48, 0x3a, 0x81, 0xbe, 0xd5, 0x84, 0xa9, 0x3d, 0xbd, 0xfd, 0xd1, 0x3d, 0xcf, 0x90, 0xd6, 0xbd, 0x78, 0x28, 0xd2, 0x3d, 0x22, 0xa9, 0xfa, 0xbd, 0x2f, 0xe5, 0x27, 0xbe, 0x73, 0x2e, 0x08, 0xbd, 0x17, 0xf7, 0xb5, 0xbd, 0x65, 0x28, 0xc3, 0x3c, 0x7c, 0xef, 0x77, 0xbe, 0x52, 0xc4, 0xa3, 0x3d, 0xda, 0x19, 0x00, 0xbe, 0x6e, 0xd5, 0x12, 0x3d, 0x05, 0x46, 0x67, 0x3d, 0x36, 0x6d, 0x83, 0x3d, 0xeb, 0x62, 0x85, 0x3c, 0x2c, 0x7c, 0x2d, 0xbe, 0xf8, 0x0e, 0x1f, 0xbe, 0x08, 0xfc, 0x24, 0xbd, 0x88, 0xba, 0x15, 0x3d, 0x1c, 0x74, 0x83, 0xbd, 0xb6, 0x1e, 0x44, 0xbe, 0xf5, 0xbb, 0x25, 0xbe, 0x40, 0xbc, 0x36, 0xbe, 0xf4, 0xd9, 0x1d, 0xbe, 0x84, 0xcd, 0x95, 0x3d, 0x5a, 0x83, 0x17, 0x3e, 0xcc, 0xc9, 0xbc, 0x3e, 0x64, 0xfa, 0x3e, 0x3f, 0x53, 0x1b, 0x07, 0xbf, 0x44, 0xac, 0x02, 0xc0, 0x43, 0x1c, 0x62, 0xbe, 0xf1, 0x99, 0x84, 0x3e, 0x2f, 0x82, 0x04, 0x40, 0xe2, 0xc0, 0xd3, 0xbf, 0x7f, 0x0a, 0x52, 0xc0, 0xd1, 0x12, 0xbb, 0xbd, 0x8f, 0xf6, 0xc2, 0x3e, 0xea, 0x50, 0x96, 0x40, 0x8b, 0xb7, 0x72, 0x40, 0x1a, 0xe6, 0xfc, 0xbf, 0xf5, 0x8a, 0xf4, 0xbe, 0x90, 0x3b, 0x4d, 0x3d, 0x52, 0x3c, 0x82, 0xbe, 0x4d, 0xcf, 0x28, 0xbf, 0x37, 0x45, 0x22, 0x3e, 0x66, 0x88, 0xfb, 0x3e, 0x08, 0xb0, 0x64, 0x3f, 0x8a, 0xaa, 0xc8, 0x3e, 0x56, 0x06, 0x90, 0x3e, 0xa4, 0xce, 0x95, 0xbe, 0x93, 0xe2, 0x78, 0x3f, 0x19, 0x72, 0x01, 0xbf, 0x89, 0x10, 0xb9, 0x3f, 0x3f, 0x14, 0x69, 0x40, 0xf9, 0x73, 0xab, 0x3f, 0x42, 0x99, 0xf2, 0xbf, 0x2b, 0x0f, 0x8a, 0xbf, 0x33, 0x48, 0x90, 0x3f, 0x74, 0x74, 0xcd, 0x3d, 0x9b, 0xcb, 0xef, 0x3e, 0x3b, 0x04, 0x3c, 0xbf, 0x3c, 0x3c, 0x7a, 0xbf, 0xf5, 0x0e, 0x82, 0x3f, 0x31, 0x3c, 0x4e, 0x3f, 0x95, 0x39, 0xb0, 0xbf, 0x90, 0x09, 0x29, 0xbf, 0x4f, 0x47, 0x5c, 0xbf, 0x39, 0x70, 0x65, 0xbf, 0x70, 0x57, 0xba, 0xbe, 0x13, 0x8a, 0x6a, 0x3f, 0x3b, 0x28, 0x6f, 0xbf, 0x70, 0x18, 0x82, 0x3c, 0x54, 0x54, 0x8c, 0xbe, 0x58, 0x08, 0xaa, 0xbf, 0xf5, 0x71, 0x3f, 0x3f, 0xe1, 0x3b, 0xbe, 0xbe, 0xfd, 0x8b, 0x9c, 0x3d, 0x19, 0xb7, 0x11, 0x3e, 0x0a, 0x4c, 0x3a, 0xbf, 0x5d, 0x89, 0xa0, 0x3e, 0xfd, 0xf0, 0x15, 0xbf, 0x21, 0xb4, 0x06, 0xbf, 0xba, 0x6a, 0x2f, 0x40, 0x74, 0x39, 0x63, 0x40, 0x70, 0x74, 0x02, 0x3f, 0x27, 0x24, 0xa1, 0xbe, 0xd0, 0x85, 0x22, 0x3e, 0xa5, 0x7f, 0x12, 0xbd, 0xd3, 0x0c, 0xf0, 0x3d, 0x33, 0x0a, 0x55, 0xbe, 0xcc, 0x2b, 0xec, 0x3c, 0xeb, 0x33, 0xb5, 0xbb, 0x76, 0x4f, 0xe6, 0xbd, 0x77, 0xa6, 0xd5, 0x3c, 0x11, 0x1e, 0xf0, 0xbb, 0x2a, 0xec, 0x06, 0xbe, 0x99, 0xd6, 0x0c, 0xbe, 0xa3, 0x9d, 0x49, 0x3d, 0x4d, 0x0a, 0x00, 0xbb, 0xa6, 0xa2, 0x45, 0xbe, 0x6c, 0xe8, 0xb5, 0xbd, 0x30, 0x4f, 0x1a, 0x3e, 0x1d, 0xd4, 0x27, 0x3e, 0x33, 0xd8, 0x30, 0xbe, 0x39, 0x3e, 0x13, 0xbe, 0xf9, 0x18, 0x0f, 0xbd, 0xc0, 0x4c, 0x8b, 0xbb, 0x26, 0x0e, 0x4b, 0xbe, 0x2e, 0x38, 0x14, 0xbd, 0x32, 0x31, 0x43, 0xbe, 0xa5, 0x59, 0xa5, 0x3b, 0x3c, 0x63, 0x61, 0xbd, 0x1f, 0x9f, 0x21, 0xbd, 0xa3, 0x82, 0xba, 0xbd, 0x2f, 0xfe, 0xa1, 0x3d, 0x50, 0x05, 0x3b, 0xbe, 0xc1, 0x14, 0x55, 0xbe, 0xf6, 0xfb, 0x22, 0x3d, 0x7e, 0x32, 0xf6, 0xbd, 0xcc, 0xd9, 0xa2, 0xbc, 0xc0, 0x28, 0xbc, 0x3d, 0x70, 0xbc, 0x59, 0xbe, 0xe1, 0xdb, 0x8e, 0xbd, 0x9f, 0x14, 0x4a, 0xbe, 0x4b, 0x63, 0xae, 0xbd, 0x0d, 0x8e, 0xd6, 0x3d, 0x80, 0x57, 0x65, 0xbe, 0x68, 0x3b, 0x41, 0xbd, 0x06, 0x79, 0x5c, 0xbe, 0x98, 0x02, 0x0f, 0xbe, 0xf3, 0xbd, 0x00, 0x3e, 0x5a, 0x4a, 0x66, 0x3d, 0xb4, 0xee, 0x56, 0xbe, 0xe2, 0x35, 0xeb, 0x3c, 0x66, 0xf6, 0x87, 0x3d, 0x71, 0xa0, 0xc8, 0xbc, 0xd5, 0xfa, 0xcc, 0x3d, 0x49, 0x44, 0x32, 0xbd, 0x85, 0x7e, 0x37, 0xbe, 0xb8, 0x1e, 0x1f, 0x3d, 0x12, 0xce, 0xf5, 0x3d, 0x38, 0x01, 0x5b, 0xbe, 0xb4, 0x6b, 0x39, 0xbe, 0x0d, 0x32, 0x10, 0xbe, 0x24, 0x6e, 0x04, 0xbe, 0x64, 0x06, 0x74, 0xbe, 0x2b, 0xb1, 0x6f, 0x3e, 0xcc, 0x2e, 0x04, 0xc0, 0xea, 0xde, 0x8d, 0xbe, 0x32, 0x25, 0x6f, 0xbf, 0x2a, 0xf9, 0x75, 0x3e, 0x0f, 0xa2, 0x8b, 0x3d, 0x8c, 0xa9, 0xb5, 0xbf, 0x39, 0xf2, 0x00, 0xbf, 0xee, 0x0a, 0x51, 0xbe, 0xf7, 0x06, 0x09, 0x3e, 0x7b, 0xa1, 0x76, 0xbd, 0x74, 0xe9, 0x5c, 0xbf, 0x10, 0x45, 0x98, 0x3f, 0x5a, 0x88, 0x64, 0x3f, 0x4a, 0xe2, 0xa6, 0xbe, 0x78, 0x4f, 0xfd, 0x3e, 0x5f, 0x8d, 0x34, 0xbf, 0x5c, 0xbe, 0xbb, 0xbf, 0xfa, 0xe9, 0x9e, 0xbf, 0xc8, 0x3a, 0x56, 0x3d, 0xd2, 0xd2, 0xe0, 0x3d, 0xf8, 0x26, 0xaf, 0xbf, 0x0a, 0x7e, 0xcb, 0xbe, 0xae, 0x3a, 0xf0, 0xbe, 0xb4, 0x1b, 0x5c, 0x3d, 0xd1, 0xd0, 0x6e, 0xbd, 0x9d, 0xc8, 0x29, 0xbf, 0x98, 0x7a, 0x18, 0x3f, 0xaf, 0x22, 0xa1, 0xbe, 0xae, 0xdc, 0x95, 0xbe, 0xe9, 0x60, 0xeb, 0xbe, 0x0d, 0x4c, 0xbd, 0x3f, 0xc9, 0x9b, 0xbf, 0x3e, 0xd7, 0x44, 0x87, 0x3f, 0xaf, 0x9e, 0x03, 0xbf, 0x95, 0x90, 0xa9, 0x3d, 0x60, 0xa0, 0x1a, 0x3f, 0x98, 0x38, 0x08, 0xbf, 0xc2, 0x77, 0x13, 0x3f, 0xed, 0xdf, 0x45, 0x3f, 0x3a, 0x85, 0xa0, 0xbe, 0x89, 0x03, 0x81, 0x3f, 0x95, 0x25, 0x49, 0xbd, 0x2c, 0x3c, 0x0d, 0xc0, 0x70, 0x10, 0xad, 0x3f, 0x75, 0xd0, 0x86, 0xbe, 0x88, 0x29, 0xa6, 0xbf, 0x60, 0x7c, 0x5d, 0xbf, 0x8a, 0x4b, 0x32, 0xbf, 0x3c, 0x5c, 0x65, 0x3b, 0x0c, 0x60, 0x4d, 0xbe, 0x46, 0x22, 0x5b, 0xbf, 0x05, 0x5a, 0x11, 0xbe, 0x81, 0x27, 0x65, 0x3e, 0x5d, 0x72, 0xf2, 0xbe, 0x1a, 0xa5, 0xbf, 0x3d, 0x16, 0x1d, 0xdd, 0xbe, 0x74, 0xfa, 0x24, 0x3f, 0xc7, 0xb6, 0x70, 0x3f, 0xd9, 0x8d, 0x8d, 0xbe, 0x5d, 0xc3, 0xaa, 0x3d, 0xe9, 0xdf, 0xed, 0x3d, 0xdb, 0xa7, 0xf2, 0x3d, 0x04, 0x92, 0xc7, 0x3d, 0xb8, 0x8e, 0xa8, 0xbd, 0x5c, 0xe2, 0x54, 0xbe, 0x89, 0x19, 0x40, 0xbe, 0x51, 0xe6, 0xcb, 0x3a, 0xc6, 0x8b, 0x7f, 0xbe, 0xc4, 0x15, 0x51, 0xbe, 0xff, 0x18, 0x18, 0x3e, 0xaa, 0x9e, 0x1d, 0xbe, 0xa4, 0xbd, 0xcb, 0xbd, 0x82, 0x88, 0x8c, 0xbe, 0x94, 0x6a, 0xcb, 0x3d, 0x2e, 0x1c, 0xf3, 0x3e, 0x20, 0x84, 0xcc, 0x3d, 0x3e, 0xff, 0xf3, 0xbe, 0x67, 0xba, 0x3a, 0x3d, 0x82, 0x3b, 0xb1, 0x3e, 0x00, 0xae, 0xa5, 0xbe, 0x08, 0x85, 0x83, 0xbc, 0x2a, 0x72, 0xba, 0x3e, 0x4b, 0x55, 0x0f, 0x3f, 0x45, 0x48, 0x14, 0xbf, 0x8b, 0x0d, 0x94, 0xbf, 0xa3, 0x48, 0x8c, 0xbe, 0x3a, 0x21, 0x8f, 0x40, 0x92, 0x1d, 0xdf, 0x3f, 0x29, 0x66, 0x01, 0xc0, 0x71, 0x47, 0x49, 0xbe, 0x48, 0x34, 0x09, 0xbe, 0x10, 0x8d, 0xda, 0xbd, 0x5e, 0xe4, 0x00, 0x3e, 0x2b, 0xdf, 0xec, 0x3d, 0x9f, 0x6f, 0xf5, 0xbd, 0x05, 0xb5, 0x37, 0xbd, 0x84, 0xe9, 0x4e, 0xbe, 0x94, 0xe0, 0x6b, 0xbe, 0x73, 0x55, 0x14, 0x3d, 0xbb, 0x08, 0x2e, 0xbe, 0x47, 0x9d, 0x1c, 0x3e, 0x71, 0xd3, 0xb9, 0xbd, 0x35, 0x50, 0xfb, 0x3c, 0xa6, 0xd7, 0xc9, 0xbd, 0x68, 0x7e, 0x5f, 0xbc, 0x99, 0x96, 0xfc, 0xbd, 0xeb, 0x3f, 0x90, 0xbc, 0x5e, 0xe9, 0x3c, 0xbe, 0xbe, 0x27, 0x74, 0xbe, 0xd2, 0x9a, 0x51, 0x3b, 0x07, 0xac, 0x9d, 0xbd, 0x2c, 0xc3, 0x12, 0xbe, 0xb9, 0x4a, 0x8b, 0xbd, 0x65, 0x4c, 0x20, 0x3e, 0xf5, 0x79, 0x58, 0xbe, 0x9b, 0x49, 0x9b, 0x3c, 0x82, 0x2d, 0xe1, 0x3d, 0x79, 0x9e, 0xa4, 0x3c, 0xca, 0x0a, 0x97, 0xbd, 0x41, 0x5d, 0x2c, 0xbe, 0xbb, 0xa5, 0x48, 0x3d, 0xa6, 0xd7, 0x15, 0xbe, 0x3d, 0xcb, 0x02, 0x3e, 0x7a, 0xda, 0x79, 0xbe, 0xd4, 0x2f, 0x72, 0x3c, 0x07, 0x4b, 0xa0, 0x3c, 0x4d, 0x4e, 0xe8, 0xbd, 0x9f, 0x65, 0x3e, 0xbe, 0x9b, 0xe4, 0x1f, 0xbe, 0x0c, 0x0d, 0xa7, 0xbd, 0x4e, 0xce, 0x27, 0xbe, 0x7d, 0x2b, 0x08, 0xbe, 0x42, 0xeb, 0x0d, 0x3d, 0x07, 0x85, 0x16, 0x3e, 0x41, 0x3b, 0x37, 0xbe, 0x01, 0xa5, 0xe0, 0x3c, 0xc6, 0x13, 0x22, 0x3e, 0xac, 0x66, 0x14, 0xbe, 0x6e, 0xa3, 0x1e, 0xbe, 0x35, 0xd7, 0x95, 0xbd, 0xb4, 0xaa, 0x17, 0xbe, 0xe9, 0x68, 0x3a, 0xbe, 0x6e, 0x02, 0x09, 0xbd, 0x56, 0x7e, 0x5f, 0xbd, 0x57, 0x05, 0xe2, 0xbc, 0xfa, 0x17, 0xb0, 0xbd, 0x41, 0x27, 0xc4, 0x3d, 0xae, 0xb3, 0xf5, 0x3c, 0x38, 0xf9, 0xf0, 0x3c, 0xd3, 0x13, 0x4f, 0x3f, 0x17, 0x93, 0x97, 0xbf, 0xd7, 0xaa, 0xc0, 0x3f, 0x59, 0x71, 0x8d, 0x3f, 0x9a, 0xba, 0x8c, 0x3e, 0x8c, 0xbd, 0x13, 0x3f, 0x14, 0x25, 0xe5, 0xbf, 0xe7, 0x85, 0xcf, 0x3e, 0x53, 0x59, 0x07, 0x40, 0x42, 0xe8, 0x9b, 0xbe, 0x93, 0xd2, 0x2a, 0xbe, 0xb3, 0xb5, 0xee, 0xbf, 0x01, 0x54, 0x2a, 0xc0, 0xb1, 0x9d, 0x4a, 0x40, 0x0c, 0x5c, 0x9a, 0xbf, 0x9a, 0x9e, 0x01, 0xbe, 0x05, 0xd2, 0xd2, 0x3c, 0xf2, 0xb2, 0x94, 0xbd, 0x6e, 0x38, 0x87, 0xbe, 0x08, 0xe4, 0x5f, 0xbe, 0x26, 0x84, 0xfd, 0x3d, 0x9a, 0x38, 0xf8, 0xbd, 0x85, 0x70, 0x90, 0xbe, 0x85, 0x5e, 0xb8, 0x3d, 0x2c, 0x2b, 0x80, 0x3b, 0x76, 0xc0, 0x8e, 0x3c, 0x1d, 0xfb, 0x0e, 0xbd, 0x50, 0x67, 0x61, 0xbe, 0x07, 0xeb, 0x29, 0xbd, 0x62, 0x9c, 0xe1, 0x3d, 0xf0, 0xa5, 0x50, 0x3e, 0x9b, 0x02, 0xed, 0xbd, 0x35, 0x18, 0x15, 0x3e, 0x93, 0xfa, 0x1b, 0xbe, 0x9e, 0x8a, 0x23, 0xbe, 0x2c, 0xed, 0x1d, 0xbd, 0x9d, 0xdb, 0x02, 0xbe, 0x87, 0x68, 0x1e, 0x3e, 0x50, 0x11, 0x3e, 0xbd, 0x7f, 0x06, 0x0d, 0x3e, 0xe5, 0x5b, 0x50, 0xbe, 0xf0, 0x51, 0x16, 0xbe, 0x2e, 0x46, 0xb0, 0xbd, 0x4a, 0x86, 0x26, 0xbe, 0xde, 0xe6, 0x09, 0xbe, 0xec, 0xba, 0x7c, 0x3d, 0x76, 0x67, 0xa4, 0xbf, 0xc4, 0x6d, 0x4b, 0xbf, 0xc4, 0xc1, 0x47, 0x3f, 0x03, 0xe6, 0xc8, 0x3e, 0x7c, 0x2c, 0x29, 0xbf, 0x5f, 0xac, 0x1e, 0x3d, 0x16, 0x85, 0x1e, 0xbd, 0x2f, 0xc1, 0x8f, 0x3f, 0x5f, 0x22, 0x03, 0xbe, 0x90, 0xbc, 0xbd, 0xbf, 0x06, 0x7a, 0x8e, 0x40, 0xd3, 0xce, 0x86, 0x40, 0xd7, 0xdc, 0x1a, 0x3f, 0xf4, 0xba, 0xfc, 0xbf, 0xf1, 0xb5, 0x5e, 0xbe, 0x61, 0xc3, 0x46, 0xbe, 0x79, 0xe6, 0xfe, 0xbb, 0xf9, 0x18, 0x81, 0xbd, 0x13, 0x0d, 0x0e, 0x3e, 0x61, 0xa9, 0x0f, 0xbe, 0xfc, 0x91, 0x6c, 0xbe, 0xab, 0x92, 0x01, 0xbe, 0x29, 0x62, 0xbf, 0xbe, 0x7c, 0x8d, 0x5d, 0xbd, 0x6c, 0xd1, 0x4a, 0x3d, 0x56, 0xb5, 0x98, 0xbd, 0x64, 0xe2, 0x6f, 0xbe, 0x64, 0x69, 0xab, 0xbe, 0x6e, 0x4c, 0x70, 0x3d, 0xa7, 0x86, 0x2b, 0xbf, 0x3b, 0xe0, 0x95, 0xbf, 0x11, 0xc1, 0xa5, 0xbf, 0x41, 0x2c, 0xeb, 0xbe, 0x8f, 0xa8, 0x17, 0xbf, 0xf9, 0x5b, 0x8d, 0xbf, 0x96, 0x53, 0x16, 0xbf, 0xd7, 0xae, 0x0d, 0xbe, 0xcd, 0x57, 0xe3, 0x3d, 0x74, 0x7f, 0x4a, 0xbf, 0xa0, 0xa8, 0xa8, 0xbf, 0xd7, 0x66, 0xf8, 0x3c, 0xf5, 0x9d, 0xba, 0x3f, 0x9a, 0xca, 0x8c, 0x3f, 0x9c, 0x10, 0xc8, 0xbf, 0x05, 0x2c, 0x0b, 0xbf, 0x9d, 0xf4, 0x0e, 0x40, 0x94, 0x69, 0xa5, 0x3f, 0x7f, 0xa5, 0xbe, 0xbe, 0x43, 0xd3, 0x67, 0xbf, 0xee, 0x51, 0x8a, 0xbe, 0x6a, 0x40, 0x26, 0x40, 0x36, 0x53, 0x75, 0x3e, 0xb2, 0xa1, 0x86, 0xbf, 0xc2, 0x68, 0x94, 0x3e, 0xa5, 0xea, 0x82, 0xbd, 0x62, 0xda, 0x46, 0x40, 0xc1, 0xf5, 0x10, 0xc0, 0x54, 0x4f, 0x0f, 0xc0, 0x9f, 0x16, 0x91, 0x3f, 0xb3, 0x73, 0x9a, 0xbf, 0xc2, 0xd2, 0xf9, 0x3f, 0xf8, 0x3a, 0x54, 0xbe, 0x80, 0x5d, 0x9e, 0xbf, 0x32, 0xa7, 0xbd, 0xbf, 0x85, 0xac, 0xdf, 0xbf, 0xbe, 0xf4, 0x1e, 0x40, 0xa9, 0x63, 0x6e, 0xbf, 0x8e, 0x28, 0x23, 0xbf, 0x56, 0x59, 0xc5, 0xbf, 0x64, 0xe0, 0x32, 0xbf, 0x71, 0x77, 0xeb, 0x3f, 0x88, 0x78, 0x63, 0xc0, 0xa5, 0x96, 0xf3, 0xbe, 0x8b, 0x4f, 0x86, 0xbf, 0x79, 0xa1, 0xf8, 0xbd, 0x90, 0xb5, 0x0e, 0x3d, 0x81, 0x74, 0x99, 0x3c, 0xe3, 0x86, 0x08, 0xbe, 0xe6, 0x41, 0xda, 0x3d, 0x7b, 0x0c, 0x89, 0xbd, 0xed, 0xf8, 0x80, 0xbb, 0xf5, 0xff, 0x57, 0xbe, 0xd9, 0x56, 0xcc, 0xbb, 0x43, 0xce, 0x2f, 0x3b, 0xfb, 0x76, 0x31, 0xbe, 0x79, 0xda, 0xbc, 0xbb, 0x8a, 0x9c, 0x09, 0xbb, 0x01, 0xb2, 0x7d, 0xbe, 0x00, 0xc5, 0x28, 0xbe, 0x3f, 0xd6, 0xd7, 0xbf, 0x57, 0xf6, 0x50, 0x3e, 0xf0, 0xf5, 0x00, 0xbe, 0x80, 0xb6, 0xdc, 0x3f, 0xcb, 0xbb, 0xcd, 0xbf, 0xdd, 0x39, 0x94, 0xbf, 0xac, 0x8b, 0x7b, 0x3f, 0xd0, 0x61, 0xd5, 0xbe, 0xb1, 0xf8, 0xb5, 0x3f, 0x30, 0x0b, 0x8e, 0xbf, 0x99, 0xbf, 0x8b, 0xbc, 0x50, 0xa0, 0x3d, 0x40, 0xdc, 0xd6, 0x1b, 0x3f, 0x4a, 0x9b, 0x2c, 0x3f, 0x70, 0xaa, 0xcf, 0x3e, 0x86, 0x7a, 0x7b, 0xbe, 0xb0, 0x3b, 0xb9, 0xbf, 0x64, 0xde, 0x65, 0xbf, 0x13, 0xb6, 0x45, 0xbf, 0x6a, 0x76, 0x1e, 0x3e, 0x3f, 0x0b, 0x84, 0xbf, 0x59, 0xe6, 0x5a, 0xbf, 0xed, 0x7a, 0xb2, 0x3e, 0xe2, 0x9b, 0x90, 0xbe, 0xb2, 0x12, 0x40, 0xbf, 0x5f, 0x6a, 0xa2, 0xbf, 0x6a, 0x25, 0x9d, 0xbe, 0x36, 0x90, 0x90, 0x3f, 0xc7, 0xcd, 0xb2, 0x3f, 0x44, 0xae, 0x73, 0xbf, 0x5e, 0x27, 0xc6, 0x3e, 0xe0, 0x32, 0xde, 0xbe, 0xa3, 0xcf, 0xc5, 0xbf, 0xf8, 0x2f, 0x6c, 0xbe, 0x18, 0xb9, 0xea, 0x3e, 0xe9, 0xe9, 0x25, 0x3e, 0xa4, 0xd9, 0xad, 0xbf, 0x89, 0x18, 0x58, 0xbe, 0x4e, 0x7b, 0x45, 0xbf, 0xf2, 0xf5, 0xa9, 0x3e, 0x20, 0xa9, 0x10, 0x3f, 0x08, 0xa9, 0xc5, 0xbf, 0x57, 0xc0, 0x1a, 0x40, 0x11, 0x85, 0x9b, 0x3f, 0x3b, 0x72, 0x1e, 0xbf, 0x33, 0xa4, 0x16, 0xbf, 0xdc, 0x74, 0x92, 0xbf, 0x0d, 0x6b, 0xc0, 0xbf, 0xf5, 0x33, 0x0c, 0xbf, 0x4e, 0x08, 0x00, 0xbe, 0x35, 0x11, 0x6e, 0xbf, 0x04, 0x7c, 0x3f, 0xbf, 0xa7, 0xca, 0x75, 0xbe, 0x44, 0x9c, 0x92, 0xbe, 0x43, 0xd5, 0x6e, 0xbf, 0x1d, 0x31, 0x94, 0xbf, 0xfc, 0xe0, 0x66, 0x3b, 0xbd, 0x91, 0xaf, 0x3f, 0xd9, 0x30, 0xb1, 0x3f, 0xd1, 0x54, 0xb3, 0xbf, 0xfd, 0x95, 0x15, 0xbe, 0x1b, 0x56, 0x5f, 0xbc, 0xc8, 0x93, 0x2d, 0xbe, 0x7c, 0xaa, 0x84, 0x3d, 0xae, 0x55, 0x11, 0x3e, 0x7c, 0xac, 0xa5, 0x3b, 0x7c, 0x0c, 0x4c, 0xbe, 0xf9, 0x78, 0x1e, 0xbe, 0x0f, 0xbd, 0x09, 0x3e, 0x64, 0x0f, 0x40, 0xbe, 0x4a, 0x60, 0x51, 0xbe, 0xa5, 0xcf, 0xb0, 0x3d, 0xd3, 0x74, 0x44, 0x3d, 0x3e, 0xa7, 0xce, 0xbd, 0x28, 0x20, 0x3a, 0xbe, 0xcc, 0x67, 0xcf, 0x3d, 0x1a, 0xb1, 0x92, 0xbf, 0xc6, 0x0c, 0xce, 0xbf, 0xea, 0x37, 0x08, 0xbf, 0xde, 0x79, 0xe8, 0xbe, 0x87, 0x8e, 0x0d, 0x3e, 0xf9, 0xe7, 0x7a, 0x3f, 0x90, 0x66, 0xa8, 0xbf, 0xda, 0xa5, 0x59, 0xbe, 0xb1, 0xe4, 0x22, 0xbf, 0x90, 0x33, 0x57, 0xbd, 0xcb, 0x92, 0xb2, 0x40, 0xf4, 0x5b, 0x01, 0x40, 0x0a, 0xfd, 0x0c, 0xbf, 0xb2, 0x0e, 0x70, 0xbf, 0xb3, 0x88, 0x4a, 0xbe, 0x3e, 0x54, 0xe6, 0xbd, 0xcb, 0x74, 0x76, 0x3c, 0xe8, 0x44, 0xd0, 0x3d, 0xbd, 0x4a, 0x0b, 0xbe, 0xee, 0xe4, 0xf2, 0xbd, 0x28, 0x3e, 0x85, 0x3c, 0xf0, 0x3b, 0x9d, 0x3d, 0x51, 0xc3, 0xc3, 0xbd, 0xcb, 0xce, 0xdd, 0x3d, 0xb0, 0x10, 0x03, 0x3e, 0xb4, 0x2e, 0x31, 0xbe, 0xab, 0xbb, 0x91, 0xbe, 0x28, 0x61, 0x71, 0x3c, 0x88, 0xed, 0x68, 0xbd, 0x96, 0xa8, 0xfa, 0xbb, 0xac, 0xa6, 0xa0, 0x3d, 0xaa, 0xa9, 0x98, 0xbd, 0x01, 0x10, 0xaa, 0xbd, 0xb8, 0xff, 0x6f, 0xbe, 0x04, 0x89, 0xd3, 0xbd, 0x27, 0x5e, 0x75, 0x3c, 0xb1, 0x01, 0x63, 0xbe, 0x13, 0xa3, 0xc2, 0x3d, 0xa7, 0xc0, 0xd3, 0xbc, 0x85, 0x76, 0xbf, 0xbc, 0x2f, 0x34, 0x8b, 0xbd, 0x35, 0xfe, 0x5c, 0xbb, 0x5f, 0x51, 0x9b, 0xbc, 0x0e, 0x21, 0xd3, 0x3d, 0x78, 0x14, 0x98, 0xbd, 0x75, 0x39, 0xed, 0xbd, 0xbd, 0x02, 0x89, 0xbd, 0xb0, 0xac, 0x28, 0x3e, 0x3b, 0xc4, 0xdc, 0xbe, 0x4a, 0x6e, 0xb8, 0xbe, 0xc6, 0xfc, 0x2b, 0x3e, 0x01, 0xcc, 0x34, 0xbe, 0xba, 0xc8, 0xcd, 0x3b, 0xf0, 0x4f, 0x8c, 0x3e, 0x96, 0x43, 0x8a, 0xbe, 0x4f, 0xa9, 0x01, 0xbd, 0xee, 0xf0, 0x3e, 0xbe, 0xf1, 0x5d, 0x1d, 0xbe, 0x08, 0x81, 0xc9, 0x3d, 0xeb, 0x59, 0x4d, 0xbe, 0x80, 0x93, 0x87, 0xbe, 0x49, 0x53, 0xe3, 0xbc, 0x3f, 0xbe, 0xdc, 0xbe, 0xf1, 0x33, 0xec, 0x3d, 0xbb, 0x16, 0x44, 0xbe, 0x76, 0xf1, 0x37, 0xbe, 0xb2, 0x77, 0xaf, 0xbe, 0x6e, 0x84, 0x72, 0xbe, 0xde, 0x50, 0x58, 0xbc, 0x5d, 0x1f, 0x1e, 0x3e, 0x67, 0xa0, 0x8f, 0xbc, 0x91, 0x1d, 0xf1, 0xbd, 0x18, 0x1c, 0x9f, 0xbe, 0x0d, 0xba, 0x3b, 0x3d, 0x93, 0x67, 0x93, 0x3d, 0x92, 0x61, 0xe2, 0x3d, 0x87, 0xa2, 0xcf, 0xbc, 0x0c, 0x0f, 0xdf, 0xbc, 0x1b, 0xf9, 0xab, 0xbe, 0xc6, 0x88, 0x87, 0x3d, 0xdb, 0x83, 0xfe, 0x3d, 0xf8, 0xf2, 0xca, 0x3d, 0x9a, 0xd8, 0x16, 0xbe, 0xad, 0xe9, 0xb0, 0x3d, 0xb1, 0x73, 0x93, 0xbc, 0x6b, 0x70, 0x52, 0xbe, 0xdc, 0x8d, 0x17, 0xbe, 0x14, 0x91, 0x86, 0x3d, 0x7f, 0x9e, 0x14, 0xbe, 0x71, 0xdd, 0x4c, 0x3e, 0x07, 0x74, 0x07, 0xc0, 0x39, 0x10, 0x96, 0xbe, 0xde, 0xe7, 0x95, 0xbf, 0x4d, 0x66, 0xa3, 0x3e, 0x2e, 0x1e, 0xd7, 0xbd, 0xf4, 0x10, 0xc5, 0xbf, 0x08, 0x88, 0x9b, 0xbe, 0x47, 0x18, 0x1c, 0x3c, 0xae, 0x59, 0x5c, 0x3e, 0x5d, 0x6a, 0x30, 0xbe, 0x23, 0xd2, 0x1c, 0xbf, 0xec, 0xff, 0x89, 0x3f, 0x18, 0x3f, 0x67, 0x3f, 0x19, 0xff, 0x80, 0xbd, 0x68, 0xfd, 0x47, 0xbe, 0x25, 0xbf, 0x11, 0xbe, 0x77, 0xbe, 0x1d, 0x3e, 0x1d, 0x74, 0x13, 0x3d, 0x79, 0xd1, 0x6e, 0xbc, 0x71, 0x41, 0x67, 0x3d, 0x46, 0x57, 0xa7, 0x3d, 0xe8, 0x84, 0x1d, 0x3d, 0xfc, 0x62, 0x5a, 0xbe, 0xee, 0xe7, 0xf7, 0xbd, 0xbe, 0x43, 0xce, 0xbd, 0xaf, 0xd3, 0x10, 0xbe, 0x9c, 0x57, 0x61, 0x3c, 0xed, 0xdf, 0x8e, 0xbd, 0x2a, 0x24, 0x06, 0xbe, 0xb0, 0xfb, 0x98, 0x3d, 0xa2, 0x35, 0xfd, 0xbd, 0x79, 0xba, 0x5e, 0x3b, 0xcc, 0x8d, 0xd7, 0xbd, 0x19, 0xe3, 0x76, 0xbd, 0x41, 0x78, 0x33, 0xbe, 0xc4, 0xa0, 0xaf, 0xbd, 0x6a, 0xb6, 0xd1, 0x3d, 0xbd, 0x45, 0xb4, 0x3d, 0xac, 0x02, 0xad, 0x3d, 0x4e, 0x1a, 0xde, 0xbd, 0x74, 0xc7, 0xa2, 0x3c, 0xef, 0xee, 0x21, 0xbe, 0xdd, 0x77, 0x07, 0xbe, 0x61, 0x6b, 0xfa, 0x3c, 0x47, 0xf2, 0x24, 0xba, 0xb6, 0x9f, 0xe3, 0xbd, 0xeb, 0xbb, 0x41, 0xbe, 0xab, 0xe5, 0xaa, 0x3d, 0x65, 0xae, 0xda, 0xbd, 0xc7, 0x7a, 0x2c, 0xbe, 0x2f, 0x50, 0xa7, 0xbd, 0xe5, 0x1b, 0x6c, 0xba, 0x51, 0x89, 0x82, 0x3c, 0x14, 0x7a, 0x27, 0x3e, 0x4a, 0x7b, 0x04, 0xbe, 0x0a, 0x36, 0x36, 0x3d, 0x8f, 0x4f, 0xd6, 0x3d, 0x21, 0x50, 0xef, 0xbc, 0x68, 0x97, 0x21, 0xbe, 0x5c, 0xa0, 0xe4, 0xbd, 0xd9, 0x34, 0x75, 0xbd, 0xd6, 0x19, 0x47, 0xbe, 0xf6, 0x9a, 0xab, 0xbd, 0xbb, 0x8b, 0xdd, 0x3d, 0x85, 0xb4, 0x17, 0xbd, 0x0b, 0xa8, 0x70, 0xbd, 0x4f, 0xc0, 0x9a, 0xbd, 0x2c, 0xae, 0x77, 0xbe, 0x41, 0x15, 0xb0, 0x3d, 0x77, 0x94, 0xf1, 0x3d, 0x1f, 0x27, 0x7b, 0xbe, 0x9e, 0xef, 0xa5, 0x3d, 0xd7, 0x1f, 0xdc, 0xbc, 0xd8, 0xf8, 0x12, 0xbe, 0xe2, 0x17, 0x41, 0x3e, 0xb5, 0x32, 0x47, 0xbf, 0x6f, 0xc2, 0x99, 0x3e, 0x90, 0x42, 0x05, 0x3f, 0x9b, 0x2b, 0x00, 0x3e, 0x3b, 0x2e, 0x01, 0xbf, 0xab, 0x35, 0x3a, 0xbf, 0x8e, 0xa0, 0x55, 0x3e, 0x60, 0x80, 0x14, 0x3f, 0x3d, 0x14, 0xec, 0xbd, 0x32, 0xcd, 0x53, 0x3d, 0xa4, 0xcd, 0xc6, 0xbe, 0xa4, 0xf2, 0x27, 0x3e, 0xfa, 0x45, 0xa3, 0x3e, 0xbf, 0xbf, 0x90, 0x3e, 0x75, 0xe3, 0x01, 0x3e, 0x15, 0x39, 0x0f, 0xbe, 0xa6, 0xab, 0x83, 0x3d, 0x6b, 0x70, 0x56, 0xbe, 0x87, 0xc6, 0x5f, 0xbe, 0x78, 0x79, 0xc4, 0xbd, 0x88, 0x05, 0x7f, 0x3c, 0x66, 0xec, 0x34, 0xbe, 0x92, 0x39, 0x24, 0x3d, 0x10, 0x3c, 0x2c, 0xbe, 0x08, 0xc0, 0x26, 0x3e, 0x4e, 0x6d, 0x98, 0x3d, 0xe0, 0xad, 0xdf, 0xbc, 0xb2, 0xdc, 0x4a, 0x3d, 0xfe, 0x9f, 0xc1, 0xbd, 0x16, 0x59, 0x0d, 0xbd, 0x8e, 0x28, 0x62, 0x3d, 0x32, 0xc9, 0x0a, 0x3e, 0xb9, 0x7b, 0x5f, 0xbe, 0xda, 0x9f, 0x5c, 0xbe, 0x7a, 0x0c, 0xda, 0xbd, 0x90, 0xce, 0x6a, 0xbe, 0x36, 0x66, 0xf0, 0x3d, 0xdc, 0xe3, 0x36, 0xbe, 0x3e, 0x90, 0x3c, 0xbe, 0xb2, 0xf9, 0x15, 0x3e, 0x59, 0x2c, 0x8d, 0x3d, 0xd3, 0xf6, 0x64, 0xbe, 0xb4, 0x02, 0x14, 0xbd, 0x81, 0x5c, 0xa3, 0xbd, 0x00, 0x0a, 0xc6, 0xbd, 0x30, 0x0f, 0xbd, 0xbd, 0x5e, 0x42, 0x73, 0xbe, 0x90, 0xbe, 0xa2, 0xbd, 0x37, 0x5b, 0x30, 0xbd, 0x9f, 0xcc, 0x93, 0xbe, 0xfd, 0x17, 0x4c, 0xbe, 0x50, 0xea, 0xa9, 0xbd, 0x66, 0x12, 0xb8, 0x3d, 0x1d, 0xea, 0xb1, 0x3d, 0x07, 0x4d, 0x3a, 0xbc, 0xad, 0xcf, 0xa4, 0xbd, 0x50, 0x9a, 0x89, 0xbc, 0xdc, 0x8d, 0x2f, 0xbe, 0xc3, 0x44, 0x2c, 0x3a, 0xaf, 0xdd, 0x45, 0xbe, 0xb3, 0xa9, 0xc2, 0xbd, 0x05, 0x58, 0x40, 0x3e, 0x2a, 0xb9, 0x02, 0xbe, 0x58, 0xa3, 0x2c, 0xbb, 0x55, 0x14, 0x15, 0xbe, 0xd2, 0x68, 0x31, 0xbe, 0x6a, 0xc7, 0x3b, 0x3d, 0x78, 0x7a, 0x15, 0xbe, 0xd0, 0xc4, 0xa6, 0xbd, 0xfd, 0x44, 0x4e, 0xbe, 0x97, 0xe0, 0x35, 0xbe, 0x24, 0x78, 0xf0, 0x3c, 0x0c, 0x0d, 0x82, 0x3d, 0xdf, 0x28, 0xa0, 0x3d, 0x0d, 0x0c, 0xab, 0xbe, 0x40, 0xca, 0xa4, 0xb8, 0xd0, 0x3e, 0x0c, 0xbe, 0xb1, 0x19, 0x45, 0x3d, 0x74, 0x5b, 0x60, 0xbd, 0x67, 0x59, 0xe6, 0xbd, 0x99, 0x4a, 0xec, 0x3e, 0x67, 0x77, 0x9e, 0xbe, 0xb0, 0x88, 0x4c, 0xbb, 0x9e, 0x2e, 0xc8, 0xbd, 0xb1, 0x28, 0x2e, 0xbd, 0xb3, 0x42, 0x24, 0x3f, 0x03, 0x3f, 0x10, 0x3e, 0xe5, 0xba, 0x0f, 0xbf, 0xc0, 0x1c, 0xe4, 0xbd, 0x0d, 0xf4, 0x87, 0xbf, 0x75, 0x5e, 0x29, 0x40, 0xe1, 0xa8, 0xa4, 0x3f, 0xa3, 0xcc, 0x8f, 0x3f, 0xf0, 0x80, 0xf2, 0xbe, 0xc1, 0x48, 0x90, 0xbf, 0xea, 0xab, 0xea, 0x3f, 0x4e, 0xbb, 0x8e, 0x3f, 0xfe, 0xc2, 0xa6, 0x3f, 0xd7, 0x77, 0x85, 0xbf, 0x57, 0xc1, 0x4d, 0xbf, 0x03, 0x3e, 0x1b, 0x3f, 0x55, 0xbe, 0x72, 0xc0, 0xe8, 0x7b, 0x0f, 0x3f, 0x5a, 0xa4, 0x08, 0xbf, 0x77, 0x41, 0xb6, 0x3d, 0x74, 0xd5, 0x03, 0xbe, 0x71, 0x7a, 0xd8, 0x3d, 0x48, 0x0e, 0x2a, 0x3d, 0x63, 0xb0, 0x8c, 0xbe, 0x33, 0x82, 0x87, 0x3d, 0x5a, 0x22, 0x2d, 0xbe, 0x78, 0xfe, 0x26, 0xbe, 0x9a, 0x49, 0x65, 0xbd, 0x08, 0xce, 0x99, 0x3d, 0xdd, 0x7f, 0x35, 0xbe, 0x91, 0x88, 0x1f, 0x3c, 0xce, 0x93, 0xba, 0x3d, 0xac, 0x54, 0x42, 0xbe, 0xc2, 0x52, 0xc8, 0x3b, 0x08, 0xbf, 0xc9, 0x3e, 0x4c, 0x33, 0xb0, 0xbd, 0x65, 0xbd, 0xba, 0xbe, 0x49, 0x91, 0x2d, 0xbf, 0x54, 0x60, 0xd2, 0x3e, 0x2a, 0xd8, 0x8f, 0x3e, 0x47, 0x7c, 0x05, 0xbf, 0x06, 0x16, 0xcc, 0xbf, 0x0f, 0x16, 0xa9, 0xbe, 0x0a, 0xd6, 0xa3, 0x3e, 0x0f, 0x3f, 0x6c, 0x3f, 0xf5, 0x71, 0x9d, 0xbf, 0xe3, 0x12, 0xb5, 0xc0, 0x7f, 0x57, 0x1d, 0xc0, 0xac, 0x83, 0xf2, 0x3f, 0xd0, 0x73, 0xf8, 0x3d, 0xe3, 0x12, 0xe2, 0x3e, 0x5b, 0xe9, 0x57, 0xbf, 0x85, 0x23, 0x07, 0xbf, 0x70, 0xe8, 0xc7, 0xbe, 0x79, 0x6d, 0xcf, 0x3e, 0xc8, 0xfd, 0xaf, 0x3f, 0x47, 0xd7, 0x34, 0xbf, 0x04, 0x73, 0x8f, 0xbf, 0x35, 0x9b, 0x2f, 0xbe, 0x90, 0xcd, 0x85, 0x3e, 0xa7, 0x40, 0x3a, 0x40, 0x4f, 0x6c, 0x5d, 0x40, 0x54, 0x2a, 0x45, 0xbf, 0x61, 0xf3, 0x79, 0xbf, 0xfc, 0x9f, 0x1f, 0xbe, 0xa1, 0xa2, 0xa4, 0xbd, 0xc2, 0x7e, 0x19, 0xbe, 0xbb, 0xc4, 0xf5, 0xbd, 0x62, 0x43, 0xd2, 0xbd, 0x96, 0x34, 0xd0, 0xbd, 0x21, 0x1d, 0xcc, 0xbd, 0xd7, 0x5a, 0x61, 0xbd, 0xd7, 0xd8, 0x69, 0x3d, 0x75, 0xc3, 0x24, 0x3d, 0x77, 0xfd, 0xd9, 0x3b, 0x84, 0x62, 0x97, 0x3c, 0x2b, 0x79, 0x76, 0x3d, 0x50, 0x20, 0xfe, 0x3a, 0x67, 0x07, 0x40, 0xbe, 0xbd, 0x3d, 0x81, 0x3d, 0xe2, 0x4d, 0xa9, 0xbd, 0xbe, 0x8e, 0xfb, 0xbc, 0x9b, 0xa5, 0xf3, 0x3c, 0xc8, 0x9a, 0x70, 0xbe, 0x1b, 0xf0, 0x0e, 0x3d, 0x06, 0x5f, 0xf9, 0xbd, 0xec, 0xbc, 0x7f, 0xbe, 0x75, 0x02, 0xe3, 0x3d, 0x87, 0x39, 0x45, 0x3d, 0xd9, 0x1e, 0xcf, 0xbd, 0x55, 0xfa, 0x34, 0xbe, 0xd9, 0xcd, 0x45, 0x3c, 0xd2, 0x0d, 0x52, 0xbd, 0x71, 0xf4, 0x27, 0xbd, 0x18, 0x7f, 0x07, 0xbf, 0xa4, 0xca, 0x49, 0xbe, 0x4b, 0x65, 0xbf, 0x3d, 0x40, 0xc4, 0x81, 0x3e, 0x0e, 0x5e, 0xab, 0xbd, 0xa3, 0x11, 0x02, 0xbf, 0xcb, 0x05, 0xb3, 0xbe, 0xaf, 0x4a, 0x12, 0xbe, 0x45, 0x28, 0x58, 0x3e, 0x0b, 0x6c, 0x49, 0xbe, 0x42, 0xd3, 0xd7, 0xbe, 0xfb, 0x8b, 0x96, 0xbe, 0xdd, 0xf9, 0xc6, 0xbd, 0x3b, 0x1c, 0xb9, 0x3e, 0xaa, 0xaf, 0x05, 0xbf, 0xb4, 0x65, 0x50, 0x3e, 0x8c, 0x5e, 0x85, 0x3f, 0xc5, 0xb1, 0x8f, 0xbf, 0xed, 0x89, 0x5c, 0xbf, 0x39, 0x23, 0x9b, 0xbe, 0xe6, 0x1c, 0xaa, 0x3e, 0xb8, 0x78, 0x86, 0x3f, 0xbe, 0x73, 0x9e, 0xbf, 0x11, 0x8a, 0xeb, 0xbf, 0x2e, 0xbe, 0x38, 0xbe, 0xdd, 0xf1, 0x1e, 0xbf, 0x93, 0x63, 0x8d, 0x3f, 0x7d, 0x87, 0xae, 0x3e, 0x21, 0xcd, 0x9e, 0x3e, 0xc1, 0x9e, 0x61, 0xbf, 0xde, 0xce, 0x47, 0x3e, 0x23, 0xcd, 0x35, 0xbf, 0xed, 0xc1, 0x55, 0xbf, 0x92, 0x34, 0xba, 0xbe, 0x74, 0x2a, 0x12, 0x3e, 0x50, 0x41, 0x6f, 0xbd, 0x90, 0x95, 0x51, 0xbf, 0x69, 0x91, 0xcc, 0xbe, 0x62, 0x60, 0x70, 0xbe, 0xd5, 0x22, 0x89, 0xbe, 0x6a, 0x0a, 0xae, 0xbe, 0xd7, 0x57, 0x3b, 0xbf, 0x78, 0x48, 0xc1, 0xbd, 0x58, 0x75, 0x17, 0x3f, 0x63, 0xfa, 0xf7, 0xbd, 0xc8, 0xb9, 0xa5, 0x3e, 0xe8, 0x8b, 0x3f, 0xbc, 0x00, 0x41, 0x20, 0xbf, 0x74, 0xb9, 0x85, 0xbd, 0x84, 0xab, 0x55, 0x3e, 0xa9, 0xe6, 0x7c, 0x3d, 0x19, 0xd5, 0x8a, 0x3e, 0x67, 0x3e, 0x16, 0xbf, 0x48, 0x66, 0xd6, 0xbe, 0x24, 0xfb, 0x52, 0x3e, 0x79, 0x04, 0xe1, 0xbb, 0x78, 0xf5, 0x66, 0x3e, 0x57, 0xd8, 0x22, 0xbe, 0x3d, 0x08, 0x5f, 0xbe, 0xba, 0x0b, 0x84, 0x3d, 0x48, 0x63, 0x01, 0x3f, 0x8c, 0x3c, 0xe1, 0x3d, 0xfd, 0xf7, 0x8c, 0xbf, 0x62, 0xd4, 0x99, 0xbf, 0x86, 0xb8, 0x45, 0x3f, 0x57, 0x67, 0x18, 0x3f, 0xb3, 0xac, 0x76, 0x3f, 0x5d, 0xbb, 0x41, 0xbf, 0xad, 0x5a, 0x2b, 0xbe, 0x95, 0x33, 0x1f, 0x3f, 0xa2, 0xd8, 0x82, 0xbf, 0x94, 0xce, 0xdf, 0x3f, 0x91, 0xe3, 0x4f, 0x40, 0x3a, 0x13, 0x0c, 0x40, 0xa3, 0xae, 0xf4, 0xbf, 0x4e, 0xde, 0xe7, 0x3d, 0xdf, 0x42, 0x9c, 0xbc, 0x13, 0x2d, 0x02, 0xbe, 0x77, 0x5c, 0x2b, 0xbe, 0xde, 0x5c, 0xf7, 0xbc, 0x31, 0x22, 0xfa, 0x3b, 0x4d, 0xa3, 0xeb, 0x3d, 0xc0, 0x9c, 0x37, 0x3d, 0x1b, 0x39, 0x04, 0x3e, 0xc1, 0x06, 0x01, 0xbe, 0x91, 0x9d, 0x18, 0xbe, 0x09, 0x70, 0xa4, 0xbd, 0xbf, 0x55, 0x0a, 0xbe, 0xbc, 0xf5, 0xb5, 0xbd, 0xb4, 0xd9, 0x5d, 0xbe, 0x52, 0xf8, 0xca, 0x3c, 0x13, 0x48, 0x8e, 0xbf, 0x5a, 0xff, 0x9c, 0xbf, 0x89, 0xc1, 0x63, 0xbf, 0xbf, 0xdf, 0x5c, 0x3d, 0xa3, 0xf9, 0x06, 0xbe, 0xaf, 0x2c, 0x9c, 0xbf, 0x87, 0xa3, 0x3c, 0xbe, 0x0b, 0x36, 0x0f, 0xbe, 0x9b, 0xe4, 0x14, 0x3e, 0x9d, 0xc3, 0xef, 0xbc, 0x7a, 0x0a, 0x80, 0xbf, 0x73, 0xf5, 0xa4, 0x3e, 0x4f, 0x39, 0xe7, 0x3e, 0x85, 0x73, 0x73, 0xbe, 0x08, 0xa7, 0xc4, 0xbc, 0x29, 0x09, 0x18, 0xbe, 0x99, 0xa0, 0xbc, 0x3c, 0x1d, 0x28, 0x3a, 0x3d, 0x26, 0x9d, 0x6c, 0xbe, 0xb2, 0x88, 0x81, 0x3d, 0x67, 0xc4, 0x86, 0xbe, 0x57, 0xec, 0xed, 0x3d, 0xba, 0xaf, 0xb6, 0xbd, 0x99, 0x65, 0x28, 0xbd, 0x74, 0x40, 0x88, 0xbd, 0x1b, 0xe5, 0xf6, 0xbd, 0x51, 0x68, 0x8e, 0xbc, 0xfe, 0xd0, 0xcb, 0xbd, 0x07, 0xd1, 0x90, 0x3d, 0x68, 0x00, 0x8a, 0xbe, 0x1e, 0x66, 0x07, 0xc0, 0x61, 0x50, 0x1c, 0xc0, 0x6b, 0x7f, 0xbd, 0xbe, 0xec, 0x5a, 0x50, 0xbd, 0x7e, 0xf2, 0x44, 0xbf, 0x32, 0x34, 0xb1, 0xbf, 0x48, 0xe6, 0x24, 0xc0, 0x08, 0xde, 0x6a, 0xbf, 0xa7, 0xea, 0x59, 0xbe, 0x38, 0x7d, 0xe3, 0x3f, 0xee, 0x38, 0x8d, 0xbc, 0xef, 0xad, 0x31, 0xc0, 0xbf, 0x99, 0x18, 0xc0, 0xfc, 0x89, 0xd8, 0x3f, 0x37, 0xd5, 0xcd, 0xbe, 0xa0, 0x7a, 0xec, 0xbf, 0x1a, 0xfd, 0x38, 0x3f, 0xe8, 0xc7, 0x87, 0xbd, 0xbf, 0xfd, 0x21, 0x3f, 0xaa, 0x8c, 0xe2, 0xbf, 0x27, 0xaa, 0x22, 0xc0, 0xae, 0x1d, 0x9a, 0x3f, 0xb6, 0x0d, 0xf5, 0x3a, 0x5e, 0xae, 0x5a, 0xbe, 0x86, 0x5d, 0xaf, 0xbf, 0x21, 0xe1, 0x64, 0xc0, 0xbe, 0xfd, 0x35, 0x3f, 0x18, 0xce, 0x53, 0x3d, 0xb0, 0xc2, 0x03, 0xbf, 0xc6, 0x3d, 0xee, 0xbe, 0x00, 0x2c, 0x39, 0xbf, 0xeb, 0x24, 0x51, 0x3e, 0x3e, 0x71, 0x07, 0xc0, 0x56, 0x56, 0x59, 0xbf, 0x54, 0xe8, 0x56, 0xbd, 0x5d, 0x25, 0x71, 0xbf, 0x67, 0x96, 0x7c, 0xbf, 0xcc, 0xd9, 0xac, 0xbf, 0xb0, 0xf1, 0x94, 0xbf, 0x4a, 0x20, 0xc8, 0x3f, 0x7b, 0xbc, 0x79, 0xbf, 0x91, 0x48, 0x27, 0x3f, 0xd1, 0x19, 0x94, 0xc0, 0xe0, 0x6b, 0x06, 0x3f, 0x7b, 0x56, 0xe3, 0xbd, 0xd9, 0xef, 0x94, 0x3d, 0xb3, 0x89, 0xc0, 0x3c, 0xf5, 0xa7, 0x82, 0xbd, 0x42, 0xa9, 0x8a, 0x3c, 0x6d, 0xed, 0x85, 0x3d, 0xee, 0xfc, 0x28, 0xbe, 0xfb, 0xf4, 0x82, 0xbe, 0x96, 0x95, 0x0d, 0xbe, 0x0d, 0x03, 0xa7, 0x3c, 0x8f, 0x72, 0xb0, 0xbd, 0xee, 0x71, 0x41, 0xbe, 0x71, 0x14, 0xfe, 0x3c, 0xa8, 0x2a, 0x2d, 0xbe, 0x79, 0x76, 0xec, 0xbd, 0x94, 0xe3, 0x0d, 0xbe, 0x86, 0xb7, 0xf8, 0x3d, 0x86, 0xe1, 0x12, 0xbe, 0xe6, 0x5f, 0x2d, 0xbd, 0x28, 0x0f, 0xf4, 0x3c, 0xcb, 0xe2, 0x23, 0x3d, 0xd0, 0x48, 0x78, 0xbe, 0xad, 0x4a, 0x40, 0xbe, 0x02, 0x5f, 0x29, 0xbe, 0x0c, 0x7e, 0x51, 0x3d, 0x3e, 0x80, 0x98, 0x3d, 0x80, 0x53, 0x85, 0xbd, 0xf0, 0x2e, 0xd6, 0x3d, 0x5e, 0x08, 0xd3, 0xbd, 0x06, 0x7d, 0x3c, 0xbe, 0x85, 0x6a, 0xc2, 0x3e, 0xb3, 0xea, 0x81, 0x3f, 0xa7, 0xfa, 0xba, 0x3f, 0xac, 0xdb, 0x8b, 0x3e, 0xb8, 0x48, 0xb9, 0x3e, 0x51, 0x9a, 0xdb, 0x3e, 0xd6, 0xb2, 0x61, 0xbe, 0xdc, 0x88, 0x07, 0x40, 0x54, 0x22, 0x59, 0xbf, 0xb9, 0xca, 0x33, 0x3f, 0xa9, 0x4f, 0xd2, 0xbe, 0xf1, 0x59, 0x21, 0xbf, 0xfe, 0xf0, 0xcf, 0x3e, 0x4b, 0x0d, 0x9b, 0xc0, 0x5a, 0x26, 0x86, 0x3f, 0x3f, 0x38, 0xe7, 0x3e, 0x45, 0x0e, 0x60, 0xbf, 0x95, 0xb4, 0x3a, 0x3f, 0x01, 0xc8, 0xa7, 0x3f, 0x80, 0xb4, 0x0b, 0x3f, 0x37, 0xac, 0xe2, 0x3e, 0xbc, 0x58, 0xba, 0xbf, 0xa1, 0x0e, 0xf9, 0x3e, 0xde, 0xd7, 0xf7, 0x3f, 0x16, 0x94, 0x42, 0x3f, 0x37, 0x17, 0x99, 0xbc, 0x7f, 0xc9, 0x3e, 0xc0, 0x14, 0x7f, 0x3a, 0x40, 0x75, 0x26, 0x34, 0x40, 0x79, 0xca, 0xc8, 0x3f, 0xc4, 0x73, 0xa5, 0xbd, 0xde, 0x11, 0x41, 0x3d, 0x06, 0xeb, 0xd3, 0xbd, 0x69, 0x2c, 0x87, 0x3b, 0x92, 0xaf, 0x93, 0x3c, 0x0e, 0x2b, 0xf8, 0xbd, 0x14, 0xdd, 0x6f, 0xbd, 0xca, 0x8e, 0x39, 0xbe, 0x15, 0xd8, 0x0f, 0x3e, 0xd2, 0xa8, 0x1a, 0xbd, 0x8a, 0x14, 0xfe, 0xbd, 0x92, 0x4a, 0xa0, 0x3c, 0x39, 0xa5, 0xf3, 0x3d, 0xba, 0x42, 0x49, 0xbe, 0x3c, 0x85, 0x00, 0x3e, 0x51, 0x3b, 0x15, 0xbf, 0xab, 0x02, 0x85, 0x3f, 0x3c, 0x88, 0xc1, 0x3f, 0x08, 0xb7, 0xa5, 0x3f, 0x10, 0x17, 0xb6, 0xbe, 0xce, 0x7b, 0xc6, 0xbe, 0x9e, 0x70, 0x26, 0x3e, 0xbb, 0x65, 0xa5, 0x3f, 0x6e, 0x07, 0x15, 0x40, 0x9f, 0x38, 0x9b, 0xbf, 0x41, 0xef, 0xf2, 0x3c, 0x48, 0x1d, 0xbc, 0xbf, 0x90, 0xc2, 0x89, 0xc0, 0x9b, 0x36, 0xec, 0x3f, 0x62, 0xb0, 0x1d, 0xbf, 0x7a, 0x1a, 0xe0, 0x3d, 0xe7, 0x54, 0xf3, 0xbd, 0xfd, 0x40, 0x28, 0xbd, 0x27, 0x45, 0x14, 0xbd, 0x2d, 0x7d, 0x88, 0xbc, 0x44, 0xaf, 0x3a, 0x3d, 0x33, 0xbb, 0xf3, 0xbd, 0xb2, 0x61, 0x47, 0xbd, 0x06, 0xbf, 0x3b, 0xbe, 0x5a, 0x63, 0xe7, 0xbd, 0x0e, 0xc1, 0x30, 0xbe, 0x62, 0x7f, 0x85, 0x3c, 0xc9, 0x98, 0x14, 0x3c, 0x84, 0x19, 0xc1, 0x3d, 0x47, 0x24, 0x69, 0xbd, 0xd5, 0x83, 0xca, 0x3f, 0x7b, 0x54, 0x3b, 0x3e, 0xba, 0xff, 0xc7, 0xbe, 0x96, 0x62, 0xb9, 0x3f, 0x6a, 0x47, 0x77, 0xbb, 0x6e, 0x07, 0xc6, 0xbd, 0x6d, 0x43, 0x85, 0xbf, 0x74, 0xb5, 0x74, 0x3e, 0x59, 0xc3, 0x02, 0x3e, 0x2e, 0xe1, 0x6b, 0xbf, 0xc3, 0x17, 0xd3, 0xbf, 0x36, 0x11, 0x4f, 0xc0, 0x02, 0xd3, 0xab, 0x3e, 0x80, 0xc2, 0x98, 0x3e, 0xbf, 0x16, 0x56, 0xc0, 0xc1, 0xdb, 0xe5, 0x3d, 0x3c, 0x39, 0x38, 0xbe, 0x2d, 0xa2, 0x6f, 0x3d, 0x8b, 0xed, 0x15, 0xbe, 0x6e, 0x0f, 0x15, 0xbe, 0x9f, 0x8a, 0xaa, 0x3d, 0x1f, 0x4d, 0xdb, 0xbd, 0x56, 0xaa, 0x21, 0xbe, 0xae, 0x21, 0x27, 0xbe, 0xe7, 0x83, 0xc5, 0xbd, 0xeb, 0xe6, 0x36, 0xbe, 0x50, 0xfd, 0x44, 0xbc, 0x57, 0x78, 0xa6, 0x3d, 0x34, 0xb6, 0xe0, 0x3d, 0xa6, 0x73, 0x1c, 0xbd, 0x74, 0x89, 0x85, 0xbd, 0xfe, 0x98, 0x40, 0xbe, 0x7f, 0x8d, 0xc4, 0x3c, 0x13, 0x7c, 0x23, 0xbe, 0x7a, 0xa3, 0x71, 0xbd, 0xe0, 0xca, 0xe3, 0xbd, 0x0c, 0xf7, 0x0e, 0x3e, 0xc9, 0xdf, 0x30, 0xbe, 0xbb, 0xd0, 0x9b, 0x3d, 0x05, 0x14, 0x29, 0xbe, 0xa2, 0xdb, 0xd1, 0x3d, 0x21, 0x3e, 0xb7, 0xbd, 0x64, 0xa5, 0x80, 0x3d, 0x61, 0xaf, 0x73, 0x3c, 0xcb, 0x35, 0xe2, 0xbc, 0x2e, 0x00, 0x3b, 0x3f, 0x3b, 0xfe, 0x2a, 0xbf, 0x62, 0xcf, 0xad, 0xbe, 0x94, 0x1f, 0x91, 0xbf, 0x02, 0x6e, 0xc6, 0x3e, 0x9d, 0xe9, 0x09, 0x3f, 0x3b, 0xda, 0x93, 0xbe, 0x20, 0x72, 0x6e, 0xbf, 0x77, 0x1d, 0x9e, 0xbf, 0x0e, 0x93, 0x4f, 0x3f, 0xa9, 0xce, 0x2d, 0x3e, 0xaf, 0x3c, 0x95, 0xbd, 0x61, 0x16, 0xe8, 0x3f, 0xee, 0xe2, 0x24, 0x40, 0x37, 0x1d, 0x4a, 0x3e, 0x53, 0x0c, 0x22, 0xbe, 0xba, 0xd4, 0xf0, 0xbd, 0x58, 0x0d, 0x47, 0x3d, 0x4b, 0x19, 0x08, 0xbd, 0x1d, 0xd7, 0x6d, 0xbc, 0x40, 0xcb, 0x37, 0xbe, 0xd4, 0xbf, 0xfa, 0x3d, 0xd3, 0xa6, 0xd4, 0x3d, 0x50, 0xdf, 0x0f, 0xbe, 0x61, 0x1a, 0x47, 0x3d, 0x46, 0x7a, 0x7e, 0xbd, 0x03, 0x1d, 0x5b, 0xbc, 0xa7, 0xfc, 0x54, 0xbe, 0xac, 0x12, 0xc5, 0xbd, 0x97, 0xa1, 0x46, 0x3c, 0xc6, 0x8e, 0xc6, 0xbd, 0xc8, 0x63, 0x81, 0x3c, 0x49, 0xd1, 0x41, 0xbe, 0xa5, 0xe4, 0x01, 0x3e, 0x2e, 0x72, 0x28, 0xbe, 0xdf, 0xb6, 0x10, 0x3e, 0x3f, 0x2f, 0x56, 0xbe, 0xaa, 0x8b, 0x13, 0xbe, 0x89, 0xee, 0x43, 0xbd, 0x4d, 0x87, 0xee, 0x3c, 0xd5, 0xaf, 0x6c, 0x3c, 0xb1, 0xa3, 0x93, 0x3d, 0xff, 0xad, 0xdd, 0x3d, 0x10, 0x5a, 0xcf, 0xbd, 0xe7, 0x02, 0x5c, 0xbe, 0x94, 0x2d, 0x51, 0xbe, 0x0b, 0xc3, 0x00, 0x3e, 0x06, 0x91, 0x0c, 0x3d, 0x17, 0x05, 0x6c, 0xbd, 0x3b, 0xb6, 0x38, 0x3e, 0xdb, 0xb2, 0xa0, 0x3c, 0x26, 0x04, 0xd2, 0xbd, 0x1c, 0x1f, 0x65, 0x3d, 0x8c, 0x9d, 0x2e, 0xbe, 0xb2, 0xe2, 0x2e, 0xbe, 0xc3, 0x91, 0x99, 0x3d, 0x70, 0x49, 0x37, 0xbe, 0x0b, 0xd5, 0x80, 0xbd, 0x7b, 0x95, 0xdf, 0xbd, 0x6b, 0xe8, 0x0a, 0x3a, 0x21, 0xa4, 0xfb, 0x3e, 0x76, 0xf1, 0x45, 0xbf, 0x33, 0x3c, 0xb8, 0xbf, 0x9c, 0x99, 0x44, 0x3f, 0xb8, 0xee, 0xf0, 0xbd, 0x56, 0x2f, 0x28, 0x3f, 0x0a, 0xb0, 0x77, 0x3e, 0xff, 0x85, 0xa5, 0xbf, 0x8b, 0xff, 0xe4, 0x3e, 0xc4, 0x23, 0xa1, 0xbe, 0xfc, 0x36, 0x53, 0xbc, 0xe1, 0x7c, 0xa3, 0x40, 0x72, 0xa9, 0x09, 0x40, 0xd3, 0x77, 0xe0, 0x3b, 0x19, 0x0d, 0x8a, 0xbe, 0x06, 0x7c, 0xff, 0xbe, 0xed, 0xcc, 0xc9, 0x3f, 0xec, 0x07, 0x89, 0x3f, 0xd5, 0x6b, 0xc9, 0xbf, 0xe9, 0xd2, 0x97, 0xbd, 0x5e, 0xf8, 0x5b, 0xbf, 0x60, 0xf4, 0xc6, 0x3f, 0x8c, 0xf7, 0x58, 0xbd, 0x28, 0xaa, 0xc0, 0xbf, 0xab, 0x29, 0x30, 0xbc, 0xf3, 0xd7, 0x82, 0x3f, 0xbe, 0xb8, 0xc3, 0xbe, 0x99, 0x76, 0x97, 0xc0, 0x2d, 0x89, 0x3f, 0xc0, 0x43, 0xbe, 0x14, 0x40, 0x0f, 0x0c, 0xb7, 0x3d, 0x88, 0x2a, 0x6b, 0xbd, 0x5d, 0x8c, 0x68, 0xbe, 0x28, 0xf2, 0xd7, 0x3d, 0x8e, 0xb3, 0x09, 0xbe, 0xb7, 0xfa, 0x6b, 0xbe, 0x45, 0x56, 0x56, 0xbe, 0xba, 0x6c, 0x67, 0xbe, 0xca, 0x40, 0xd8, 0x3d, 0x42, 0x9f, 0x62, 0x3b, 0x2b, 0x92, 0xc8, 0x3d, 0x50, 0xe1, 0xd4, 0xbc, 0x31, 0x6d, 0xfc, 0x3d, 0xa6, 0xeb, 0x92, 0xbd, 0x90, 0x70, 0xd3, 0xbd, 0x6e, 0xbf, 0x12, 0x3b, 0x8c, 0x5c, 0x91, 0xbe, 0x1a, 0x83, 0xa5, 0x3d, 0x6a, 0x68, 0xb4, 0xbd, 0x9b, 0x35, 0x04, 0xbe, 0x20, 0xa2, 0x43, 0xbd, 0x15, 0xf5, 0x63, 0x3c, 0x20, 0x42, 0x90, 0xbd, 0xc0, 0xb9, 0x1f, 0xbd, 0x5c, 0xfa, 0x0b, 0x3e, 0x9f, 0x63, 0x0e, 0xbe, 0xd0, 0xfd, 0x2e, 0xbe, 0xb4, 0x6d, 0xb6, 0xbd, 0xea, 0xd3, 0xdf, 0x3c, 0x3c, 0xbd, 0x1e, 0xbe, 0xcf, 0xbc, 0x08, 0x3e, 0x2c, 0x7c, 0x03, 0xbe, 0xcb, 0x1b, 0xfa, 0xbd, 0x1d, 0x45, 0x6e, 0xbd, 0x2a, 0x2a, 0x2b, 0xbe, 0x72, 0x0b, 0x63, 0xbd, 0x37, 0x5f, 0x9a, 0xbd, 0x19, 0xd0, 0xbf, 0xbd, 0xa9, 0x95, 0xc0, 0x3d, 0x46, 0x8c, 0x74, 0xbe, 0xef, 0xfd, 0x09, 0x3e, 0x08, 0xda, 0x86, 0xbd, 0x9d, 0x39, 0x9f, 0xbd, 0x46, 0xef, 0xeb, 0xbd, 0x10, 0xbc, 0xa8, 0x3d, 0x93, 0xfb, 0x8f, 0xbc, 0xa7, 0xfe, 0xfb, 0x3d, 0x79, 0x21, 0x02, 0xbe, 0x64, 0xfb, 0x02, 0x3e, 0x33, 0x7f, 0x4a, 0xbe, 0x4d, 0xb0, 0x1c, 0xbe, 0x8c, 0x9d, 0x29, 0xbd, 0x1d, 0x06, 0x1f, 0xbe, 0xbc, 0xb1, 0x0b, 0xbe, 0x1f, 0x1f, 0x1f, 0xbe, 0x1b, 0x01, 0x3c, 0xbd, 0x7a, 0x34, 0xab, 0x3c, 0xaf, 0x78, 0x6f, 0xbe, 0x99, 0x12, 0xf9, 0x3d, 0xfc, 0x90, 0x08, 0xbd, 0xe7, 0x02, 0xb3, 0xbf, 0xd0, 0x68, 0x1d, 0xbf, 0xae, 0x22, 0x83, 0x3e, 0x0c, 0x3b, 0x29, 0xbf, 0x28, 0xde, 0xb3, 0xbf, 0x89, 0x7c, 0x91, 0xbf, 0x9a, 0xea, 0x26, 0xbf, 0xfa, 0x67, 0xb9, 0x3e, 0xe8, 0x2d, 0x96, 0xbf, 0x98, 0xd1, 0x98, 0xbf, 0x9f, 0x7f, 0xad, 0xbf, 0x4f, 0x2e, 0x98, 0x3e, 0x13, 0x8d, 0x93, 0x3f, 0x1e, 0x6f, 0xd4, 0xbf, 0x84, 0xae, 0x5e, 0xbf, 0x09, 0xc6, 0x74, 0x3d, 0x2a, 0x1b, 0x5d, 0x3f, 0x22, 0x4b, 0x90, 0xbf, 0x0f, 0x16, 0xdf, 0xbf, 0xd3, 0x90, 0x9c, 0x3e, 0xf3, 0x61, 0xc2, 0x3e, 0x43, 0x74, 0x7e, 0x3e, 0x4f, 0x82, 0x71, 0xbf, 0x58, 0x7b, 0xdc, 0xbf, 0x14, 0xe1, 0xab, 0x3e, 0x12, 0xa0, 0xc5, 0xbe, 0xbb, 0xfe, 0xb4, 0x3e, 0xb4, 0x2e, 0xf7, 0x3f, 0x9d, 0x87, 0xbd, 0xbf, 0x6f, 0x49, 0xda, 0xbe, 0x93, 0xab, 0xd9, 0x3d, 0xa2, 0xc2, 0x14, 0xbe, 0x59, 0x48, 0x9b, 0x3d, 0x26, 0x17, 0x3d, 0xbe, 0x12, 0x88, 0x9b, 0xbd, 0x59, 0x3d, 0xc7, 0x3c, 0x5d, 0x16, 0x93, 0x3d, 0x8b, 0x6b, 0xb1, 0x3d, 0xe7, 0xe0, 0x3b, 0xbe, 0x7d, 0x28, 0xd8, 0x3d, 0xe9, 0xa7, 0xa3, 0xbd, 0x8c, 0xb5, 0x39, 0xbe, 0x53, 0x3d, 0x81, 0xbc, 0x84, 0xab, 0x0b, 0xbe, 0x81, 0x26, 0x25, 0xbe, 0x15, 0x52, 0xff, 0xbd, 0xd3, 0x58, 0xa1, 0x3d, 0xcb, 0x30, 0x3c, 0xbf, 0xa6, 0x6c, 0xa2, 0x3f, 0x50, 0x4e, 0xbb, 0xbe, 0x21, 0xfd, 0xb2, 0xbe, 0x3a, 0x60, 0x34, 0x3f, 0x04, 0xfb, 0xc3, 0xbf, 0xc5, 0xab, 0x68, 0x3f, 0x26, 0xd3, 0x65, 0xbf, 0xfe, 0x57, 0xa8, 0xbe, 0xb0, 0xe4, 0x56, 0x40, 0x46, 0x0e, 0x17, 0x40, 0xc9, 0x0b, 0xba, 0x3f, 0x3e, 0xd4, 0x11, 0xbe, 0xfc, 0x32, 0x51, 0x3f, 0xa5, 0xf2, 0x35, 0x3e, 0x1e, 0xd2, 0xd1, 0xbe, 0x4b, 0x9f, 0xe5, 0xbe, 0x79, 0x59, 0x5a, 0xbd, 0xb3, 0xa6, 0xb5, 0x3e, 0x01, 0x4e, 0x2a, 0x3f, 0x5d, 0x55, 0xc9, 0xbf, 0x2b, 0x31, 0x04, 0x3f, 0xd8, 0x0b, 0xc1, 0xbe, 0x34, 0x5c, 0x4c, 0x3f, 0x4d, 0x81, 0xc1, 0x3f, 0xa5, 0xd6, 0x5e, 0xc0, 0x7d, 0x92, 0x08, 0x40, 0xc8, 0x57, 0x28, 0xbe, 0xcc, 0xde, 0xbe, 0xbc, 0x39, 0x1c, 0xe3, 0xbd, 0x97, 0x5d, 0x82, 0x3e, 0x82, 0xce, 0xac, 0xbd, 0x8e, 0x4f, 0xba, 0x3e, 0x4c, 0x29, 0x1c, 0x3f, 0x7e, 0x44, 0x6b, 0x3e, 0x75, 0x6d, 0xb7, 0xbf, 0x89, 0x97, 0x88, 0x3e, 0x29, 0x28, 0x3b, 0x3f, 0xe0, 0x3e, 0xce, 0x3f, 0x7f, 0xf4, 0x9f, 0x3f, 0x74, 0x83, 0x60, 0xc0, 0x07, 0x16, 0xce, 0xbf, 0xaf, 0xca, 0x1e, 0x40, 0xff, 0x46, 0xed, 0xbd, 0x76, 0x7c, 0x26, 0x3f, 0x50, 0xdf, 0xfa, 0x3f, 0x85, 0x7f, 0x14, 0x3f, 0xb3, 0x0b, 0xf1, 0xbe, 0x2e, 0x7c, 0xf9, 0xbc, 0x04, 0xdd, 0x5a, 0xbe, 0x61, 0x8b, 0x80, 0x3f, 0x65, 0x61, 0xd6, 0x3f, 0xa1, 0x36, 0x8a, 0xbf, 0x02, 0xb1, 0x2f, 0xbf, 0xb2, 0x60, 0xa2, 0xbf, 0x36, 0xc6, 0x6e, 0xc0, 0x31, 0x1b, 0x6e, 0x40, 0x9c, 0xff, 0x9f, 0xbf, 0xc4, 0x0a, 0x0f, 0xbe, 0xdc, 0xa3, 0x82, 0xbc, 0x2f, 0xe1, 0x07, 0xbb, 0x61, 0xa0, 0x8a, 0x3d, 0x31, 0xa4, 0xcc, 0xbc, 0x44, 0x34, 0x85, 0x3d, 0xd6, 0xee, 0xc1, 0xbd, 0xe5, 0x33, 0x9d, 0x3d, 0x1d, 0xef, 0xe5, 0xbc, 0x24, 0x1b, 0xdc, 0x3d, 0x44, 0x39, 0x8d, 0xbe, 0x98, 0x48, 0x96, 0xbe, 0x53, 0xe4, 0x9e, 0xbe, 0xdd, 0xb9, 0x88, 0x3d, 0xac, 0xea, 0x5f, 0xbe, 0x97, 0x1d, 0x25, 0x3d, 0x84, 0x9a, 0x0b, 0xbe, 0x58, 0x96, 0x71, 0xbe, 0x46, 0x6b, 0xfa, 0x3d, 0xfc, 0x3b, 0x5d, 0xbe, 0xf8, 0x01, 0xa1, 0x3d, 0x7e, 0x27, 0x80, 0xbe, 0x17, 0x49, 0xc3, 0xbd, 0x86, 0x74, 0xd0, 0xbd, 0x98, 0x40, 0x5e, 0xbe, 0x84, 0x79, 0xd8, 0xbd, 0x63, 0x92, 0xf3, 0x3c, 0x83, 0x04, 0xd2, 0x3d, 0x1b, 0x43, 0x8b, 0x3d, 0x4a, 0x67, 0xfc, 0x3d, 0x3c, 0x76, 0x70, 0x3e, 0xbd, 0x5e, 0x4d, 0xbf, 0xcd, 0x49, 0xb6, 0xbf, 0x55, 0x12, 0x6d, 0xbf, 0x08, 0xa6, 0x3a, 0x3e, 0xa3, 0xc7, 0xe7, 0x3e, 0x7f, 0x4c, 0x42, 0xbf, 0x7f, 0x1d, 0xba, 0xbe, 0x50, 0x5c, 0x06, 0xbf, 0xbf, 0xe8, 0xe7, 0x3e, 0x3b, 0x8c, 0x01, 0xbf, 0x5e, 0xba, 0x50, 0x3e, 0x93, 0x9d, 0xbd, 0x3f, 0x61, 0x44, 0xac, 0x3e, 0xb6, 0x2d, 0x25, 0xbe, 0x55, 0x81, 0x59, 0xbd, 0xd1, 0x91, 0x93, 0xbd, 0xa3, 0x73, 0x62, 0xbe, 0x67, 0x33, 0x79, 0xbe, 0x1a, 0x0d, 0x69, 0xbd, 0xa2, 0xd7, 0x82, 0x3d, 0x8d, 0x72, 0x17, 0xbd, 0xbf, 0x49, 0x04, 0x3c, 0x1f, 0x7b, 0xb0, 0xbd, 0xc5, 0x84, 0x1e, 0x3c, 0x6c, 0x8f, 0x2e, 0xbe, 0x47, 0xb5, 0x05, 0xbe, 0x41, 0x0c, 0x38, 0xbd, 0xc1, 0x6d, 0x6d, 0x3c, 0xe0, 0xe1, 0x97, 0xbc, 0x29, 0x22, 0x4a, 0xbe, 0xbf, 0x7f, 0x28, 0xbc, 0x42, 0x06, 0x71, 0xbe, 0x56, 0x06, 0x46, 0xbe, 0xe0, 0x82, 0xe7, 0x3d, 0xbf, 0x9b, 0xe0, 0xbd, 0xcd, 0x19, 0x4a, 0xbe, 0xa8, 0xf1, 0x18, 0xbe, 0xc4, 0xdf, 0x01, 0x3e, 0xdb, 0x41, 0x1b, 0x3d, 0x60, 0xc4, 0x38, 0xbe, 0xf3, 0x88, 0xf0, 0x3d, 0x07, 0x55, 0x2c, 0x3d, 0xe5, 0xfc, 0x4d, 0xbd, 0xf7, 0x61, 0x34, 0xbe, 0x71, 0x62, 0xcf, 0xbd, 0xbc, 0xb9, 0x3b, 0x3d, 0xc1, 0x3d, 0x8d, 0x3d, 0xb5, 0x79, 0x63, 0xbc, 0xa6, 0x0f, 0x0b, 0xbe, 0x2c, 0x8b, 0xc4, 0x3d, 0x2d, 0x01, 0xfd, 0x3c, 0x40, 0x3a, 0x27, 0x3e, 0xdd, 0x60, 0xb6, 0xbd, 0x64, 0xec, 0x03, 0x3e, 0x93, 0x3e, 0x96, 0xbd, 0x5a, 0xf0, 0xf8, 0xbd, 0xc3, 0x3c, 0x40, 0xbe, 0x8b, 0xad, 0x43, 0xbe, 0xb8, 0x6d, 0x1e, 0xbe, 0x29, 0x53, 0xea, 0xbd, 0x3d, 0xb0, 0x46, 0xbe, 0xe6, 0x82, 0xcd, 0x3b, 0xb1, 0x92, 0x80, 0xbd, 0x34, 0x8e, 0x0d, 0x3d, 0x20, 0x3d, 0xa8, 0x3d, 0x28, 0x9a, 0x1b, 0xbe, 0xc6, 0x46, 0x3e, 0x3d, 0xbd, 0x1f, 0x94, 0x3d, 0xbc, 0xd2, 0x02, 0xbe, 0x06, 0x3b, 0x3a, 0xbe, 0x93, 0x5b, 0xf8, 0xbc, 0x28, 0x63, 0x94, 0x3d, 0x04, 0x04, 0x0c, 0xbe, 0x3b, 0x19, 0x3d, 0x3d, 0xfc, 0x7a, 0x95, 0x3d, 0x42, 0x25, 0xed, 0xbd, 0x1e, 0xbe, 0x49, 0xbd, 0x19, 0xba, 0x1d, 0xbd, 0x15, 0xf3, 0x04, 0x3e, 0x36, 0x96, 0x4a, 0xbe, 0x23, 0x0d, 0x19, 0xbe, 0xa3, 0xa2, 0x43, 0xbd, 0xd2, 0x67, 0x9d, 0xbd, 0x71, 0x7d, 0x03, 0x3e, 0x58, 0x9d, 0x18, 0xbe, 0x04, 0x98, 0x9a, 0x3c, 0x2b, 0xf0, 0xfe, 0xbd, 0xe8, 0x16, 0x9e, 0xbd, 0xee, 0xa5, 0x35, 0xbe, 0x05, 0x5c, 0x49, 0xbf, 0x14, 0xa0, 0x1c, 0x3f, 0xc4, 0xfa, 0x8f, 0xbf, 0xda, 0xcc, 0x32, 0x3f, 0xbc, 0xab, 0x93, 0xbe, 0xc2, 0xc7, 0xef, 0xbd, 0x54, 0xfc, 0x31, 0x3f, 0x11, 0x2c, 0xe2, 0xbf, 0x75, 0xa9, 0x13, 0x3f, 0xf1, 0xdc, 0x6e, 0x3e, 0x4e, 0x0a, 0xcc, 0xbe, 0xb5, 0x89, 0x22, 0x40, 0x7d, 0x9a, 0x35, 0x40, 0x36, 0x12, 0xe6, 0xbd, 0x9a, 0x62, 0x60, 0xbf, 0x95, 0x9f, 0xec, 0x3d, 0x5f, 0xc4, 0x91, 0xbe, 0x47, 0xf1, 0xc3, 0xbd, 0x1b, 0xa2, 0x36, 0xbe, 0x74, 0x99, 0x2c, 0xbe, 0x06, 0x55, 0xbe, 0x3d, 0x24, 0x90, 0x66, 0xbd, 0x85, 0x47, 0x09, 0xbe, 0x59, 0x66, 0xb2, 0x3d, 0x5d, 0x11, 0xdf, 0x3d, 0x0f, 0xe2, 0x34, 0x3a, 0x86, 0x5f, 0xfe, 0xbc, 0xd5, 0xa4, 0xf1, 0xbd, 0x58, 0xe5, 0x34, 0xbe, 0x54, 0x16, 0x1c, 0xbe, 0x69, 0x68, 0xa4, 0x3d, 0xdb, 0xed, 0xa7, 0x3d, 0xe5, 0x8a, 0xb4, 0xbd, 0x2f, 0x78, 0xd2, 0x3d, 0xbb, 0x05, 0x4a, 0xbe, 0x23, 0x44, 0x31, 0x3e, 0xe3, 0x6a, 0x86, 0x3d, 0xfd, 0x16, 0x0e, 0xbe, 0xe0, 0x59, 0x55, 0xbe, 0x36, 0x89, 0x92, 0xbd, 0x73, 0xcb, 0x43, 0xbe, 0x34, 0xa0, 0x4d, 0xbd, 0x1e, 0x2b, 0xd1, 0xbc, 0xff, 0x69, 0x1a, 0xbd, 0x62, 0x88, 0x7c, 0xbd, 0xcd, 0x88, 0xe4, 0x3d, 0x2d, 0xd7, 0x25, 0xbf, 0xb9, 0xd8, 0x3c, 0xbf, 0x70, 0xf9, 0x87, 0xbe, 0xad, 0xaa, 0x00, 0x3f, 0x79, 0xe8, 0x17, 0x3d, 0x6e, 0xc7, 0x92, 0xbf, 0x97, 0xa6, 0x0c, 0xbf, 0x25, 0x41, 0x2e, 0x3e, 0xa1, 0xa3, 0xba, 0xbd, 0x85, 0x2b, 0xc9, 0x3e, 0xfe, 0x09, 0x32, 0xbf, 0x58, 0xa2, 0x66, 0x40, 0x0f, 0x62, 0xd9, 0x3f, 0x7b, 0x51, 0xb8, 0xbe, 0xe7, 0x6d, 0x9a, 0x3d, 0x77, 0xca, 0x1b, 0x3e, 0x1e, 0xa4, 0xb8, 0x3c, 0x67, 0x9f, 0xe2, 0xbd, 0x45, 0xed, 0x17, 0xbe, 0x13, 0x74, 0x52, 0x3d, 0xed, 0x0a, 0x11, 0xbe, 0x71, 0x00, 0xd4, 0x3d, 0xcd, 0x98, 0xfc, 0xbd, 0xfa, 0xc7, 0x5f, 0xbc, 0xa9, 0xff, 0x45, 0xbe, 0x73, 0xdf, 0x28, 0xbe, 0x96, 0x74, 0xf8, 0xbd, 0x54, 0x2a, 0x01, 0x3d, 0xe9, 0xdf, 0xc1, 0x3c, 0x46, 0xfd, 0xff, 0xff, 0x04, 0x00, 0x00, 0x00, 0x00, 0x02, 0x00, 0x00, 0x1f, 0xf7, 0x98, 0x3d, 0xe5, 0x30, 0x96, 0xbd, 0xca, 0x04, 0x33, 0x40, 0x39, 0xbf, 0xff, 0xbb, 0x32, 0xe9, 0x1c, 0x40, 0xba, 0x3a, 0xd1, 0x3b, 0xc7, 0xc0, 0x00, 0xbe, 0xf4, 0x16, 0x05, 0xc0, 0xc4, 0x72, 0xce, 0xbc, 0xb4, 0xc8, 0x11, 0xbc, 0x78, 0xd2, 0x41, 0xbd, 0xee, 0xa6, 0xf6, 0xbf, 0x30, 0xea, 0x13, 0xbd, 0x50, 0x62, 0xef, 0xbf, 0x18, 0x2d, 0xa5, 0xbd, 0x2e, 0xa9, 0xca, 0x3d, 0x38, 0xed, 0x72, 0x3e, 0xf4, 0x83, 0x5c, 0xbd, 0xc7, 0x6a, 0x39, 0x3e, 0xe8, 0xc8, 0xa0, 0xbd, 0x14, 0x90, 0x65, 0xbd, 0x19, 0xe8, 0x8b, 0x27, 0x60, 0x34, 0x94, 0xbf, 0x96, 0xab, 0x79, 0xc0, 0x26, 0x74, 0xf8, 0xbf, 0x4f, 0x08, 0xe5, 0xbf, 0xc5, 0xbe, 0x0f, 0xbd, 0x3e, 0xa3, 0x04, 0xbd, 0xdb, 0xaf, 0x74, 0xbd, 0xc5, 0x26, 0x50, 0xbd, 0xe9, 0xb4, 0x7e, 0xbf, 0x9c, 0x74, 0xdb, 0xbe, 0x6a, 0xeb, 0xc4, 0x3f, 0xe9, 0x3e, 0x8c, 0xbe, 0x28, 0x76, 0x8c, 0xbc, 0xd2, 0x69, 0xcf, 0xbf, 0xdd, 0xd7, 0x89, 0x3c, 0x1d, 0x74, 0x70, 0xbd, 0xb1, 0xa5, 0x61, 0xbd, 0x00, 0x00, 0x00, 0x00, 0x00, 0xca, 0x4e, 0x40, 0x06, 0xc1, 0x0d, 0xbd, 0xff, 0xe0, 0x2c, 0xb8, 0xfb, 0x28, 0x1b, 0xc0, 0xef, 0x02, 0x98, 0xbd, 0xbb, 0x6f, 0x36, 0xbf, 0xb7, 0xb0, 0x98, 0x3f, 0x8c, 0x7c, 0xa8, 0x3f, 0xd7, 0x0a, 0x9d, 0xbd, 0xf7, 0xa0, 0x3e, 0x3f, 0xd4, 0x7e, 0x29, 0xbf, 0xfa, 0x0e, 0x31, 0xc0, 0xa9, 0x62, 0xd3, 0xbe, 0x12, 0xa2, 0xa8, 0x24, 0x77, 0x1e, 0x99, 0xbf, 0xcf, 0x4e, 0xca, 0xbd, 0x97, 0x0a, 0x47, 0xbd, 0x66, 0x8c, 0x97, 0xbb, 0xca, 0x3d, 0xcc, 0xbd, 0xda, 0xa3, 0xa9, 0xbd, 0x9b, 0x5b, 0x6e, 0xbf, 0xd6, 0x69, 0x20, 0xbd, 0x08, 0x39, 0xa0, 0xbd, 0xdb, 0x33, 0x89, 0xbc, 0xa6, 0x86, 0x35, 0xbd, 0xcd, 0xa4, 0x04, 0x3f, 0x0c, 0x4a, 0x61, 0xbd, 0x89, 0xe3, 0xa0, 0xbd, 0xa2, 0x9f, 0xcc, 0xbd, 0xba, 0xc6, 0xc7, 0xa7, 0xd1, 0x97, 0x1b, 0x3f, 0xfc, 0xb7, 0x60, 0x40, 0x37, 0x5f, 0xd2, 0xbd, 0x88, 0x52, 0xd4, 0x3f, 0xde, 0x9f, 0x28, 0xc0, 0xcc, 0x00, 0x2a, 0xbd, 0x9e, 0x65, 0x10, 0xbd, 0x0b, 0x52, 0x52, 0x3d, 0x7f, 0xba, 0xb5, 0xbf, 0x3e, 0x99, 0x7a, 0x3d, 0x11, 0x3d, 0xad, 0x3e, 0x29, 0x2a, 0x0f, 0xc0, 0x65, 0x39, 0x30, 0xbc, 0xba, 0xd8, 0x68, 0xbd, 0x2e, 0x6d, 0x88, 0xbd, 0x63, 0xcf, 0x07, 0x40, 0xad, 0x07, 0x02, 0x40, 0x2d, 0xb8, 0xb4, 0x3e, 0x6b, 0xb5, 0x37, 0xbd, 0x05, 0x92, 0x0e, 0xbd, 0x6c, 0xa8, 0x7e, 0x40, 0xc5, 0x20, 0xfa, 0xbf, 0x2d, 0x06, 0x4f, 0xbd, 0xa5, 0x9f, 0x4d, 0x40, 0x00, 0x00, 0x00, 0x00, 0x40, 0x88, 0x2a, 0xbf, 0xe5, 0x12, 0xb8, 0xbc, 0x00, 0x00, 0x00, 0x00, 0x45, 0x93, 0xbe, 0xbf, 0x5f, 0xe6, 0x39, 0xbc, 0xd5, 0x00, 0x00, 0xbd, 0x58, 0x13, 0xd6, 0xbb, 0xec, 0x86, 0xfa, 0xbf, 0x74, 0xe9, 0xdd, 0x3f, 0x78, 0x70, 0x29, 0xbd, 0xcc, 0xc3, 0x0f, 0xbd, 0xa0, 0x7d, 0x00, 0xbd, 0x8a, 0xde, 0x49, 0xbd, 0x47, 0x51, 0x0a, 0x3f, 0x8b, 0x7a, 0x27, 0xc0, 0x16, 0xf4, 0xa6, 0xbc, 0x85, 0xb8, 0x12, 0xc0, 0x82, 0x3c, 0x43, 0x3e, 0x60, 0x46, 0x28, 0x3f, 0x41, 0xce, 0x53, 0x40, 0x7d, 0x91, 0xd7, 0xbd, 0x93, 0xeb, 0x77, 0xbd, 0xc4, 0x0b, 0x95, 0xbf, 0x41, 0x5c, 0xb8, 0xbd, 0x86, 0x52, 0xa2, 0xbd, 0xe6, 0xe8, 0x14, 0x90, 0x00, 0x00, 0x00, 0x00, 0xd4, 0xc3, 0x80, 0xbd, 0xab, 0x3b, 0xd7, 0x3e, 0xd5, 0x2a, 0x24, 0xbc, 0xe6, 0x5c, 0x6f, 0x3a, 0xac, 0xf8, 0x39, 0xc0, 0xde, 0x02, 0x09, 0x33, 0x52, 0xff, 0xff, 0xff, 0x04, 0x00, 0x00, 0x00, 0x10, 0x00, 0x00, 0x00, 0xa8, 0x0d, 0x26, 0xc0, 0xc8, 0x67, 0xcc, 0x3f, 0xed, 0x8d, 0x8b, 0x3f, 0x9c, 0x57, 0x44, 0xbf, 0x78, 0xfb, 0xff, 0xff, 0x7c, 0xfb, 0xff, 0xff, 0x0f, 0x00, 0x00, 0x00, 0x4d, 0x4c, 0x49, 0x52, 0x20, 0x43, 0x6f, 0x6e, 0x76, 0x65, 0x72, 0x74, 0x65, 0x64, 0x2e, 0x00, 0x01, 0x00, 0x00, 0x00, 0x14, 0x00, 0x00, 0x00, 0x00, 0x00, 0x0e, 0x00, 0x18, 0x00, 0x14, 0x00, 0x10, 0x00, 0x0c, 0x00, 0x08, 0x00, 0x04, 0x00, 0x0e, 0x00, 0x00, 0x00, 0x14, 0x00, 0x00, 0x00, 0x1c, 0x00, 0x00, 0x00, 0xec, 0x00, 0x00, 0x00, 0xf0, 0x00, 0x00, 0x00, 0xf4, 0x00, 0x00, 0x00, 0x04, 0x00, 0x00, 0x00, 0x6d, 0x61, 0x69, 0x6e, 0x00, 0x00, 0x00, 0x00, 0x03, 0x00, 0x00, 0x00, 0x94, 0x00, 0x00, 0x00, 0x50, 0x00, 0x00, 0x00, 0x14, 0x00, 0x00, 0x00, 0x00, 0x00, 0x0e, 0x00, 0x1a, 0x00, 0x14, 0x00, 0x10, 0x00, 0x0c, 0x00, 0x0b, 0x00, 0x04, 0x00, 0x0e, 0x00, 0x00, 0x00, 0x1c, 0x00, 0x00, 0x00, 0x00, 0x00, 0x00, 0x09, 0x1c, 0x00, 0x00, 0x00, 0x20, 0x00, 0x00, 0x00, 0x01, 0x00, 0x00, 0x00, 0x00, 0x00, 0x06, 0x00, 0x08, 0x00, 0x04, 0x00, 0x06, 0x00, 0x00, 0x00, 0x00, 0x00, 0x80, 0x3f, 0x01, 0x00, 0x00, 0x00, 0x07, 0x00, 0x00, 0x00, 0x01, 0x00, 0x00, 0x00, 0x06, 0x00, 0x00, 0x00, 0xce, 0xff, 0xff, 0xff, 0x10, 0x00, 0x00, 0x00, 0x00, 0x00, 0x00, 0x08, 0x0c, 0x00, 0x00, 0x00, 0x10, 0x00, 0x00, 0x00, 0x3c, 0xfc, 0xff, 0xff, 0x01, 0x00, 0x00, 0x00, 0x06, 0x00, 0x00, 0x00, 0x03, 0x00, 0x00, 0x00, 0x05, 0x00, 0x00, 0x00, 0x04, 0x00, 0x00, 0x00, 0x01, 0x00, 0x00, 0x00, 0x00, 0x00, 0x0e, 0x00, 0x16, 0x00, 0x00, 0x00, 0x10, 0x00, 0x0c, 0x00, 0x0b, 0x00, 0x04, 0x00, 0x0e, 0x00, 0x00, 0x00, 0x18, 0x00, 0x00, 0x00, 0x00, 0x00, 0x00, 0x08, 0x18, 0x00, 0x00, 0x00, 0x1c, 0x00, 0x00, 0x00, 0x00, 0x00, 0x06, 0x00, 0x08, 0x00, 0x07, 0x00, 0x06, 0x00, 0x00, 0x00, 0x00, 0x00, 0x00, 0x01, 0x01, 0x00, 0x00, 0x00, 0x05, 0x00, 0x00, 0x00, 0x03, 0x00, 0x00, 0x00, 0x00, 0x00, 0x00, 0x00, 0x03, 0x00, 0x00, 0x00, 0x02, 0x00, 0x00, 0x00, 0x01, 0x00, 0x00, 0x00, 0x07, 0x00, 0x00, 0x00, 0x01, 0x00, 0x00, 0x00, 0x00, 0x00, 0x00, 0x00, 0x08, 0x00, 0x00, 0x00, 0x20, 0x03, 0x00, 0x00, 0xa8, 0x02, 0x00, 0x00, 0x30, 0x02, 0x00, 0x00, 0xdc, 0x01, 0x00, 0x00, 0x88, 0x01, 0x00, 0x00, 0xe4, 0x00, 0x00, 0x00, 0x60, 0x00, 0x00, 0x00, 0x04, 0x00, 0x00, 0x00, 0x16, 0xfd, 0xff, 0xff, 0x00, 0x00, 0x00, 0x01, 0x14, 0x00, 0x00, 0x00, 0x1c, 0x00, 0x00, 0x00, 0x1c, 0x00, 0x00, 0x00, 0x08, 0x00, 0x00, 0x00, 0x34, 0x00, 0x00, 0x00, 0x02, 0x00, 0x00, 0x00, 0xff, 0xff, 0xff, 0xff, 0x04, 0x00, 0x00, 0x00, 0x00, 0xfd, 0xff, 0xff, 0x19, 0x00, 0x00, 0x00, 0x53, 0x74, 0x61, 0x74, 0x65, 0x66, 0x75, 0x6c, 0x50, 0x61, 0x72, 0x74, 0x69, 0x74, 0x69, 0x6f, 0x6e, 0x65, 0x64, 0x43, 0x61, 0x6c, 0x6c, 0x3a, 0x30, 0x00, 0x00, 0x00, 0x02, 0x00, 0x00, 0x00, 0x01, 0x00, 0x00, 0x00, 0x04, 0x00, 0x00, 0x00, 0x6e, 0xfd, 0xff, 0xff, 0x00, 0x00, 0x00, 0x01, 0x14, 0x00, 0x00, 0x00, 0x1c, 0x00, 0x00, 0x00, 0x1c, 0x00, 0x00, 0x00, 0x07, 0x00, 0x00, 0x00, 0x5c, 0x00, 0x00, 0x00, 0x02, 0x00, 0x00, 0x00, 0xff, 0xff, 0xff, 0xff, 0x04, 0x00, 0x00, 0x00, 0x58, 0xfd, 0xff, 0xff, 0x42, 0x00, 0x00, 0x00, 0x73, 0x65, 0x71, 0x75, 0x65, 0x6e, 0x74, 0x69, 0x61, 0x6c, 0x5f, 0x31, 0x2f, 0x64, 0x65, 0x6e, 0x73, 0x65, 0x5f, 0x44, 0x65, 0x6e, 0x73, 0x65, 0x33, 0x2f, 0x4d, 0x61, 0x74, 0x4d, 0x75, 0x6c, 0x3b, 0x73, 0x65, 0x71, 0x75, 0x65, 0x6e, 0x74, 0x69, 0x61, 0x6c, 0x5f, 0x31, 0x2f, 0x64, 0x65, 0x6e, 0x73, 0x65, 0x5f, 0x44, 0x65, 0x6e, 0x73, 0x65, 0x33, 0x2f, 0x42, 0x69, 0x61, 0x73, 0x41, 0x64, 0x64, 0x00, 0x00, 0x02, 0x00, 0x00, 0x00, 0x01, 0x00, 0x00, 0x00, 0x04, 0x00, 0x00, 0x00, 0xee, 0xfd, 0xff, 0xff, 0x00, 0x00, 0x00, 0x01, 0x14, 0x00, 0x00, 0x00, 0x1c, 0x00, 0x00, 0x00, 0x1c, 0x00, 0x00, 0x00, 0x06, 0x00, 0x00, 0x00, 0x7c, 0x00, 0x00, 0x00, 0x02, 0x00, 0x00, 0x00, 0xff, 0xff, 0xff, 0xff, 0x80, 0x00, 0x00, 0x00, 0xd8, 0xfd, 0xff, 0xff, 0x61, 0x00, 0x00, 0x00, 0x73, 0x65, 0x71, 0x75, 0x65, 0x6e, 0x74, 0x69, 0x61, 0x6c, 0x5f, 0x31, 0x2f, 0x64, 0x65, 0x6e, 0x73, 0x65, 0x5f, 0x44, 0x65, 0x6e, 0x73, 0x65, 0x32, 0x2f, 0x4d, 0x61, 0x74, 0x4d, 0x75, 0x6c, 0x3b, 0x73, 0x65, 0x71, 0x75, 0x65, 0x6e, 0x74, 0x69, 0x61, 0x6c, 0x5f, 0x31, 0x2f, 0x64, 0x65, 0x6e, 0x73, 0x65, 0x5f, 0x44, 0x65, 0x6e, 0x73, 0x65, 0x32, 0x2f, 0x52, 0x65, 0x6c, 0x75, 0x3b, 0x73, 0x65, 0x71, 0x75, 0x65, 0x6e, 0x74, 0x69, 0x61, 0x6c, 0x5f, 0x31, 0x2f, 0x64, 0x65, 0x6e, 0x73, 0x65, 0x5f, 0x44, 0x65, 0x6e, 0x73, 0x65, 0x32, 0x2f, 0x42, 0x69, 0x61, 0x73, 0x41, 0x64, 0x64, 0x00, 0x00, 0x00, 0x02, 0x00, 0x00, 0x00, 0x01, 0x00, 0x00, 0x00, 0x80, 0x00, 0x00, 0x00, 0x02, 0xff, 0xff, 0xff, 0x00, 0x00, 0x00, 0x01, 0x10, 0x00, 0x00, 0x00, 0x10, 0x00, 0x00, 0x00, 0x05, 0x00, 0x00, 0x00, 0x30, 0x00, 0x00, 0x00, 0x68, 0xfe, 0xff, 0xff, 0x20, 0x00, 0x00, 0x00, 0x73, 0x65, 0x71, 0x75, 0x65, 0x6e, 0x74, 0x69, 0x61, 0x6c, 0x5f, 0x31, 0x2f, 0x64, 0x65, 0x6e, 0x73, 0x65, 0x5f, 0x44, 0x65, 0x6e, 0x73, 0x65, 0x33, 0x2f, 0x4d, 0x61, 0x74, 0x4d, 0x75, 0x6c, 0x00, 0x00, 0x00, 0x00, 0x02, 0x00, 0x00, 0x00, 0x04, 0x00, 0x00, 0x00, 0x80, 0x00, 0x00, 0x00, 0x52, 0xff, 0xff, 0xff, 0x00, 0x00, 0x00, 0x01, 0x10, 0x00, 0x00, 0x00, 0x10, 0x00, 0x00, 0x00, 0x04, 0x00, 0x00, 0x00, 0x30, 0x00, 0x00, 0x00, 0xb8, 0xfe, 0xff, 0xff, 0x20, 0x00, 0x00, 0x00, 0x73, 0x65, 0x71, 0x75, 0x65, 0x6e, 0x74, 0x69, 0x61, 0x6c, 0x5f, 0x31, 0x2f, 0x64, 0x65, 0x6e, 0x73, 0x65, 0x5f, 0x44, 0x65, 0x6e, 0x73, 0x65, 0x32, 0x2f, 0x4d, 0x61, 0x74, 0x4d, 0x75, 0x6c, 0x00, 0x00, 0x00, 0x00, 0x02, 0x00, 0x00, 0x00, 0x80, 0x00, 0x00, 0x00, 0x0f, 0x00, 0x00, 0x00, 0xa2, 0xff, 0xff, 0xff, 0x00, 0x00, 0x00, 0x01, 0x10, 0x00, 0x00, 0x00, 0x10, 0x00, 0x00, 0x00, 0x03, 0x00, 0x00, 0x00, 0x40, 0x00, 0x00, 0x00, 0x08, 0xff, 0xff, 0xff, 0x30, 0x00, 0x00, 0x00, 0x73, 0x65, 0x71, 0x75, 0x65, 0x6e, 0x74, 0x69, 0x61, 0x6c, 0x5f, 0x31, 0x2f, 0x64, 0x65, 0x6e, 0x73, 0x65, 0x5f, 0x44, 0x65, 0x6e, 0x73, 0x65, 0x32, 0x2f, 0x42, 0x69, 0x61, 0x73, 0x41, 0x64, 0x64, 0x2f, 0x52, 0x65, 0x61, 0x64, 0x56, 0x61, 0x72, 0x69, 0x61, 0x62, 0x6c, 0x65, 0x4f, 0x70, 0x00, 0x00, 0x00, 0x00, 0x01, 0x00, 0x00, 0x00, 0x80, 0x00, 0x00, 0x00, 0x00, 0x00, 0x16, 0x00, 0x18, 0x00, 0x14, 0x00, 0x00, 0x00, 0x10, 0x00, 0x0c, 0x00, 0x08, 0x00, 0x00, 0x00, 0x00, 0x00, 0x00, 0x00, 0x07, 0x00, 0x16, 0x00, 0x00, 0x00, 0x00, 0x00, 0x00, 0x01, 0x10, 0x00, 0x00, 0x00, 0x10, 0x00, 0x00, 0x00, 0x02, 0x00, 0x00, 0x00, 0x40, 0x00, 0x00, 0x00, 0x7c, 0xff, 0xff, 0xff, 0x30, 0x00, 0x00, 0x00, 0x73, 0x65, 0x71, 0x75, 0x65, 0x6e, 0x74, 0x69, 0x61, 0x6c, 0x5f, 0x31, 0x2f, 0x64, 0x65, 0x6e, 0x73, 0x65, 0x5f, 0x44, 0x65, 0x6e, 0x73, 0x65, 0x33, 0x2f, 0x42, 0x69, 0x61, 0x73, 0x41, 0x64, 0x64, 0x2f, 0x52, 0x65, 0x61, 0x64, 0x56, 0x61, 0x72, 0x69, 0x61, 0x62, 0x6c, 0x65, 0x4f, 0x70, 0x00, 0x00, 0x00, 0x00, 0x01, 0x00, 0x00, 0x00, 0x04, 0x00, 0x00, 0x00, 0x00, 0x00, 0x16, 0x00, 0x1c, 0x00, 0x18, 0x00, 0x00, 0x00, 0x14, 0x00, 0x10, 0x00, 0x0c, 0x00, 0x00, 0x00, 0x00, 0x00, 0x08, 0x00, 0x07, 0x00, 0x16, 0x00, 0x00, 0x00, 0x00, 0x00, 0x00, 0x01, 0x14, 0x00, 0x00, 0x00, 0x20, 0x00, 0x00, 0x00, 0x20, 0x00, 0x00, 0x00, 0x01, 0x00, 0x00, 0x00, 0x38, 0x00, 0x00, 0x00, 0x02, 0x00, 0x00, 0x00, 0xff, 0xff, 0xff, 0xff, 0x0f, 0x00, 0x00, 0x00, 0x04, 0x00, 0x04, 0x00, 0x04, 0x00, 0x00, 0x00, 0x18, 0x00, 0x00, 0x00, 0x73, 0x65, 0x72, 0x76, 0x69, 0x6e, 0x67, 0x5f, 0x64, 0x65, 0x66, 0x61, 0x75, 0x6c, 0x74, 0x5f, 0x69, 0x6e, 0x70, 0x75, 0x74, 0x31, 0x3a, 0x30, 0x00, 0x00, 0x00, 0x00, 0x02, 0x00, 0x00, 0x00, 0x01, 0x00, 0x00, 0x00, 0x0f, 0x00, 0x00, 0x00, 0x02, 0x00, 0x00, 0x00, 0x20, 0x00, 0x00, 0x00, 0x04, 0x00, 0x00, 0x00, 0xf4, 0xff, 0xff, 0xff, 0x19, 0x00, 0x00, 0x00, 0x00, 0x00, 0x00, 0x19, 0x0c, 0x00, 0x0c, 0x00, 0x0b, 0x00, 0x00, 0x00, 0x00, 0x00, 0x04, 0x00, 0x0c, 0x00, 0x00, 0x00, 0x09, 0x00, 0x00, 0x00, 0x00, 0x00, 0x00, 0x09};
const int model_data_len = 12024;